#include "magic_wand_model_data.h"


// We need to keep the data array aligned on some architectures.

#ifdef __has_attribute

#define HAVE_ATTRIBUTE(x) __has_attribute(x)

#else

#define HAVE_ATTRIBUTE(x) 0

#endif

#if HAVE_ATTRIBUTE(aligned) || (defined(__GNUC__) && !defined(__clang__))

#define DATA_ALIGN_ATTRIBUTE __attribute__((aligned(4)))

#else

#define DATA_ALIGN_ATTRIBUTE

#endif


const unsigned char g_magic_wand_model_data[] DATA_ALIGN_ATTRIBUTE = {

  // Paste the data of the char array in `src/model.cc` here
  
  0x08, 0x00, 0x00, 0x00, 0x54, 0x46, 0x4c, 0x33, 0x62, 0xff, 0xff, 0xff,
  0x03, 0x00, 0x00, 0x00, 0x10, 0x00, 0x00, 0x00, 0x24, 0x00, 0x00, 0x00,
  0x78, 0x00, 0x00, 0x00, 0x24, 0x00, 0x00, 0x00, 0x05, 0x00, 0x00, 0x00,
  0x78, 0x05, 0x00, 0x00, 0xb0, 0x04, 0x00, 0x00, 0xe0, 0x02, 0x00, 0x00,
  0x60, 0x02, 0x00, 0x00, 0x54, 0x01, 0x00, 0x00, 0x01, 0x00, 0x00, 0x00,
  0x78, 0x00, 0x00, 0x00, 0x13, 0x00, 0x00, 0x00, 0x5c, 0x30, 0x00, 0x00,
  0x58, 0x30, 0x00, 0x00, 0x64, 0x2f, 0x00, 0x00, 0xe8, 0x2e, 0x00, 0x00,
  0x7c, 0x2e, 0x00, 0x00, 0x2c, 0x12, 0x00, 0x00, 0x98, 0x10, 0x00, 0x00,
  0xbc, 0x0e, 0x00, 0x00, 0x60, 0x06, 0x00, 0x00, 0xfc, 0x05, 0x00, 0x00,
  0x78, 0x05, 0x00, 0x00, 0x30, 0x30, 0x00, 0x00, 0x2c, 0x30, 0x00, 0x00,
  0x28, 0x30, 0x00, 0x00, 0x24, 0x30, 0x00, 0x00, 0x20, 0x30, 0x00, 0x00,
  0x1c, 0x30, 0x00, 0x00, 0x18, 0x30, 0x00, 0x00, 0x14, 0x30, 0x00, 0x00,
  0x0f, 0x00, 0x00, 0x00, 0x4d, 0x4c, 0x49, 0x52, 0x20, 0x43, 0x6f, 0x6e,
  0x76, 0x65, 0x72, 0x74, 0x65, 0x64, 0x2e, 0x00, 0x00, 0x00, 0x0e, 0x00,
  0x18, 0x00, 0x04, 0x00, 0x08, 0x00, 0x0c, 0x00, 0x10, 0x00, 0x14, 0x00,
  0x0e, 0x00, 0x00, 0x00, 0x14, 0x00, 0x00, 0x00, 0x5c, 0x00, 0x00, 0x00,
  0x60, 0x00, 0x00, 0x00, 0x64, 0x00, 0x00, 0x00, 0x84, 0x00, 0x00, 0x00,
  0x12, 0x00, 0x00, 0x00, 0x8c, 0x2f, 0x00, 0x00, 0x28, 0x2f, 0x00, 0x00,
  0x80, 0x2e, 0x00, 0x00, 0x18, 0x2e, 0x00, 0x00, 0xb0, 0x2d, 0x00, 0x00,
  0x5c, 0x11, 0x00, 0x00, 0xc0, 0x0f, 0x00, 0x00, 0xe4, 0x0d, 0x00, 0x00,
  0xa0, 0x05, 0x00, 0x00, 0x3c, 0x05, 0x00, 0x00, 0xb0, 0x04, 0x00, 0x00,
  0xe8, 0x03, 0x00, 0x00, 0x38, 0x03, 0x00, 0x00, 0xa4, 0x02, 0x00, 0x00,
  0x10, 0x02, 0x00, 0x00, 0x90, 0x01, 0x00, 0x00, 0xfc, 0x00, 0x00, 0x00,
  0x80, 0x00, 0x00, 0x00, 0x01, 0x00, 0x00, 0x00, 0x00, 0x00, 0x00, 0x00,
  0x01, 0x00, 0x00, 0x00, 0x11, 0x00, 0x00, 0x00, 0x08, 0x00, 0x00, 0x00,
  0x1c, 0x04, 0x00, 0x00, 0x58, 0x03, 0x00, 0x00, 0xc8, 0x02, 0x00, 0x00,
  0x24, 0x02, 0x00, 0x00, 0xac, 0x01, 0x00, 0x00, 0x10, 0x01, 0x00, 0x00,
  0x94, 0x00, 0x00, 0x00, 0x10, 0x00, 0x00, 0x00, 0x04, 0x00, 0x00, 0x00,
  0x6d, 0x61, 0x69, 0x6e, 0x00, 0x00, 0x00, 0x00, 0x8e, 0xff, 0xff, 0xff,
  0x00, 0x00, 0x00, 0x09, 0x04, 0x00, 0x00, 0x00, 0x1c, 0x00, 0x00, 0x00,
  0x10, 0x00, 0x00, 0x00, 0x04, 0x00, 0x00, 0x00, 0xc6, 0xd1, 0xff, 0xff,
  0x00, 0x00, 0x80, 0x3f, 0x01, 0x00, 0x00, 0x00, 0x11, 0x00, 0x00, 0x00,
  0x01, 0x00, 0x00, 0x00, 0x10, 0x00, 0x00, 0x00, 0xf6, 0xfb, 0xff, 0xff,
  0x00, 0x00, 0x00, 0x19, 0x01, 0x00, 0x00, 0x00, 0x46, 0xd1, 0xff, 0xff,
  0x10, 0x00, 0x00, 0x00, 0x12, 0x00, 0x00, 0x00, 0x14, 0x00, 0x00, 0x00,
  0x20, 0x00, 0x00, 0x00, 0x02, 0x00, 0x00, 0x00, 0x01, 0x00, 0x00, 0x00,
  0x05, 0x00, 0x00, 0x00, 0x08, 0x00, 0x00, 0x00, 0x49, 0x64, 0x65, 0x6e,
  0x74, 0x69, 0x74, 0x79, 0x00, 0x00, 0x00, 0x00, 0x80, 0xd1, 0xff, 0xff,
  0x00, 0x00, 0x0e, 0x00, 0x18, 0x00, 0x08, 0x00, 0x0c, 0x00, 0x10, 0x00,
  0x07, 0x00, 0x14, 0x00, 0x0e, 0x00, 0x00, 0x00, 0x00, 0x00, 0x00, 0x08,
  0x03, 0x00, 0x00, 0x00, 0x18, 0x00, 0x00, 0x00, 0x0c, 0x00, 0x00, 0x00,
  0x04, 0x00, 0x00, 0x00, 0x54, 0xd1, 0xff, 0xff, 0x01, 0x00, 0x00, 0x00,
  0x10, 0x00, 0x00, 0x00, 0x03, 0x00, 0x00, 0x00, 0x0f, 0x00, 0x00, 0x00,
  0x05, 0x00, 0x00, 0x00, 0x02, 0x00, 0x00, 0x00, 0xbe, 0xd1, 0xff, 0xff,
  0x10, 0x00, 0x00, 0x00, 0x11, 0x00, 0x00, 0x00, 0x14, 0x00, 0x00, 0x00,
  0x30, 0x00, 0x00, 0x00, 0x02, 0x00, 0x00, 0x00, 0x01, 0x00, 0x00, 0x00,
  0x05, 0x00, 0x00, 0x00, 0x1a, 0x00, 0x00, 0x00, 0x73, 0x65, 0x71, 0x75,
  0x65, 0x6e, 0x74, 0x69, 0x61, 0x6c, 0x2f, 0x64, 0x65, 0x6e, 0x73, 0x65,
  0x5f, 0x31, 0x2f, 0x42, 0x69, 0x61, 0x73, 0x41, 0x64, 0x64, 0x00, 0x00,
  0xb0, 0xd1, 0xff, 0xff, 0xd6, 0xfd, 0xff, 0xff, 0x00, 0x00, 0x00, 0x08,
  0x03, 0x00, 0x00, 0x00, 0x24, 0x00, 0x00, 0x00, 0x18, 0x00, 0x00, 0x00,
  0x0c, 0x00, 0x00, 0x00, 0x00, 0x00, 0x06, 0x00, 0x08, 0x00, 0x07, 0x00,
  0x06, 0x00, 0x00, 0x00, 0x00, 0x00, 0x00, 0x01, 0x01, 0x00, 0x00, 0x00,
  0x0f, 0x00, 0x00, 0x00, 0x03, 0x00, 0x00, 0x00, 0x0e, 0x00, 0x00, 0x00,
  0x04, 0x00, 0x00, 0x00, 0x01, 0x00, 0x00, 0x00, 0xfe, 0xfc, 0xff, 0xff,
  0x00, 0x00, 0x00, 0x09, 0x01, 0x00, 0x00, 0x00, 0x4e, 0xd2, 0xff, 0xff,
  0x10, 0x00, 0x00, 0x00, 0x10, 0x00, 0x00, 0x00, 0x14, 0x00, 0x00, 0x00,
  0x2c, 0x00, 0x00, 0x00, 0x02, 0x00, 0x00, 0x00, 0x01, 0x00, 0x00, 0x00,
  0x10, 0x00, 0x00, 0x00, 0x15, 0x00, 0x00, 0x00, 0x73, 0x65, 0x71, 0x75,
  0x65, 0x6e, 0x74, 0x69, 0x61, 0x6c, 0x2f, 0x64, 0x65, 0x6e, 0x73, 0x65,
  0x2f, 0x52, 0x65, 0x6c, 0x75, 0x00, 0x00, 0x00, 0x94, 0xd2, 0xff, 0xff,
  0x00, 0x00, 0x0a, 0x00, 0x10, 0x00, 0x04, 0x00, 0x08, 0x00, 0x0c, 0x00,
  0x0a, 0x00, 0x00, 0x00, 0x02, 0x00, 0x00, 0x00, 0x10, 0x00, 0x00, 0x00,
  0x04, 0x00, 0x00, 0x00, 0x01, 0x00, 0x00, 0x00, 0x0e, 0x00, 0x00, 0x00,
  0x02, 0x00, 0x00, 0x00, 0x0d, 0x00, 0x00, 0x00, 0x03, 0x00, 0x00, 0x00,
  0x7a, 0xfd, 0xff, 0xff, 0x00, 0x00, 0x00, 0x16, 0x01, 0x00, 0x00, 0x00,
  0xca, 0xd2, 0xff, 0xff, 0x10, 0x00, 0x00, 0x00, 0x0f, 0x00, 0x00, 0x00,
  0x14, 0x00, 0x00, 0x00, 0x30, 0x00, 0x00, 0x00, 0x02, 0x00, 0x00, 0x00,
  0x01, 0x00, 0x00, 0x00, 0x70, 0x00, 0x00, 0x00, 0x1a, 0x00, 0x00, 0x00,
  0x73, 0x65, 0x71, 0x75, 0x65, 0x6e, 0x74, 0x69, 0x61, 0x6c, 0x2f, 0x66,
  0x6c, 0x61, 0x74, 0x74, 0x65, 0x6e, 0x2f, 0x52, 0x65, 0x73, 0x68, 0x61,
  0x70, 0x65, 0x00, 0x00, 0xbc, 0xd2, 0xff, 0xff, 0xe2, 0xfe, 0xff, 0xff,
  0x00, 0x00, 0x00, 0x05, 0x01, 0x00, 0x00, 0x00, 0x38, 0x00, 0x00, 0x00,
  0x2c, 0x00, 0x00, 0x00, 0x14, 0x00, 0x00, 0x00, 0x00, 0x00, 0x0e, 0x00,
  0x14, 0x00, 0x00, 0x00, 0x10, 0x00, 0x0c, 0x00, 0x08, 0x00, 0x04, 0x00,
  0x0e, 0x00, 0x00, 0x00, 0x03, 0x00, 0x00, 0x00, 0x01, 0x00, 0x00, 0x00,
  0x03, 0x00, 0x00, 0x00, 0x01, 0x00, 0x00, 0x00, 0x01, 0x00, 0x00, 0x00,
  0x0d, 0x00, 0x00, 0x00, 0x01, 0x00, 0x00, 0x00, 0x0c, 0x00, 0x00, 0x00,
  0x5a, 0xd3, 0xff, 0xff, 0x10, 0x00, 0x00, 0x00, 0x0e, 0x00, 0x00, 0x00,
  0x1c, 0x00, 0x00, 0x00, 0x40, 0x00, 0x00, 0x00, 0x04, 0x00, 0x00, 0x00,
  0x01, 0x00, 0x00, 0x00, 0x07, 0x00, 0x00, 0x00, 0x01, 0x00, 0x00, 0x00,
  0x10, 0x00, 0x00, 0x00, 0x22, 0x00, 0x00, 0x00, 0x73, 0x65, 0x71, 0x75,
  0x65, 0x6e, 0x74, 0x69, 0x61, 0x6c, 0x2f, 0x6d, 0x61, 0x78, 0x5f, 0x70,
  0x6f, 0x6f, 0x6c, 0x69, 0x6e, 0x67, 0x32, 0x64, 0x5f, 0x31, 0x2f, 0x4d,
  0x61, 0x78, 0x50, 0x6f, 0x6f, 0x6c, 0x00, 0x00, 0x5c, 0xd3, 0xff, 0xff,
  0xc2, 0xfe, 0xff, 0xff, 0x00, 0x00, 0x00, 0x01, 0x24, 0x00, 0x00, 0x00,
  0x18, 0x00, 0x00, 0x00, 0x04, 0x00, 0x00, 0x00, 0xb4, 0xfe, 0xff, 0xff,
  0x01, 0x00, 0x00, 0x00, 0x01, 0x00, 0x00, 0x00, 0x00, 0x00, 0x00, 0x01,
  0x01, 0x00, 0x00, 0x00, 0x0c, 0x00, 0x00, 0x00, 0x03, 0x00, 0x00, 0x00,
  0x0b, 0x00, 0x00, 0x00, 0x07, 0x00, 0x00, 0x00, 0x09, 0x00, 0x00, 0x00,
  0xea, 0xd3, 0xff, 0xff, 0x10, 0x00, 0x00, 0x00, 0x0d, 0x00, 0x00, 0x00,
  0x1c, 0x00, 0x00, 0x00, 0x2c, 0x00, 0x00, 0x00, 0x04, 0x00, 0x00, 0x00,
  0x01, 0x00, 0x00, 0x00, 0x15, 0x00, 0x00, 0x00, 0x01, 0x00, 0x00, 0x00,
  0x10, 0x00, 0x00, 0x00, 0x0c, 0x00, 0x00, 0x00, 0x74, 0x66, 0x6c, 0x2e,
  0x63, 0x6f, 0x6e, 0x76, 0x5f, 0x32, 0x64, 0x31, 0x00, 0x00, 0x00, 0x00,
  0x30, 0xd4, 0xff, 0xff, 0x00, 0x00, 0x0e, 0x00, 0x1a, 0x00, 0x08, 0x00,
  0x0c, 0x00, 0x10, 0x00, 0x07, 0x00, 0x14, 0x00, 0x0e, 0x00, 0x00, 0x00,
  0x00, 0x00, 0x00, 0x05, 0x01, 0x00, 0x00, 0x00, 0x3c, 0x00, 0x00, 0x00,
  0x30, 0x00, 0x00, 0x00, 0x14, 0x00, 0x00, 0x00, 0x00, 0x00, 0x0e, 0x00,
  0x18, 0x00, 0x17, 0x00, 0x10, 0x00, 0x0c, 0x00, 0x08, 0x00, 0x04, 0x00,
  0x0e, 0x00, 0x00, 0x00, 0x03, 0x00, 0x00, 0x00, 0x03, 0x00, 0x00, 0x00,
  0x03, 0x00, 0x00, 0x00, 0x03, 0x00, 0x00, 0x00, 0x00, 0x00, 0x00, 0x01,
  0x01, 0x00, 0x00, 0x00, 0x0b, 0x00, 0x00, 0x00, 0x01, 0x00, 0x00, 0x00,
  0x0a, 0x00, 0x00, 0x00, 0x46, 0xff, 0xff, 0xff, 0x00, 0x00, 0x00, 0x11,
  0x01, 0x00, 0x00, 0x00, 0x96, 0xd4, 0xff, 0xff, 0x10, 0x00, 0x00, 0x00,
  0x0c, 0x00, 0x00, 0x00, 0x1c, 0x00, 0x00, 0x00, 0x40, 0x00, 0x00, 0x00,
  0x04, 0x00, 0x00, 0x00, 0x01, 0x00, 0x00, 0x00, 0x15, 0x00, 0x00, 0x00,
  0x01, 0x00, 0x00, 0x00, 0x08, 0x00, 0x00, 0x00, 0x20, 0x00, 0x00, 0x00,
  0x73, 0x65, 0x71, 0x75, 0x65, 0x6e, 0x74, 0x69, 0x61, 0x6c, 0x2f, 0x6d,
  0x61, 0x78, 0x5f, 0x70, 0x6f, 0x6f, 0x6c, 0x69, 0x6e, 0x67, 0x32, 0x64,
  0x2f, 0x4d, 0x61, 0x78, 0x50, 0x6f, 0x6f, 0x6c, 0x00, 0x00, 0x00, 0x00,
  0xf0, 0xd4, 0xff, 0xff, 0x00, 0x00, 0x0e, 0x00, 0x14, 0x00, 0x00, 0x00,
  0x08, 0x00, 0x0c, 0x00, 0x07, 0x00, 0x10, 0x00, 0x0e, 0x00, 0x00, 0x00,
  0x00, 0x00, 0x00, 0x01, 0x30, 0x00, 0x00, 0x00, 0x24, 0x00, 0x00, 0x00,
  0x10, 0x00, 0x00, 0x00, 0x0c, 0x00, 0x10, 0x00, 0x00, 0x00, 0x04, 0x00,
  0x08, 0x00, 0x0f, 0x00, 0x0c, 0x00, 0x00, 0x00, 0x01, 0x00, 0x00, 0x00,
  0x01, 0x00, 0x00, 0x00, 0x00, 0x00, 0x00, 0x01, 0x01, 0x00, 0x00, 0x00,
  0x0a, 0x00, 0x00, 0x00, 0x03, 0x00, 0x00, 0x00, 0x00, 0x00, 0x00, 0x00,
  0x06, 0x00, 0x00, 0x00, 0x08, 0x00, 0x00, 0x00, 0x00, 0x00, 0x0a, 0x00,
  0x0c, 0x00, 0x07, 0x00, 0x00, 0x00, 0x08, 0x00, 0x0a, 0x00, 0x00, 0x00,
  0x00, 0x00, 0x00, 0x03, 0x01, 0x00, 0x00, 0x00, 0x5a, 0xd5, 0xff, 0xff,
  0x10, 0x00, 0x00, 0x00, 0x0b, 0x00, 0x00, 0x00, 0x1c, 0x00, 0x00, 0x00,
  0x28, 0x00, 0x00, 0x00, 0x04, 0x00, 0x00, 0x00, 0x01, 0x00, 0x00, 0x00,
  0x40, 0x00, 0x00, 0x00, 0x03, 0x00, 0x00, 0x00, 0x08, 0x00, 0x00, 0x00,
  0x0b, 0x00, 0x00, 0x00, 0x74, 0x66, 0x6c, 0x2e, 0x63, 0x6f, 0x6e, 0x76,
  0x5f, 0x32, 0x64, 0x00, 0x44, 0xd5, 0xff, 0xff, 0x3a, 0xd6, 0xff, 0xff,
  0x04, 0x00, 0x00, 0x00, 0x40, 0x00, 0x00, 0x00, 0x4c, 0xad, 0x0d, 0xbe,
  0xe7, 0x50, 0x3f, 0xbe, 0x6b, 0xed, 0x65, 0xbf, 0xe2, 0x32, 0xf6, 0x3e,
  0xf5, 0x2f, 0x78, 0xbf, 0xba, 0x2a, 0xde, 0x3e, 0x0b, 0x51, 0x1a, 0xbe,
  0x41, 0x00, 0x2a, 0x3f, 0xe7, 0xa1, 0xd5, 0xbe, 0xb4, 0x3a, 0x82, 0xbe,
  0x03, 0x9f, 0xed, 0x3e, 0xa9, 0x10, 0x22, 0xbf, 0x88, 0x60, 0x0a, 0x3f,
  0x02, 0x90, 0x5c, 0xbf, 0x26, 0xf2, 0x2b, 0xbd, 0x49, 0x1d, 0x23, 0x3f,
  0xe2, 0xd5, 0xff, 0xff, 0x10, 0x00, 0x00, 0x00, 0x0a, 0x00, 0x00, 0x00,
  0x10, 0x00, 0x00, 0x00, 0x20, 0x00, 0x00, 0x00, 0x01, 0x00, 0x00, 0x00,
  0x10, 0x00, 0x00, 0x00, 0x0d, 0x00, 0x00, 0x00, 0x73, 0x74, 0x64, 0x2e,
  0x63, 0x6f, 0x6e, 0x73, 0x74, 0x61, 0x6e, 0x74, 0x31, 0x00, 0x00, 0x00,
  0xc4, 0xd5, 0xff, 0xff, 0xba, 0xd6, 0xff, 0xff, 0x04, 0x00, 0x00, 0x00,
  0x20, 0x00, 0x00, 0x00, 0x09, 0xdf, 0x24, 0xbf, 0xba, 0x8d, 0xb3, 0xbf,
  0x21, 0xe6, 0xcd, 0xbf, 0x32, 0xb3, 0x6a, 0xbf, 0xc5, 0x54, 0x1d, 0xbf,
  0xaa, 0xec, 0x6e, 0x3e, 0xfd, 0x4f, 0xdc, 0xbf, 0x2e, 0xb2, 0x85, 0x3e,
  0x42, 0xd6, 0xff, 0xff, 0x10, 0x00, 0x00, 0x00, 0x09, 0x00, 0x00, 0x00,
  0x10, 0x00, 0x00, 0x00, 0x20, 0x00, 0x00, 0x00, 0x01, 0x00, 0x00, 0x00,
  0x08, 0x00, 0x00, 0x00, 0x0c, 0x00, 0x00, 0x00, 0x73, 0x74, 0x64, 0x2e,
  0x63, 0x6f, 0x6e, 0x73, 0x74, 0x61, 0x6e, 0x74, 0x00, 0x00, 0x00, 0x00,
  0x24, 0xd6, 0xff, 0xff, 0x1a, 0xd7, 0xff, 0xff, 0x04, 0x00, 0x00, 0x00,
  0x00, 0x08, 0x00, 0x00, 0x79, 0x89, 0xa0, 0xbe, 0x4a, 0x02, 0xbe, 0xbe,
  0x79, 0xe1, 0x34, 0xbe, 0xd1, 0xf0, 0xd6, 0xbe, 0xfb, 0x9d, 0xe6, 0xbc,
  0xb2, 0x17, 0x80, 0x3d, 0x7e, 0x22, 0x2d, 0xbe, 0xf4, 0xf0, 0x1e, 0x3d,
  0xb7, 0x22, 0xfa, 0xbd, 0x0d, 0x64, 0x87, 0xbe, 0xc8, 0x60, 0xf0, 0x3e,
  0x46, 0x30, 0x74, 0xbd, 0x15, 0xbd, 0x85, 0xbe, 0x0d, 0x05, 0x1b, 0xbe,
  0xed, 0x6c, 0x62, 0xbd, 0x85, 0x0f, 0xc0, 0xbe, 0x6b, 0x6b, 0x7a, 0x3d,
  0xbe, 0x73, 0x9e, 0x3e, 0x21, 0x54, 0x4f, 0x3e, 0x56, 0xd5, 0x5f, 0x3d,
  0xe1, 0x7e, 0x6c, 0x3e, 0x55, 0xef, 0x61, 0x3e, 0xb6, 0xc8, 0xac, 0x3e,
  0x1f, 0x46, 0xd9, 0x3d, 0xdb, 0x89, 0xe0, 0x3b, 0x3a, 0x7b, 0xc7, 0x3d,
  0x18, 0xc8, 0x74, 0xbd, 0x32, 0x3f, 0xa6, 0x3d, 0x73, 0x12, 0xea, 0xbd,
  0x67, 0x2c, 0xd8, 0xbd, 0x2c, 0xa8, 0xb0, 0xbd, 0x0a, 0x29, 0x9f, 0xbe,
  0xe1, 0xd7, 0xa2, 0xbe, 0xf4, 0xff, 0xc8, 0x3d, 0x25, 0x22, 0x7e, 0x3e,
  0x3c, 0xed, 0xde, 0xbe, 0x70, 0x64, 0xb0, 0x3d, 0x87, 0x5d, 0x8c, 0x3e,
  0x82, 0xc2, 0x49, 0x3d, 0x88, 0x78, 0x02, 0x3d, 0x42, 0x9a, 0xf5, 0xbe,
  0x62, 0x2c, 0x60, 0xbc, 0x38, 0x61, 0xae, 0xbc, 0xab, 0xfc, 0x19, 0xbf,
  0xfa, 0x32, 0xdb, 0x3d, 0x24, 0xea, 0x2a, 0x3d, 0x25, 0x59, 0x18, 0x3e,
  0x37, 0x9c, 0x18, 0x3e, 0x2a, 0x53, 0xe1, 0xbe, 0xbf, 0x7a, 0xff, 0x3c,
  0xac, 0x15, 0x12, 0x3e, 0xbd, 0x5c, 0xc3, 0xbe, 0xa8, 0x31, 0x83, 0xbd,
  0x86, 0x63, 0x3d, 0xbd, 0xab, 0xbc, 0x9e, 0x3e, 0xb2, 0x8b, 0xf4, 0x3d,
  0x8e, 0xb3, 0xbd, 0xbe, 0x96, 0x2e, 0x0c, 0x3e, 0xc0, 0x9f, 0xfb, 0x3e,
  0xd8, 0xcc, 0xde, 0xbe, 0x6e, 0xaf, 0x6b, 0x3e, 0x45, 0x81, 0x25, 0x3e,
  0x1a, 0xe8, 0x7b, 0x3d, 0x54, 0x15, 0xf0, 0x3d, 0x21, 0x9f, 0x2a, 0xbe,
  0x28, 0x98, 0x64, 0x3e, 0x4b, 0xae, 0x6b, 0x3e, 0x1c, 0xb8, 0x34, 0xbd,
  0xc0, 0xe6, 0xcf, 0x3d, 0x7b, 0x25, 0x18, 0xbe, 0xfb, 0x7d, 0xab, 0x3d,
  0x0a, 0x97, 0x13, 0xbe, 0x2a, 0x62, 0x80, 0x3c, 0xda, 0x88, 0x01, 0x3e,
  0x8d, 0xd9, 0x91, 0x3e, 0x74, 0xf5, 0xc4, 0xbd, 0xea, 0xb5, 0xb4, 0x3b,
  0xe7, 0xd7, 0x66, 0x3d, 0x8a, 0x48, 0x3a, 0x3e, 0x4c, 0x2a, 0xae, 0xbe,
  0x4f, 0x64, 0x34, 0xbe, 0x51, 0xbd, 0x6c, 0x3e, 0xb1, 0x3b, 0x2a, 0x3f,
  0xe7, 0x9c, 0x3d, 0xbe, 0xc2, 0x3b, 0x67, 0x3e, 0x00, 0xf7, 0x51, 0xbd,
  0xe9, 0x5b, 0x0e, 0x3e, 0xf3, 0xf8, 0xe0, 0xbe, 0x48, 0xed, 0xd1, 0xbd,
  0x16, 0x3a, 0xbb, 0xbe, 0xf5, 0x0a, 0x80, 0xbe, 0xb7, 0xbe, 0x79, 0xbe,
  0xe0, 0x77, 0x2c, 0x3e, 0x1d, 0xfb, 0xe0, 0xbd, 0xd6, 0xbb, 0x22, 0xbe,
  0x92, 0xc9, 0x87, 0xbe, 0x10, 0x00, 0x80, 0xbe, 0x6a, 0xdc, 0x83, 0xbe,
  0x0c, 0x1b, 0x8a, 0x3d, 0x6b, 0x17, 0x30, 0xbe, 0xda, 0x42, 0x83, 0xbe,
  0xcf, 0x80, 0x5d, 0x3c, 0x54, 0x7c, 0xca, 0x3c, 0xd0, 0xa6, 0x0c, 0x3d,
  0x5b, 0x96, 0x30, 0xbe, 0xcb, 0x89, 0x99, 0xbd, 0x0f, 0x30, 0x45, 0x3e,
  0xdf, 0x81, 0x0c, 0x3e, 0xfc, 0x78, 0x74, 0xbe, 0x28, 0x3f, 0x2b, 0xbe,
  0x7b, 0xfb, 0x8b, 0xbd, 0x92, 0x5c, 0x7f, 0x3e, 0xd6, 0x89, 0x0f, 0xbe,
  0x63, 0x65, 0xc4, 0x3c, 0x41, 0x7f, 0x32, 0xbe, 0xe0, 0x87, 0x94, 0x3d,
  0x56, 0xfe, 0xab, 0xbe, 0xf7, 0x30, 0x52, 0x3e, 0x7b, 0x52, 0x3c, 0x3e,
  0x64, 0x32, 0x8c, 0x3e, 0x87, 0x53, 0x78, 0x3d, 0xff, 0xf3, 0x2d, 0xbc,
  0x69, 0x63, 0xa8, 0xbe, 0x03, 0x48, 0x1e, 0x3e, 0x48, 0xbe, 0x83, 0xbe,
  0x3c, 0x6b, 0x5f, 0xbe, 0x03, 0x8d, 0xc7, 0x3d, 0x95, 0x66, 0xb9, 0x3d,
  0x34, 0x82, 0x54, 0xbe, 0x0a, 0x5b, 0x53, 0x3e, 0x25, 0x95, 0xcc, 0x3d,
  0x2d, 0x96, 0x7b, 0xbd, 0x0a, 0x12, 0xb6, 0xbc, 0x60, 0xfc, 0x10, 0xbe,
  0x9a, 0x1a, 0x29, 0xbd, 0xee, 0xd5, 0xd8, 0xbd, 0x19, 0x33, 0x4f, 0xbe,
  0x77, 0x0d, 0x89, 0x3e, 0x67, 0xb0, 0x0d, 0x3f, 0x4b, 0xa3, 0xa1, 0x3c,
  0xf6, 0x30, 0x4f, 0xbe, 0x94, 0x12, 0x1f, 0xbe, 0x5b, 0xdc, 0xa0, 0xbd,
  0x2d, 0xec, 0x19, 0xbf, 0x3d, 0xbe, 0x99, 0xbd, 0xd3, 0x97, 0xfe, 0x3e,
  0x97, 0xd4, 0x2b, 0x3f, 0x6a, 0xa5, 0xb9, 0xbc, 0x71, 0x71, 0xc2, 0x3d,
  0x26, 0xba, 0x39, 0xbc, 0x9f, 0x0b, 0x25, 0x3f, 0xb2, 0x97, 0x81, 0xbe,
  0x1b, 0xfd, 0x61, 0x3c, 0x87, 0xdf, 0xf9, 0x3c, 0x6d, 0xc9, 0x5a, 0x3e,
  0x0d, 0x03, 0x89, 0x3d, 0xf9, 0xff, 0xc9, 0xbb, 0x9c, 0xd8, 0xa0, 0xbd,
  0x1b, 0x08, 0x3d, 0x3e, 0xb4, 0xdc, 0x76, 0x3d, 0xbd, 0xf5, 0x38, 0xbe,
  0x3e, 0xae, 0xd8, 0xbc, 0x8f, 0x14, 0x42, 0xbc, 0xa5, 0x05, 0x26, 0xbe,
  0xee, 0x40, 0xa8, 0x3d, 0x77, 0x0f, 0xb9, 0x3e, 0x5e, 0xba, 0x45, 0x3d,
  0xea, 0x6c, 0xf0, 0x3e, 0xed, 0x07, 0xbf, 0x3c, 0x8d, 0xad, 0x19, 0xbd,
  0xbb, 0x37, 0x56, 0x3d, 0xb2, 0x84, 0xb1, 0xbe, 0xc8, 0xe1, 0x12, 0xbe,
  0x94, 0xb0, 0x36, 0x3e, 0x05, 0xa9, 0xba, 0xbd, 0x4f, 0x57, 0x05, 0x3e,
  0xc1, 0x45, 0x86, 0x3c, 0x8c, 0x74, 0x01, 0x3e, 0x54, 0xea, 0x33, 0xbe,
  0x79, 0x41, 0x88, 0xbe, 0x12, 0x5a, 0x92, 0x3e, 0x03, 0x50, 0xb3, 0xba,
  0x39, 0x8d, 0x76, 0xbe, 0xac, 0xa8, 0x54, 0xbd, 0xb8, 0x5f, 0x00, 0xbe,
  0x43, 0x01, 0x4b, 0xbd, 0x7f, 0xa2, 0xe7, 0x3c, 0xfa, 0x01, 0xb7, 0xbe,
  0x3c, 0x3a, 0xce, 0xbd, 0x0d, 0x66, 0xbe, 0x3d, 0x98, 0xb2, 0xe7, 0x3d,
  0x16, 0x6a, 0x67, 0x3e, 0x81, 0xa4, 0x1e, 0xbe, 0x9b, 0x89, 0xae, 0xbd,
  0x2e, 0xd0, 0xab, 0xbd, 0x5f, 0xe2, 0x8c, 0xbd, 0xcc, 0x00, 0x70, 0x3d,
  0xa6, 0x6b, 0xdf, 0x3d, 0xec, 0xfc, 0x7a, 0xbe, 0x30, 0x3f, 0x8d, 0xbd,
  0x35, 0xf0, 0xa7, 0xbe, 0x19, 0xd6, 0x97, 0xbe, 0xe0, 0xdc, 0xfc, 0xbd,
  0x55, 0x43, 0x2e, 0xbe, 0x67, 0x7b, 0x83, 0xbe, 0xd7, 0xcb, 0x57, 0xbe,
  0x6a, 0x5d, 0xc6, 0xbd, 0xe9, 0x75, 0xaa, 0x3d, 0xbb, 0x60, 0xa4, 0x3d,
  0xc6, 0xa1, 0xf2, 0x3d, 0x5b, 0xa8, 0x92, 0xbd, 0x9a, 0xba, 0x6b, 0xbe,
  0xdd, 0xae, 0xb1, 0xbd, 0xff, 0x26, 0x77, 0xbd, 0x64, 0x88, 0x60, 0xbe,
  0x90, 0x64, 0x71, 0xbc, 0xd3, 0x91, 0x03, 0xbe, 0x0b, 0x99, 0x68, 0x3e,
  0x4b, 0x00, 0x52, 0xbe, 0x4f, 0x0b, 0x2f, 0x3e, 0x38, 0xdb, 0x48, 0xbe,
  0x0c, 0xad, 0x9a, 0xbe, 0xc4, 0xb8, 0xa0, 0xbd, 0xee, 0x17, 0x0a, 0xbe,
  0x59, 0xbc, 0x76, 0xbd, 0x4d, 0x39, 0xa3, 0xbe, 0xd0, 0xd8, 0x4a, 0x3c,
  0xa7, 0x46, 0x8d, 0xbe, 0x68, 0xac, 0x55, 0xbf, 0x18, 0xd2, 0xfa, 0xbd,
  0xa0, 0x87, 0xc1, 0xbe, 0x80, 0x69, 0xa5, 0xbe, 0xca, 0x1c, 0x11, 0x3d,
  0x49, 0xf5, 0xad, 0xbe, 0x4f, 0x02, 0xbd, 0x3d, 0xe1, 0xbe, 0xb0, 0xbd,
  0x13, 0x79, 0xac, 0x3e, 0x5e, 0x24, 0x0d, 0xbf, 0xeb, 0x17, 0x02, 0x3e,
  0xeb, 0xd8, 0x3c, 0x3e, 0xe2, 0x2f, 0xa6, 0x3d, 0xe8, 0xa3, 0x9c, 0xbe,
  0x4b, 0x82, 0x0d, 0xbe, 0x96, 0x7e, 0x30, 0xbd, 0x88, 0xf2, 0x4a, 0xbf,
  0x51, 0x24, 0x44, 0x3c, 0x5d, 0xd3, 0x32, 0xbe, 0x18, 0xb5, 0xb2, 0x3d,
  0xbf, 0xfe, 0x17, 0x3d, 0x96, 0x34, 0x98, 0xbd, 0xa4, 0x15, 0x75, 0x3e,
  0xe8, 0xdb, 0xaa, 0xbd, 0x6b, 0x90, 0xe8, 0xbe, 0xcf, 0x1a, 0x37, 0xbd,
  0x6d, 0xf4, 0xa0, 0xbc, 0xa0, 0x2b, 0xae, 0x3e, 0x92, 0x95, 0x98, 0xbb,
  0xc2, 0x50, 0x98, 0xbe, 0xc2, 0xb2, 0x19, 0xbe, 0x92, 0xc2, 0x32, 0x3e,
  0x6a, 0xa1, 0x21, 0xbf, 0xc5, 0x82, 0x1f, 0xbf, 0xbe, 0x05, 0x8a, 0xbe,
  0x91, 0x6c, 0xb8, 0xbe, 0xc4, 0x79, 0x3f, 0xbd, 0xb3, 0x9e, 0xeb, 0x3e,
  0xa2, 0x9e, 0x5a, 0x3e, 0xf3, 0x7c, 0x54, 0x3e, 0x97, 0xbb, 0x8d, 0xbe,
  0x38, 0x0e, 0x6a, 0xbe, 0x1b, 0xbf, 0xd6, 0x3d, 0xb3, 0xfa, 0xec, 0xbe,
  0x97, 0x53, 0x51, 0xbe, 0x9f, 0x50, 0x76, 0x3e, 0xd1, 0xf0, 0xc1, 0x3d,
  0x96, 0x20, 0x05, 0xbe, 0xcf, 0xd9, 0xbb, 0xbe, 0x7c, 0x56, 0x0d, 0x3c,
  0xd8, 0x4d, 0x26, 0xbe, 0x4d, 0x76, 0xdf, 0xbe, 0x57, 0xd8, 0x1f, 0xbe,
  0xbc, 0x65, 0x5c, 0x3e, 0xb9, 0xa1, 0x43, 0xbd, 0xae, 0xcf, 0x5b, 0xbe,
  0xa0, 0x54, 0xa7, 0xbe, 0x65, 0x99, 0x75, 0x3e, 0x9e, 0xb7, 0x79, 0xbc,
  0x2f, 0x9a, 0x9f, 0xbe, 0x6e, 0x2f, 0x97, 0xbc, 0x08, 0x9b, 0x52, 0x3d,
  0xfd, 0x84, 0x5c, 0x3e, 0x9a, 0x1f, 0x02, 0xbf, 0xd6, 0xd4, 0x83, 0x3e,
  0xe7, 0x89, 0x57, 0x3e, 0xbd, 0x7f, 0x53, 0x3b, 0x5b, 0x08, 0x29, 0xbd,
  0xbb, 0xf7, 0x3f, 0xbe, 0xe3, 0xda, 0x56, 0x3c, 0x69, 0x41, 0xb1, 0x3d,
  0x1f, 0x88, 0x08, 0xbf, 0x66, 0x9a, 0x03, 0x3e, 0xa7, 0x51, 0xf0, 0x3d,
  0xaa, 0xa1, 0x5b, 0x3d, 0xc3, 0xb9, 0x51, 0x3e, 0xd7, 0x6b, 0x90, 0xbe,
  0x82, 0x95, 0x50, 0xbe, 0xfd, 0xc3, 0x59, 0x3e, 0xa1, 0x00, 0xf1, 0xbe,
  0xa3, 0xe8, 0x9d, 0x3c, 0xd9, 0x0d, 0xe9, 0xbd, 0xf5, 0x29, 0xb8, 0xbd,
  0x08, 0x65, 0x33, 0x3e, 0x41, 0x20, 0xf6, 0xbd, 0xd7, 0x61, 0x0e, 0x3e,
  0x80, 0x50, 0x48, 0x3e, 0xe6, 0x06, 0xa2, 0xbe, 0x72, 0xc8, 0xea, 0xbd,
  0x18, 0x14, 0x36, 0x3e, 0x08, 0x8f, 0x32, 0xbd, 0x00, 0x2a, 0xc7, 0xbb,
  0x3d, 0x4a, 0x5e, 0x3e, 0xde, 0xbe, 0x90, 0xbd, 0xd8, 0x28, 0x24, 0xbe,
  0x92, 0xc6, 0x1f, 0x3c, 0xfa, 0x5a, 0x0b, 0x3e, 0x34, 0x9e, 0x86, 0xbe,
  0x49, 0x20, 0x16, 0xbb, 0x32, 0xd6, 0x63, 0x3e, 0xbb, 0x6d, 0xc5, 0xbd,
  0x24, 0x99, 0x65, 0xbd, 0xfc, 0x46, 0x40, 0xbe, 0x5a, 0x78, 0x88, 0xbd,
  0x18, 0xf9, 0xc9, 0x3d, 0xfb, 0xf7, 0xaa, 0xbe, 0xe2, 0x0d, 0xba, 0xbd,
  0xe0, 0x35, 0x2c, 0x3d, 0x9a, 0xbb, 0x5a, 0x3e, 0xce, 0xd8, 0x3c, 0x3e,
  0xb1, 0xe1, 0x19, 0xbd, 0xcc, 0xe5, 0xa3, 0x3c, 0x19, 0x9b, 0xaa, 0xbe,
  0xb7, 0x8b, 0xd3, 0xbe, 0x26, 0xe9, 0x1e, 0xbc, 0x59, 0x06, 0x9a, 0xbe,
  0x33, 0xed, 0x1b, 0xbe, 0xdf, 0x7d, 0x8c, 0x3e, 0xe7, 0x68, 0x13, 0xbd,
  0x21, 0xcd, 0x02, 0xbe, 0x08, 0x29, 0xf7, 0xbd, 0x3d, 0xfb, 0x4b, 0xbe,
  0xf9, 0xf0, 0xe5, 0xbd, 0x5c, 0xaf, 0x9a, 0xbd, 0x42, 0xb6, 0x50, 0x3e,
  0x90, 0xae, 0x95, 0x3d, 0xf3, 0x63, 0xbe, 0x3d, 0xe2, 0x35, 0xd5, 0xbd,
  0xc2, 0xd9, 0x44, 0xbe, 0xb9, 0xcb, 0xb8, 0xbd, 0x3a, 0x7b, 0xd0, 0xbd,
  0x44, 0x03, 0xd6, 0xbe, 0x30, 0x6c, 0xb4, 0xbd, 0x38, 0x10, 0xa3, 0x3d,
  0xd9, 0x15, 0xef, 0x3e, 0xdf, 0x7c, 0x3f, 0x3d, 0xc0, 0x6b, 0x36, 0xbe,
  0xc6, 0xa8, 0x97, 0xbc, 0x5e, 0x05, 0x16, 0x3e, 0x6f, 0xe2, 0x82, 0xbd,
  0xa6, 0x70, 0xa8, 0xbd, 0x8d, 0x3f, 0x0c, 0x3f, 0x6c, 0x31, 0x1f, 0x3e,
  0x33, 0x96, 0x0c, 0xbe, 0x81, 0xba, 0x43, 0xbd, 0xcc, 0x79, 0x67, 0xbe,
  0x8d, 0xbf, 0xb2, 0x3e, 0xfd, 0x09, 0x93, 0xbe, 0x8c, 0x7c, 0xeb, 0xbc,
  0x3f, 0xc2, 0xb8, 0x3e, 0x0e, 0xf0, 0xdc, 0x3c, 0xd6, 0xce, 0xde, 0xbd,
  0x85, 0x3f, 0xf3, 0xbd, 0x6a, 0x99, 0x38, 0xbe, 0xe3, 0xb5, 0x0b, 0x3e,
  0xe6, 0x43, 0xc4, 0xbe, 0xf9, 0x79, 0xb1, 0x3b, 0x52, 0x7a, 0x8e, 0x3b,
  0xb7, 0xcb, 0x67, 0x3e, 0x5d, 0xd7, 0xca, 0xbe, 0x04, 0x47, 0x0e, 0x3e,
  0xfd, 0x42, 0x9e, 0x3d, 0x6a, 0xce, 0x36, 0xbd, 0xab, 0x38, 0xdf, 0x3d,
  0xdd, 0x5b, 0xe1, 0xbd, 0x86, 0x47, 0x39, 0xbe, 0xe0, 0x59, 0x29, 0xbd,
  0x0d, 0x32, 0xa9, 0xb8, 0x1f, 0x1f, 0x03, 0xbe, 0x74, 0xf2, 0x1f, 0x3e,
  0xfb, 0x48, 0x1f, 0xbe, 0x64, 0x19, 0xef, 0x3d, 0xe8, 0xa0, 0x7b, 0x3e,
  0x8f, 0xc4, 0xa3, 0x3e, 0x0e, 0x1b, 0xb0, 0x3d, 0x5d, 0x05, 0x52, 0xbe,
  0x62, 0x7a, 0x68, 0x3d, 0x9b, 0xa9, 0xd1, 0x3c, 0x46, 0x13, 0x23, 0x3e,
  0xc6, 0x42, 0xb1, 0xbd, 0x88, 0xef, 0x6d, 0xbe, 0x43, 0x15, 0x10, 0xbd,
  0x45, 0xd7, 0x58, 0xbe, 0xe5, 0xc1, 0xca, 0xbe, 0x94, 0x81, 0x9d, 0xbd,
  0xcf, 0x14, 0x72, 0xbe, 0x7c, 0x3c, 0x31, 0xbe, 0x8c, 0x38, 0xc4, 0xbe,
  0x11, 0x57, 0x59, 0xbe, 0x84, 0x89, 0xf9, 0x3e, 0xdc, 0x0a, 0xe1, 0xbd,
  0x39, 0xf8, 0xde, 0xbd, 0x9a, 0x4b, 0x8a, 0xbe, 0x47, 0xb2, 0x0c, 0xbe,
  0x0f, 0x4a, 0xfe, 0xbc, 0x4a, 0x10, 0x01, 0xbe, 0x27, 0xb4, 0x06, 0xbe,
  0x81, 0x02, 0x16, 0x3e, 0x9a, 0xf1, 0x7e, 0x3e, 0xcc, 0x36, 0xe1, 0xbc,
  0x06, 0x4a, 0x94, 0xbe, 0x83, 0xbf, 0xdf, 0xbd, 0x35, 0x99, 0xa3, 0xbd,
  0x99, 0xbe, 0x8d, 0xbe, 0x87, 0x60, 0xa0, 0xbd, 0xab, 0xbe, 0x0b, 0x3f,
  0x5c, 0x1e, 0x2f, 0x3f, 0x2b, 0x71, 0xa6, 0x39, 0x17, 0xf4, 0x21, 0x3d,
  0x02, 0x23, 0x38, 0xbe, 0xca, 0xb5, 0x28, 0x3f, 0x9b, 0x46, 0xab, 0xbc,
  0x55, 0x2b, 0x74, 0x3d, 0x85, 0x14, 0x15, 0x3f, 0x63, 0xf3, 0xe6, 0x3e,
  0xde, 0x31, 0x97, 0x3c, 0xa1, 0x13, 0x9b, 0xbc, 0x50, 0x64, 0x3f, 0xbe,
  0x5c, 0xb7, 0x07, 0x3f, 0xc2, 0x8a, 0xab, 0x3c, 0xd0, 0x64, 0x7e, 0xbe,
  0x90, 0x76, 0x3a, 0x3e, 0xce, 0x11, 0x2c, 0x3e, 0x64, 0xe0, 0xd5, 0xbe,
  0x6b, 0x15, 0x49, 0x3e, 0x9b, 0x33, 0x0b, 0x3e, 0x6f, 0xcb, 0x29, 0xbe,
  0x1c, 0x9a, 0xa7, 0x3e, 0xbb, 0xc8, 0x04, 0xbf, 0x30, 0xcc, 0x6b, 0x3e,
  0xfe, 0x15, 0xa3, 0xbd, 0x33, 0xed, 0xc5, 0xbe, 0x94, 0x42, 0x6a, 0x3e,
  0x7d, 0xa8, 0x8d, 0xbd, 0xa3, 0x7d, 0x34, 0x3e, 0xc6, 0x67, 0xe7, 0xbc,
  0x06, 0xd5, 0x9e, 0xbe, 0x54, 0x94, 0x1a, 0x3e, 0xe8, 0x9a, 0xb9, 0x3e,
  0xec, 0x5b, 0xa8, 0xbe, 0x78, 0x8e, 0x68, 0x3e, 0x11, 0x9e, 0xbf, 0x3e,
  0xa1, 0xaf, 0xbd, 0x3d, 0xcb, 0x42, 0xc2, 0x3e, 0x36, 0xeb, 0x63, 0xbe,
  0xc9, 0xeb, 0xdf, 0x3d, 0xb5, 0x7f, 0x18, 0x3e, 0xdc, 0x2f, 0xa5, 0xbe,
  0x0f, 0x2b, 0x48, 0x3d, 0x12, 0xce, 0xaa, 0xbd, 0x6c, 0xa7, 0x19, 0x3e,
  0xc4, 0x03, 0x04, 0x3d, 0xdd, 0x83, 0x85, 0x3b, 0x90, 0x28, 0x86, 0xbd,
  0xb6, 0x73, 0x1d, 0x3e, 0x07, 0x0c, 0x70, 0x3d, 0x80, 0x18, 0xd6, 0x3e,
  0x03, 0xe2, 0x41, 0x3d, 0x43, 0x8a, 0xa0, 0x3d, 0x0f, 0x63, 0x9d, 0x3d,
  0xe5, 0x54, 0x09, 0x3e, 0x26, 0x37, 0x61, 0xbd, 0x32, 0xaf, 0xd9, 0x3d,
  0xc2, 0x82, 0xb6, 0xbd, 0x5c, 0x5a, 0x07, 0x3d, 0x91, 0x04, 0x33, 0x3d,
  0x90, 0x56, 0x51, 0xbe, 0xa4, 0x6c, 0x9a, 0xbd, 0xe5, 0xcd, 0xaa, 0x3e,
  0x5e, 0xf2, 0xe1, 0xbd, 0xb0, 0xa7, 0x72, 0xbd, 0x78, 0x36, 0x6b, 0xbd,
  0xc7, 0x5e, 0xc8, 0x3d, 0x3d, 0xcf, 0x58, 0x3e, 0xb0, 0x46, 0xfb, 0x3d,
  0xed, 0x22, 0xa5, 0x3d, 0xab, 0xc5, 0xe9, 0xbd, 0x69, 0x91, 0xab, 0x3b,
  0x2f, 0xd4, 0x68, 0xbd, 0xdc, 0x33, 0x77, 0x3c, 0x0b, 0x7f, 0x3e, 0xbe,
  0x6c, 0xff, 0x0b, 0x3e, 0x51, 0x22, 0x0c, 0xbe, 0x35, 0xdb, 0x96, 0xbd,
  0x82, 0xde, 0xff, 0xff, 0x10, 0x00, 0x00, 0x00, 0x08, 0x00, 0x00, 0x00,
  0x1c, 0x00, 0x00, 0x00, 0x38, 0x00, 0x00, 0x00, 0x04, 0x00, 0x00, 0x00,
  0x10, 0x00, 0x00, 0x00, 0x04, 0x00, 0x00, 0x00, 0x01, 0x00, 0x00, 0x00,
  0x08, 0x00, 0x00, 0x00, 0x1a, 0x00, 0x00, 0x00, 0x73, 0x65, 0x71, 0x75,
  0x65, 0x6e, 0x74, 0x69, 0x61, 0x6c, 0x2f, 0x63, 0x6f, 0x6e, 0x76, 0x32,
  0x64, 0x5f, 0x31, 0x2f, 0x43, 0x6f, 0x6e, 0x76, 0x32, 0x44, 0x00, 0x00,
  0x7c, 0xde, 0xff, 0xff, 0x72, 0xdf, 0xff, 0xff, 0x04, 0x00, 0x00, 0x00,
  0x80, 0x01, 0x00, 0x00, 0x47, 0xcb, 0xcc, 0x3d, 0xcb, 0x0d, 0x22, 0xbe,
  0x54, 0x93, 0xee, 0x3d, 0x79, 0x3b, 0xd4, 0x3d, 0x47, 0x38, 0xdd, 0xbd,
  0xe5, 0x6d, 0x66, 0x3d, 0x08, 0x19, 0xba, 0x3d, 0xba, 0x33, 0xb3, 0xbd,
  0xef, 0x82, 0xe1, 0xba, 0xeb, 0x5d, 0xc2, 0x3d, 0x56, 0x06, 0xd8, 0xbd,
  0x49, 0x58, 0xc1, 0x3d, 0xdf, 0xf0, 0x02, 0xbf, 0x03, 0xa9, 0xaf, 0x3e,
  0x32, 0xed, 0x04, 0xbd, 0x2a, 0x1b, 0x71, 0xbe, 0xd8, 0xea, 0x42, 0x3e,
  0x90, 0x06, 0x72, 0xbe, 0x47, 0xb1, 0xce, 0x3e, 0xe1, 0x10, 0xc8, 0xbe,
  0x57, 0x9d, 0x43, 0x3b, 0xa7, 0x74, 0xd0, 0x3e, 0xde, 0xa7, 0x36, 0xbe,
  0x08, 0xd1, 0x51, 0x3e, 0x1e, 0xaa, 0xab, 0x3e, 0x4a, 0xf2, 0xaa, 0xbc,
  0xd6, 0x96, 0xab, 0x3e, 0x71, 0x92, 0xc2, 0x3e, 0x33, 0x83, 0x8b, 0xbe,
  0x2e, 0xe9, 0x6f, 0x3c, 0xfb, 0xd0, 0x99, 0xbe, 0x71, 0x17, 0x2a, 0x3e,
  0xb1, 0x7b, 0xa4, 0xbe, 0x7a, 0x2c, 0xe4, 0xbe, 0x45, 0x49, 0x05, 0x3e,
  0x0a, 0x22, 0x87, 0xbc, 0xa8, 0xb7, 0xf7, 0x39, 0xc2, 0xe4, 0xde, 0x3d,
  0xc9, 0x2f, 0x26, 0x3d, 0xb4, 0x5d, 0xe4, 0x3c, 0xd0, 0x53, 0x13, 0x3e,
  0x3f, 0x3b, 0x63, 0x3d, 0x45, 0x05, 0x4e, 0x3d, 0x57, 0xfc, 0x18, 0x3e,
  0x05, 0x0a, 0x14, 0x3d, 0xfb, 0x4d, 0x51, 0x3c, 0xcb, 0x40, 0xf6, 0x3d,
  0x17, 0xb2, 0x0a, 0x3d, 0xe2, 0x40, 0x67, 0xbf, 0x7a, 0x09, 0x88, 0xbe,
  0xf7, 0x68, 0x9f, 0xbe, 0x89, 0xc0, 0xd2, 0x3e, 0x9a, 0x78, 0x06, 0x3e,
  0xa5, 0x08, 0xd0, 0x3d, 0x8a, 0xc8, 0xfe, 0x3e, 0xba, 0xc6, 0xed, 0xbb,
  0x35, 0x76, 0x11, 0x3d, 0x68, 0xa2, 0x88, 0xbe, 0x13, 0xc3, 0x45, 0xbe,
  0x95, 0x78, 0x75, 0xbc, 0xcf, 0xea, 0x8a, 0xbc, 0x04, 0x98, 0x0f, 0xbe,
  0x76, 0xc8, 0x6a, 0x3e, 0x38, 0x0a, 0xca, 0x3e, 0xfd, 0x69, 0x4c, 0xbd,
  0xed, 0xcd, 0xb1, 0xbe, 0x73, 0x5a, 0x27, 0x3e, 0x48, 0xaf, 0x13, 0x3e,
  0xf2, 0x0c, 0x16, 0xbe, 0x6f, 0xfb, 0xf9, 0x3e, 0x5f, 0xb6, 0x98, 0xbd,
  0xc6, 0x4c, 0xf0, 0x3d, 0xdd, 0xf8, 0xce, 0x3e, 0x8f, 0x79, 0xd5, 0xbe,
  0x4d, 0x35, 0x94, 0x3e, 0x67, 0xf9, 0x2c, 0x3e, 0xd9, 0xf1, 0x29, 0x3c,
  0x8e, 0x0a, 0xf9, 0xbd, 0xda, 0xfd, 0x90, 0xbe, 0x83, 0x35, 0x86, 0x3e,
  0x42, 0xef, 0x30, 0xbe, 0xbd, 0x77, 0x9e, 0xbe, 0x67, 0x4a, 0xec, 0x3d,
  0xc9, 0x5a, 0x75, 0xbd, 0xf4, 0x5c, 0xb1, 0x3e, 0x60, 0x95, 0xbe, 0x3d,
  0x87, 0x35, 0xc1, 0xbe, 0x2c, 0x63, 0x06, 0xbe, 0xc7, 0x90, 0xb1, 0xbe,
  0x2b, 0xaf, 0x15, 0xbe, 0xc0, 0x76, 0x18, 0x3e, 0xf4, 0x9e, 0x41, 0x3e,
  0x15, 0x8e, 0x58, 0xbe, 0xd7, 0x3c, 0xa0, 0x3e, 0x7b, 0xc9, 0x36, 0xbe,
  0x44, 0xdf, 0x2c, 0xbb, 0x5a, 0xe0, 0xff, 0xff, 0x10, 0x00, 0x00, 0x00,
  0x07, 0x00, 0x00, 0x00, 0x1c, 0x00, 0x00, 0x00, 0x38, 0x00, 0x00, 0x00,
  0x04, 0x00, 0x00, 0x00, 0x08, 0x00, 0x00, 0x00, 0x04, 0x00, 0x00, 0x00,
  0x03, 0x00, 0x00, 0x00, 0x01, 0x00, 0x00, 0x00, 0x18, 0x00, 0x00, 0x00,
  0x73, 0x65, 0x71, 0x75, 0x65, 0x6e, 0x74, 0x69, 0x61, 0x6c, 0x2f, 0x63,
  0x6f, 0x6e, 0x76, 0x32, 0x64, 0x2f, 0x43, 0x6f, 0x6e, 0x76, 0x32, 0x44,
  0x00, 0x00, 0x00, 0x00, 0x54, 0xe0, 0xff, 0xff, 0x4a, 0xe1, 0xff, 0xff,
  0x04, 0x00, 0x00, 0x00, 0x40, 0x01, 0x00, 0x00, 0xd4, 0x2a, 0xf9, 0xbe,
  0x68, 0x1c, 0xc8, 0xbe, 0x3d, 0x12, 0x63, 0xbe, 0x3e, 0x08, 0x92, 0xbd,
  0x86, 0x6c, 0x7e, 0xbe, 0xde, 0x46, 0xc4, 0x3e, 0x4a, 0x7e, 0x17, 0x3d,
  0x71, 0xe9, 0xd9, 0xbe, 0x04, 0x88, 0x52, 0x39, 0xe9, 0x87, 0xb2, 0x3e,
  0x2f, 0xbd, 0xe7, 0xbd, 0xd2, 0x80, 0x2d, 0xbe, 0x17, 0x55, 0xaf, 0xbe,
  0x2e, 0x92, 0xf4, 0x3d, 0xb9, 0xab, 0xc2, 0x3d, 0x24, 0x29, 0x94, 0x3d,
  0x91, 0x71, 0x4c, 0xbe, 0xfc, 0x66, 0xd7, 0xbd, 0xac, 0x71, 0x8e, 0x3e,
  0x79, 0x40, 0xa0, 0x3e, 0x9f, 0x0e, 0x66, 0xbe, 0xaf, 0xf0, 0x56, 0x3e,
  0xa7, 0x43, 0x07, 0x3d, 0x81, 0xce, 0xb9, 0xbb, 0x21, 0xea, 0x39, 0xbd,
  0x45, 0x5e, 0xf7, 0xbe, 0x4c, 0x5f, 0x40, 0xbe, 0x12, 0xff, 0x26, 0xbe,
  0x64, 0x7b, 0x1e, 0x3e, 0xfa, 0x08, 0x90, 0x3d, 0x97, 0x98, 0x01, 0x3e,
  0x1e, 0xd4, 0xd1, 0xbe, 0xb1, 0xd3, 0xf0, 0xbe, 0xa2, 0xd6, 0xe4, 0xbe,
  0xfe, 0x62, 0x2b, 0x3e, 0xe2, 0x38, 0x65, 0x3e, 0x5d, 0x08, 0x6b, 0xbe,
  0x54, 0x81, 0xe7, 0x3d, 0x11, 0x83, 0xfc, 0x3c, 0xc3, 0x6b, 0x0e, 0xbf,
  0x27, 0x17, 0xc7, 0xbc, 0x7c, 0x5b, 0xd2, 0x3e, 0x73, 0xde, 0x7d, 0xbd,
  0x86, 0x9b, 0xcd, 0xbd, 0x8c, 0xf6, 0xcb, 0x3d, 0xc1, 0x7f, 0x10, 0xbe,
  0x79, 0xd8, 0xd9, 0x3d, 0x66, 0x84, 0x06, 0x3e, 0xe9, 0x54, 0xa8, 0x3d,
  0xdf, 0x67, 0x94, 0x3e, 0xe9, 0xee, 0xa8, 0xbe, 0xba, 0x2a, 0xed, 0xbd,
  0x51, 0x47, 0xac, 0xbd, 0xff, 0xd8, 0x10, 0x3e, 0x5d, 0x61, 0x27, 0xbe,
  0xae, 0x46, 0x0c, 0xbf, 0xd5, 0x7e, 0xbf, 0xbe, 0xda, 0xff, 0x51, 0x3e,
  0x51, 0xfa, 0x0f, 0x3e, 0x34, 0x50, 0x30, 0xbe, 0x4f, 0x25, 0xb7, 0x3e,
  0x84, 0xde, 0x8a, 0x3d, 0xb4, 0x54, 0xcd, 0xbd, 0xad, 0x3b, 0x03, 0x3e,
  0x3e, 0xc2, 0xb2, 0xbe, 0x88, 0xfd, 0x1b, 0xbe, 0xc4, 0xa9, 0x4c, 0xbe,
  0xf2, 0x5e, 0xec, 0xbe, 0x0a, 0xc3, 0xb1, 0x3e, 0x35, 0x53, 0xbc, 0xbe,
  0x77, 0x25, 0x15, 0x3e, 0x7c, 0x3c, 0xbc, 0xbe, 0xc6, 0x1b, 0xa7, 0x3d,
  0x0c, 0x41, 0xc7, 0xbe, 0x12, 0x8e, 0x08, 0xbe, 0x77, 0xf3, 0xe2, 0xbd,
  0x3a, 0x7d, 0x9b, 0xbd, 0x12, 0xbb, 0xce, 0xbd, 0x8d, 0x52, 0x44, 0x3e,
  0x3d, 0x31, 0x25, 0xbe, 0xf2, 0xe1, 0xff, 0xff, 0x10, 0x00, 0x00, 0x00,
  0x06, 0x00, 0x00, 0x00, 0x14, 0x00, 0x00, 0x00, 0x30, 0x00, 0x00, 0x00,
  0x02, 0x00, 0x00, 0x00, 0x05, 0x00, 0x00, 0x00, 0x10, 0x00, 0x00, 0x00,
  0x19, 0x00, 0x00, 0x00, 0x73, 0x65, 0x71, 0x75, 0x65, 0x6e, 0x74, 0x69,
  0x61, 0x6c, 0x2f, 0x64, 0x65, 0x6e, 0x73, 0x65, 0x5f, 0x31, 0x2f, 0x4d,
  0x61, 0x74, 0x4d, 0x75, 0x6c, 0x00, 0x00, 0x00, 0xe4, 0xe1, 0xff, 0xff,
  0xda, 0xe2, 0xff, 0xff, 0x04, 0x00, 0x00, 0x00, 0x00, 0x1c, 0x00, 0x00,
  0x72, 0xa6, 0xe2, 0xbc, 0xac, 0x13, 0xe6, 0x3d, 0x18, 0x72, 0x46, 0xbe,
  0xc4, 0x8c, 0xd7, 0xbd, 0x3d, 0x39, 0x93, 0xbd, 0xa6, 0x89, 0x26, 0xbe,
  0x20, 0x39, 0x3c, 0xbe, 0x3c, 0xbf, 0x5c, 0xbe, 0x82, 0xdf, 0x1f, 0x3d,
  0xd4, 0xb2, 0x87, 0x3d, 0xf3, 0xfe, 0x90, 0xbe, 0x02, 0x5d, 0x4a, 0xbe,
  0x6c, 0x9d, 0x51, 0xbd, 0x2c, 0x7c, 0x23, 0xbe, 0x59, 0xd2, 0x05, 0xbd,
  0x1b, 0x57, 0x39, 0xbe, 0x83, 0xd0, 0x81, 0xbc, 0xe9, 0xf6, 0x36, 0xbd,
  0x62, 0xec, 0x5c, 0x3c, 0x18, 0x7f, 0x38, 0xbe, 0xae, 0x88, 0x0a, 0xbe,
  0x2f, 0xf0, 0x2b, 0xbe, 0xd9, 0xfb, 0xc7, 0xbd, 0xa3, 0xfc, 0x32, 0xbe,
  0x3a, 0x05, 0x1c, 0x3d, 0x40, 0x63, 0xd2, 0xbc, 0x9d, 0x98, 0x41, 0xbd,
  0x5c, 0x70, 0x63, 0xbe, 0xba, 0xd7, 0x29, 0xbe, 0xdc, 0x3c, 0xf1, 0x3d,
  0xe8, 0x10, 0x93, 0x3c, 0xcf, 0x08, 0x29, 0x3d, 0x9d, 0x95, 0x37, 0xbe,
  0x91, 0x83, 0xdc, 0xbd, 0xaa, 0x6b, 0x2c, 0xbe, 0xf1, 0x76, 0x59, 0xbe,
  0x79, 0x3b, 0xe2, 0x3c, 0xd6, 0xf0, 0x56, 0xbe, 0xd0, 0x73, 0xa7, 0x3c,
  0xe6, 0xeb, 0x1c, 0x3e, 0xa5, 0xfa, 0x41, 0x3e, 0x85, 0x6f, 0xdd, 0x3d,
  0x21, 0x63, 0xf2, 0xbd, 0x77, 0xbb, 0x18, 0x3e, 0xa0, 0xfd, 0x07, 0xbd,
  0x46, 0x9e, 0x16, 0xbe, 0x9c, 0x33, 0x20, 0x3b, 0xf8, 0x3b, 0x2a, 0xbe,
  0xb0, 0x94, 0x6c, 0xbc, 0x6d, 0x60, 0x9b, 0x3d, 0xbd, 0x92, 0xe0, 0xbd,
  0xa1, 0x42, 0xaa, 0xbd, 0xa0, 0x55, 0x3e, 0xbe, 0xd1, 0xd0, 0x6f, 0x3c,
  0x3b, 0x3d, 0x4a, 0x3e, 0xc8, 0xf5, 0x52, 0xbd, 0xf3, 0x54, 0x1c, 0xbe,
  0x5f, 0x6d, 0xf1, 0xbd, 0x07, 0x9b, 0x8b, 0xbe, 0xc3, 0xe7, 0xfa, 0x3d,
  0x0c, 0xa6, 0x87, 0xbd, 0xc6, 0x7b, 0x7a, 0xbe, 0x0e, 0xbd, 0x62, 0x3d,
  0xb0, 0x7c, 0x01, 0xbe, 0x69, 0x4a, 0xa5, 0xbd, 0x43, 0x72, 0xce, 0xbd,
  0x0d, 0x18, 0x70, 0xbe, 0x7f, 0x14, 0xc7, 0xbd, 0xd3, 0x1f, 0x23, 0xbe,
  0x4f, 0xfe, 0xe0, 0x3d, 0x54, 0x0f, 0x6a, 0xbd, 0xe5, 0x57, 0xf9, 0xbd,
  0x88, 0x64, 0xdc, 0xbd, 0x16, 0x58, 0xc4, 0xbd, 0x22, 0xcf, 0x91, 0xbd,
  0x7e, 0x86, 0x6d, 0xbe, 0xdd, 0xe2, 0x41, 0xbe, 0x63, 0x9f, 0xbd, 0x3d,
  0x82, 0x0a, 0x33, 0xbc, 0x5c, 0xe4, 0xb6, 0xbd, 0x10, 0x14, 0x32, 0xbd,
  0xd7, 0x83, 0xc8, 0xbd, 0x85, 0xec, 0x27, 0x3c, 0x5d, 0x5c, 0xb5, 0xbd,
  0xe1, 0x09, 0x45, 0xbd, 0x58, 0x3d, 0x1c, 0xbe, 0x3f, 0xb8, 0x38, 0xbe,
  0x3e, 0x23, 0xa0, 0xbd, 0x4d, 0x3a, 0x54, 0xbd, 0x05, 0xd7, 0x0f, 0xbe,
  0xaf, 0x20, 0xcb, 0xbc, 0x02, 0x07, 0x57, 0xbe, 0xab, 0x96, 0x0d, 0xbe,
  0x69, 0x22, 0x9b, 0x3c, 0x62, 0xec, 0x5c, 0xbe, 0x11, 0xe0, 0x3a, 0xbd,
  0x55, 0xa5, 0x0d, 0xbe, 0x06, 0xc3, 0xe7, 0x3c, 0xd0, 0x75, 0xd7, 0xbd,
  0x19, 0xa2, 0xf9, 0xbd, 0xef, 0x76, 0x61, 0xbe, 0x12, 0x15, 0x5c, 0xbe,
  0xd4, 0xe6, 0x77, 0xbd, 0x99, 0x35, 0xc7, 0xbd, 0xaf, 0x7e, 0x99, 0x3c,
  0x32, 0x38, 0x3f, 0xbe, 0x36, 0xc8, 0x76, 0xbe, 0x8a, 0xd6, 0x0c, 0xbe,
  0x40, 0x1c, 0x1b, 0x3b, 0x9a, 0x51, 0x3f, 0xbe, 0x07, 0xb1, 0xa4, 0xbd,
  0xc0, 0x56, 0xc4, 0xbb, 0x57, 0x28, 0x91, 0xbd, 0xe9, 0x4e, 0x11, 0x3d,
  0x83, 0xb3, 0xa6, 0xbe, 0xff, 0x9e, 0xd9, 0x3c, 0x08, 0xf7, 0x7e, 0xbe,
  0x1c, 0x98, 0xd4, 0xbb, 0x7f, 0xed, 0xd7, 0xbd, 0xdf, 0x87, 0x8e, 0x3d,
  0x7e, 0x04, 0x3e, 0xbe, 0xd7, 0xd1, 0x94, 0x3d, 0xf7, 0x8d, 0x00, 0xbe,
  0xfa, 0x67, 0x61, 0x3d, 0x2e, 0xb5, 0x6e, 0xbe, 0x2c, 0x52, 0xc5, 0xbd,
  0x0a, 0xd8, 0x0a, 0x3d, 0xc1, 0xdc, 0x33, 0xbc, 0xb5, 0x87, 0x90, 0xbe,
  0xb4, 0x73, 0x32, 0xbe, 0xf4, 0xef, 0x67, 0xbe, 0xa4, 0x1e, 0x24, 0xbe,
  0xfd, 0x1b, 0xb2, 0xbd, 0x40, 0x71, 0x2f, 0xbd, 0x91, 0x24, 0xfe, 0xbc,
  0x28, 0x9e, 0x78, 0xbd, 0x8b, 0x4d, 0x26, 0xbe, 0x0c, 0xda, 0x6c, 0xbe,
  0x19, 0x66, 0xb0, 0x3d, 0xca, 0x55, 0x30, 0xbe, 0xa8, 0x81, 0xe5, 0xbc,
  0x3f, 0xe7, 0xb7, 0xbd, 0xb5, 0xdf, 0x25, 0x3e, 0x19, 0xd5, 0x12, 0xbe,
  0xec, 0x4b, 0x48, 0x3d, 0xc5, 0xc8, 0x20, 0xbe, 0xa7, 0x88, 0xb6, 0x3d,
  0xd8, 0x7d, 0x13, 0xbe, 0x3c, 0x13, 0x5b, 0x3d, 0x98, 0x06, 0x03, 0x3b,
  0xf4, 0xba, 0x69, 0x3d, 0x9e, 0xa7, 0xd7, 0xbd, 0x5b, 0x0e, 0x66, 0xbb,
  0xcd, 0xa2, 0x60, 0xbe, 0x30, 0x14, 0x14, 0xbe, 0x3a, 0x44, 0x3d, 0x3d,
  0x84, 0x07, 0x0d, 0x3d, 0xd6, 0x7f, 0x80, 0xbc, 0x9d, 0x7d, 0x8b, 0x3d,
  0x5f, 0xae, 0xb3, 0xbd, 0x1e, 0xa1, 0x5b, 0xbd, 0x2c, 0x81, 0x3d, 0xbe,
  0x3a, 0x37, 0x23, 0xbe, 0xc3, 0xee, 0xaf, 0xbd, 0xdb, 0x98, 0x6e, 0xbe,
  0xa0, 0x6b, 0xfa, 0xbd, 0x1e, 0x48, 0x3b, 0xbe, 0xbe, 0xf1, 0x64, 0xbd,
  0xb4, 0xf5, 0x39, 0xbe, 0x2d, 0xf1, 0x8a, 0xbe, 0x08, 0x47, 0x91, 0xbe,
  0x94, 0x06, 0xb0, 0xbd, 0xc0, 0x41, 0x30, 0x3e, 0x54, 0x6d, 0x8f, 0x3d,
  0xf5, 0xef, 0x1f, 0x3e, 0x5b, 0xb3, 0x0b, 0xbe, 0x65, 0x08, 0x41, 0xbe,
  0xef, 0x83, 0x8e, 0x3d, 0x4e, 0xcf, 0x6e, 0x3d, 0xf1, 0x90, 0x7d, 0xbd,
  0xb7, 0x49, 0x49, 0xbe, 0x63, 0x8f, 0xbf, 0xbd, 0xf0, 0x88, 0xd8, 0xbd,
  0x8d, 0x8b, 0x66, 0xbe, 0xe2, 0x5d, 0x61, 0xbe, 0x7d, 0xdb, 0xdf, 0x3d,
  0xc0, 0x9d, 0x44, 0x3d, 0xe3, 0x9b, 0x79, 0x3c, 0x65, 0x1f, 0x63, 0xbe,
  0x98, 0xc6, 0x13, 0x3d, 0x6f, 0x89, 0x65, 0xbe, 0xf7, 0x89, 0x60, 0xbe,
  0x4a, 0x4b, 0x2f, 0xbe, 0x0f, 0xbd, 0xa5, 0x3d, 0x09, 0x14, 0x85, 0xbe,
  0xee, 0x92, 0x6c, 0x3d, 0x1a, 0x5e, 0x68, 0xbe, 0xcf, 0x77, 0xde, 0xbc,
  0x0f, 0x59, 0xb8, 0x3d, 0xf6, 0xf5, 0xaa, 0x3d, 0x22, 0xf5, 0x99, 0x3d,
  0x14, 0xcd, 0xab, 0x3d, 0x73, 0xd3, 0x5a, 0xbe, 0x05, 0x4e, 0x3a, 0xbe,
  0x30, 0x42, 0x17, 0x3e, 0xdf, 0x45, 0x5d, 0xbd, 0x64, 0x99, 0xf7, 0x3c,
  0xe6, 0x8c, 0x81, 0xbe, 0xa5, 0x17, 0xed, 0x3c, 0x99, 0x39, 0x98, 0xbe,
  0x01, 0x17, 0xba, 0x3b, 0x03, 0xbe, 0x0f, 0x3e, 0x31, 0x3e, 0x87, 0xbe,
  0xd1, 0x7a, 0xad, 0xbb, 0x9c, 0xd8, 0x77, 0x3d, 0xf0, 0x33, 0x33, 0xbe,
  0xfe, 0xae, 0xc1, 0xbd, 0xf7, 0xce, 0x17, 0xbe, 0x2d, 0x21, 0x74, 0xbd,
  0x47, 0x5d, 0x86, 0x3d, 0x27, 0xa6, 0x73, 0xbc, 0x2d, 0x05, 0x31, 0xbe,
  0x0f, 0x88, 0x49, 0x3c, 0x2a, 0xa8, 0x6f, 0xbe, 0xf4, 0x11, 0xcf, 0xbd,
  0xb3, 0xf6, 0x06, 0xbe, 0x8e, 0x39, 0xb3, 0x3c, 0x0a, 0x4b, 0x9a, 0xbe,
  0xe7, 0x11, 0xee, 0x3c, 0xe7, 0x90, 0x6e, 0xbc, 0x79, 0xca, 0xee, 0x3d,
  0x8a, 0xc2, 0x41, 0xbe, 0x20, 0xfb, 0x72, 0xbe, 0xa5, 0xf2, 0x4d, 0x3d,
  0x9b, 0xea, 0xd9, 0xbd, 0x56, 0x31, 0x04, 0xbe, 0x8a, 0x5a, 0x88, 0xbe,
  0xd9, 0x6e, 0xe9, 0xbc, 0xad, 0x92, 0xd6, 0x3d, 0xae, 0x1b, 0x15, 0xbe,
  0x2a, 0x46, 0x52, 0xbe, 0x91, 0xe1, 0x69, 0xbe, 0xd3, 0xb1, 0x11, 0xbe,
  0xa1, 0xf2, 0x35, 0xbe, 0x28, 0xd8, 0x5c, 0xbd, 0x81, 0xed, 0x95, 0xbc,
  0x1c, 0xcf, 0x3d, 0xbe, 0x33, 0x46, 0x41, 0xbd, 0xd1, 0x92, 0xee, 0x3c,
  0xa6, 0xc7, 0x6a, 0xbc, 0xb1, 0x37, 0x1d, 0x3d, 0x7d, 0x1d, 0x35, 0xbd,
  0x6d, 0xe5, 0x06, 0xbe, 0x3a, 0xc7, 0xdf, 0x3c, 0x3c, 0xfb, 0xa7, 0xbd,
  0xbf, 0x2e, 0x89, 0xbe, 0x65, 0x6c, 0x83, 0xbe, 0x92, 0x46, 0xc9, 0x3d,
  0xc0, 0x30, 0x97, 0xbe, 0x53, 0x4e, 0x7a, 0xbe, 0xc2, 0x51, 0xac, 0x3d,
  0x2f, 0xc4, 0x95, 0xbc, 0x63, 0x58, 0xf5, 0xbd, 0x40, 0x42, 0x0f, 0xbe,
  0xcf, 0x9e, 0xf8, 0x3d, 0x24, 0xba, 0xe9, 0x3d, 0x22, 0xc7, 0xc4, 0xbc,
  0x98, 0x7a, 0xa7, 0xbe, 0xec, 0x9e, 0xed, 0x3b, 0x3f, 0x50, 0x9e, 0x3d,
  0x9d, 0x7e, 0x93, 0x3d, 0x27, 0x28, 0xcd, 0xbe, 0x74, 0x89, 0xf6, 0xbd,
  0x28, 0x1a, 0xdb, 0x3d, 0x5c, 0x21, 0x16, 0xbe, 0x5e, 0x36, 0x11, 0x3d,
  0x35, 0xe0, 0x0e, 0xbe, 0xb1, 0x13, 0x58, 0xbe, 0xfb, 0xf9, 0xa2, 0xba,
  0xe9, 0x5e, 0x03, 0x3e, 0x82, 0xe1, 0x67, 0xbe, 0xbd, 0x71, 0x91, 0x3b,
  0xd3, 0xf2, 0x0a, 0x3d, 0xef, 0x00, 0x94, 0xbe, 0xc2, 0xe5, 0x00, 0xbe,
  0xda, 0xe1, 0x2c, 0xbe, 0x90, 0x14, 0xf2, 0xbd, 0xa8, 0x03, 0xb8, 0xbe,
  0xc8, 0xfc, 0x62, 0xbe, 0x38, 0x42, 0xec, 0xbc, 0x0a, 0x70, 0xb0, 0x3d,
  0xc8, 0x6d, 0x72, 0x3d, 0x80, 0xd0, 0x62, 0xbc, 0xf7, 0xa7, 0xc3, 0x3d,
  0x1c, 0x57, 0x26, 0xbe, 0x97, 0xb3, 0xff, 0x3c, 0xd7, 0xc5, 0x60, 0xbe,
  0xef, 0xd4, 0x1a, 0xbe, 0x36, 0x11, 0x6e, 0xbe, 0x6a, 0x36, 0xbc, 0x3d,
  0x7a, 0x2d, 0xdc, 0x3d, 0x6a, 0xdd, 0x19, 0xbe, 0xbb, 0xe9, 0x8b, 0xbe,
  0x1e, 0x4c, 0xb7, 0xbe, 0x23, 0x87, 0x24, 0xbe, 0x80, 0xd9, 0xf4, 0x3d,
  0xce, 0xdb, 0xcc, 0x3d, 0x17, 0x76, 0xce, 0x3c, 0x0d, 0x25, 0x0c, 0xbd,
  0x8f, 0x81, 0x51, 0xbe, 0xd7, 0x3d, 0x1b, 0x3e, 0xdc, 0x13, 0x6e, 0xbe,
  0x9d, 0x40, 0x92, 0x3d, 0x43, 0x73, 0x3a, 0x3c, 0xfd, 0x99, 0x8a, 0x3b,
  0x7c, 0x3d, 0x43, 0xbe, 0x7c, 0x55, 0x40, 0xbe, 0x5b, 0x7d, 0x2c, 0xbe,
  0x9a, 0x10, 0x0d, 0x3d, 0x13, 0x2a, 0x29, 0xbe, 0xce, 0x6b, 0xd8, 0xbc,
  0xef, 0x59, 0x7a, 0x3d, 0x3d, 0x69, 0x8c, 0xbc, 0xf7, 0xa5, 0x84, 0xbd,
  0xd7, 0x3a, 0xe3, 0x3c, 0xae, 0x9a, 0xc7, 0x3d, 0xf9, 0xe5, 0x65, 0xbe,
  0x7d, 0xf6, 0x14, 0xbd, 0xdc, 0xec, 0xa3, 0x3c, 0xb5, 0x6d, 0x28, 0xbe,
  0x03, 0xe5, 0x09, 0xbd, 0x60, 0x20, 0x88, 0x3d, 0xd9, 0xf4, 0xc3, 0xbd,
  0xd0, 0x17, 0x4a, 0xbe, 0xcb, 0xfc, 0x8e, 0x3d, 0xd5, 0x14, 0xa2, 0xbe,
  0x9a, 0xb8, 0x58, 0xbd, 0x0c, 0x6e, 0x0d, 0xbe, 0x44, 0x6e, 0x7a, 0xbe,
  0xae, 0x11, 0x2b, 0xbe, 0xf1, 0xfa, 0x53, 0xbe, 0x8b, 0x05, 0x11, 0xbe,
  0x15, 0xa2, 0x87, 0x3d, 0xc4, 0x26, 0x95, 0xbd, 0xfa, 0x04, 0x45, 0xbe,
  0xa3, 0xff, 0x2d, 0xbe, 0x27, 0x1a, 0xc8, 0xbd, 0x5e, 0x0c, 0x64, 0xbe,
  0xa2, 0x4d, 0x27, 0xbe, 0x82, 0x2e, 0xb3, 0x3b, 0x35, 0x34, 0x51, 0xbe,
  0x87, 0x94, 0x38, 0xbe, 0x3f, 0x76, 0xf1, 0xbd, 0x02, 0x96, 0x85, 0xbd,
  0x88, 0x7a, 0x9f, 0xbd, 0xcf, 0xb0, 0x0f, 0x3e, 0x34, 0x78, 0xaf, 0x3d,
  0x2b, 0x9c, 0xa0, 0xbd, 0x46, 0x04, 0x5b, 0xbe, 0xf9, 0x44, 0x25, 0x3e,
  0x6e, 0xe9, 0xb2, 0xbc, 0x74, 0x91, 0x9c, 0xbd, 0x26, 0xd2, 0x81, 0x3d,
  0xd9, 0x83, 0xe4, 0xbd, 0xed, 0xbd, 0x9e, 0xbd, 0x4d, 0xa6, 0xe2, 0xbd,
  0x2b, 0x46, 0xd5, 0x3d, 0x56, 0xb1, 0xe0, 0xbd, 0x5a, 0x70, 0x80, 0xbe,
  0x03, 0x4c, 0x24, 0xbe, 0x41, 0x54, 0xfd, 0xbd, 0x15, 0x27, 0xcc, 0xbd,
  0xd3, 0xcf, 0x24, 0xbe, 0x54, 0x76, 0xd4, 0xbd, 0x62, 0x24, 0x5b, 0x3c,
  0x98, 0x13, 0x01, 0x3e, 0xc5, 0x2c, 0xd6, 0x3d, 0x8b, 0x43, 0xc8, 0xbd,
  0xa1, 0x6d, 0x19, 0xbd, 0xcd, 0x7b, 0x00, 0x3d, 0x5f, 0x5c, 0x34, 0xbd,
  0x15, 0xd6, 0xa7, 0xbd, 0xbd, 0x03, 0x5e, 0x3d, 0x4e, 0x89, 0x71, 0xbe,
  0xfe, 0x0a, 0x2b, 0x3e, 0x39, 0x79, 0xca, 0xbd, 0xe5, 0xb0, 0x01, 0x3e,
  0xdb, 0xc5, 0x43, 0x3d, 0xba, 0xe3, 0x4a, 0x3d, 0x65, 0x32, 0xe9, 0x3d,
  0x3d, 0xf7, 0xd8, 0x3c, 0xe8, 0x0d, 0x80, 0x3d, 0x0a, 0x58, 0xc1, 0x3d,
  0x05, 0x21, 0x99, 0x3d, 0x5d, 0xac, 0x81, 0x3d, 0x64, 0x4a, 0x9e, 0xbd,
  0xa1, 0x3f, 0x65, 0xbe, 0x09, 0x49, 0x32, 0xbc, 0x31, 0x4e, 0x9c, 0xbd,
  0x99, 0x6c, 0x34, 0xbe, 0x22, 0x96, 0x5a, 0xbe, 0x1a, 0x7a, 0x18, 0x38,
  0x57, 0xba, 0x64, 0xbe, 0xd3, 0x69, 0x06, 0xbe, 0x5d, 0x7b, 0x67, 0xbe,
  0xa1, 0x60, 0xf3, 0xbd, 0xfb, 0x9d, 0x41, 0x3d, 0x82, 0x16, 0xba, 0x3b,
  0x6e, 0xbe, 0x1b, 0xbe, 0x1b, 0xb0, 0x3e, 0xbe, 0xcc, 0xdf, 0x65, 0xbe,
  0x46, 0xea, 0x82, 0x3c, 0xdd, 0x0b, 0xd1, 0x3d, 0x48, 0x13, 0xc8, 0xbd,
  0x2b, 0x00, 0xec, 0xbd, 0x9f, 0x60, 0x48, 0xbe, 0xfa, 0x80, 0x8e, 0xba,
  0x1f, 0x7d, 0x40, 0xbe, 0x10, 0xc5, 0x61, 0xbe, 0xb3, 0x6d, 0xec, 0xbd,
  0x12, 0xee, 0x50, 0xbe, 0x8e, 0x84, 0xa2, 0x3d, 0xc3, 0x1a, 0x2b, 0x3e,
  0x1c, 0x52, 0x0a, 0xbe, 0x97, 0x54, 0x2b, 0xbe, 0x33, 0x88, 0x07, 0x3e,
  0x19, 0x0b, 0xd3, 0xbc, 0x19, 0x9a, 0x10, 0xbe, 0x1c, 0x6b, 0x26, 0x3e,
  0xb7, 0x2b, 0x38, 0xbd, 0xe9, 0x50, 0x9d, 0x3d, 0x61, 0xe3, 0x91, 0x3c,
  0xf7, 0xba, 0x29, 0xbe, 0xeb, 0xf0, 0x42, 0xbe, 0x9f, 0x81, 0x09, 0xbe,
  0x28, 0x7a, 0x19, 0xbe, 0xbe, 0xe0, 0x95, 0x3c, 0x43, 0x5d, 0xd4, 0xbd,
  0xe6, 0x21, 0x5c, 0xbe, 0xa6, 0x4f, 0x0a, 0x3e, 0x92, 0x30, 0x59, 0xbd,
  0x1b, 0xc7, 0x1a, 0x3e, 0xb4, 0xba, 0x6c, 0xbc, 0x1b, 0x8a, 0x03, 0xbe,
  0x91, 0x5e, 0x39, 0x3d, 0x03, 0xc6, 0x00, 0xba, 0x63, 0xf9, 0x38, 0x3d,
  0xec, 0x3e, 0x59, 0xbe, 0x6f, 0x4b, 0x07, 0xbe, 0xcc, 0xee, 0xbf, 0xbd,
  0x00, 0x5d, 0xbe, 0xbd, 0xf3, 0x6a, 0x1b, 0x3e, 0xbf, 0x97, 0xcd, 0x3c,
  0xd0, 0x4b, 0xa5, 0xbd, 0x18, 0x03, 0x26, 0xbe, 0x4e, 0x66, 0x71, 0x3e,
  0x06, 0x73, 0x00, 0xbd, 0x7a, 0x31, 0xcc, 0x3d, 0x74, 0xe9, 0x80, 0xbe,
  0xce, 0x61, 0x91, 0x3b, 0xc9, 0x9f, 0x23, 0x3c, 0xb2, 0x8b, 0xa4, 0xbd,
  0x76, 0xa1, 0x47, 0xbe, 0x8c, 0xd4, 0x36, 0xbe, 0x07, 0x22, 0x6c, 0xbe,
  0xdc, 0x87, 0xee, 0xbd, 0x33, 0xb7, 0x48, 0xbb, 0x45, 0xc4, 0x36, 0x3c,
  0x93, 0xc5, 0x87, 0xbd, 0x2a, 0x96, 0x09, 0x3e, 0xcf, 0x2f, 0x33, 0x3e,
  0xfa, 0x46, 0x07, 0x3e, 0xb6, 0xa6, 0x1e, 0xbe, 0xea, 0x00, 0x19, 0xbe,
  0xfd, 0x50, 0x0d, 0xbe, 0x48, 0x19, 0x21, 0xbd, 0x99, 0x70, 0x5d, 0xbe,
  0xdd, 0x43, 0x5c, 0xbd, 0xc1, 0x44, 0x51, 0xbe, 0x7b, 0x21, 0x89, 0xbe,
  0x34, 0x61, 0x92, 0x3d, 0xc8, 0xdc, 0x7c, 0xbd, 0x9d, 0xba, 0xa2, 0xbd,
  0xa7, 0x44, 0x2f, 0xbd, 0x82, 0xdb, 0x9f, 0xbd, 0xb6, 0x7b, 0x20, 0xbe,
  0x70, 0x1c, 0x25, 0xbe, 0xba, 0x47, 0xed, 0x3d, 0x28, 0xa8, 0xf3, 0x3c,
  0x7b, 0xfc, 0xa5, 0x3d, 0x3a, 0x8c, 0xfb, 0xbd, 0x60, 0x55, 0x1e, 0xbe,
  0x63, 0x9a, 0xc8, 0xbd, 0xab, 0x92, 0xcd, 0x3c, 0x5c, 0xce, 0x66, 0x3c,
  0xd7, 0x0f, 0xb6, 0xbe, 0xa3, 0xe6, 0x70, 0x3d, 0xd6, 0xb4, 0xa7, 0x3d,
  0xba, 0xb6, 0x1d, 0x3d, 0xc1, 0xbe, 0x2f, 0x3d, 0x07, 0x86, 0x3c, 0xbe,
  0x0f, 0x43, 0x6d, 0xbe, 0x36, 0xc5, 0x28, 0x3d, 0xc6, 0x53, 0x1e, 0xbe,
  0x49, 0xf6, 0x19, 0x3e, 0xcd, 0x81, 0x79, 0xbd, 0x9d, 0xcf, 0x22, 0xbe,
  0xe9, 0x4d, 0xa5, 0x3d, 0x82, 0xe0, 0x5a, 0x3d, 0xb7, 0x8a, 0x2e, 0xbe,
  0xba, 0x30, 0x10, 0x3e, 0x26, 0xc7, 0x82, 0xbd, 0x97, 0x99, 0x73, 0xbd,
  0x97, 0x60, 0x2e, 0xbe, 0x8a, 0x03, 0x1b, 0xbe, 0xbc, 0xa3, 0xa1, 0x3d,
  0x9a, 0x6c, 0xfa, 0xbc, 0x56, 0xbc, 0x6c, 0xbd, 0x64, 0x25, 0x20, 0xbe,
  0x5d, 0x25, 0xa4, 0x3c, 0xef, 0xaa, 0x1f, 0xbe, 0x8b, 0x25, 0xda, 0xbc,
  0x16, 0x02, 0xa4, 0x3d, 0xf0, 0x91, 0xda, 0xbd, 0x76, 0xac, 0x10, 0x3e,
  0xb1, 0x57, 0xd6, 0xbd, 0x27, 0x55, 0xe2, 0xbc, 0x05, 0x93, 0x1a, 0xbd,
  0x95, 0xdc, 0x73, 0xbe, 0x76, 0x65, 0x6c, 0xbe, 0xe8, 0xfb, 0x85, 0xbd,
  0x9b, 0x51, 0x2a, 0xbe, 0x75, 0x75, 0x59, 0xbd, 0xdb, 0x15, 0x6d, 0x3d,
  0xfb, 0x93, 0x5d, 0xbd, 0xd1, 0xa2, 0x81, 0x3d, 0x87, 0xca, 0x1c, 0xbe,
  0xfa, 0xc3, 0x00, 0xbe, 0x30, 0x54, 0xc1, 0x3d, 0x22, 0x48, 0x0c, 0xbe,
  0x29, 0xa6, 0xef, 0xbd, 0xfd, 0xc4, 0xe5, 0x3d, 0x91, 0x97, 0xde, 0x3c,
  0x36, 0x20, 0x97, 0xbd, 0x6a, 0x08, 0xb4, 0xbc, 0x2f, 0x77, 0x10, 0xbe,
  0x2c, 0x5b, 0x3e, 0xbd, 0x23, 0x10, 0xe5, 0xbd, 0x96, 0xff, 0x18, 0xbe,
  0x4f, 0xf6, 0xae, 0xbc, 0x89, 0x88, 0x4f, 0x3e, 0x9f, 0x5d, 0xdb, 0x3c,
  0x4b, 0xfc, 0x54, 0x3e, 0x0e, 0xae, 0xd9, 0xbc, 0xe1, 0xb9, 0x49, 0xbe,
  0xc9, 0x2b, 0x38, 0xbe, 0x9d, 0xce, 0xfc, 0x3d, 0x43, 0x84, 0x33, 0xbe,
  0xa8, 0x20, 0x0c, 0x3e, 0x0a, 0x14, 0x82, 0xbe, 0xf9, 0xe2, 0x01, 0xbd,
  0x49, 0x0a, 0x60, 0xbc, 0xc5, 0x50, 0x9f, 0x3d, 0xfd, 0xc0, 0x05, 0xbe,
  0xee, 0x5d, 0x20, 0xbe, 0x4f, 0x14, 0x88, 0x3d, 0x24, 0xa3, 0x02, 0x3e,
  0xb8, 0xb7, 0x08, 0x3e, 0xd8, 0xe0, 0x39, 0xbe, 0xed, 0x2e, 0xae, 0x3d,
  0xf2, 0x27, 0x40, 0xbd, 0x20, 0x05, 0x72, 0xbe, 0x2e, 0x0d, 0xe9, 0x3d,
  0xdd, 0xe8, 0x18, 0xbe, 0x1c, 0xd6, 0x33, 0xbe, 0x94, 0x0a, 0x28, 0xbe,
  0x25, 0x55, 0x52, 0xbe, 0xb9, 0x43, 0x8d, 0xbe, 0x7f, 0xf3, 0xc8, 0x3d,
  0x6f, 0xc7, 0xc9, 0x3d, 0x2c, 0x3b, 0xc0, 0x3d, 0x1b, 0xc5, 0x3f, 0xbe,
  0x65, 0x87, 0xd1, 0xbd, 0x85, 0x76, 0x16, 0x3e, 0x96, 0x0b, 0x8d, 0x3d,
  0x13, 0x81, 0x83, 0xbe, 0x2d, 0x64, 0x44, 0xbc, 0x6a, 0xd2, 0x2e, 0xbd,
  0x35, 0x34, 0x56, 0xbe, 0xe9, 0xa4, 0x39, 0xbe, 0x3b, 0x61, 0x03, 0xbd,
  0x59, 0x0f, 0x06, 0xbe, 0x48, 0xed, 0x63, 0xbe, 0x97, 0x21, 0x9c, 0xbc,
  0xa1, 0xe6, 0xd3, 0xbd, 0x56, 0x8d, 0x0f, 0x3e, 0x68, 0xd0, 0x46, 0xbc,
  0x2f, 0xe9, 0x89, 0xbc, 0xcb, 0x42, 0xcd, 0x3c, 0x93, 0x36, 0x4f, 0x3d,
  0x26, 0x4c, 0x62, 0x3d, 0x02, 0x59, 0x37, 0x3d, 0x8f, 0x16, 0x2b, 0xbe,
  0x28, 0xce, 0x65, 0xbd, 0x8b, 0x35, 0x84, 0xbd, 0xf1, 0x74, 0xb4, 0xbc,
  0x9a, 0x0e, 0x20, 0x3d, 0xe4, 0xad, 0x6d, 0xbe, 0xdd, 0x78, 0x6c, 0xbe,
  0x85, 0xf1, 0x4b, 0xbd, 0xc0, 0xa2, 0xf2, 0x3d, 0xc7, 0x41, 0x5e, 0xbe,
  0x7a, 0xee, 0xcd, 0x3d, 0x98, 0xcf, 0x12, 0x3d, 0xc0, 0x87, 0x1f, 0xbe,
  0xcd, 0x18, 0xb8, 0xbd, 0xef, 0xdc, 0x09, 0x3e, 0xaa, 0x2a, 0x2e, 0xbe,
  0xa5, 0x2b, 0x71, 0xbe, 0xe0, 0xd9, 0x0d, 0xbe, 0x64, 0x88, 0xe7, 0x3d,
  0xea, 0xf8, 0xa9, 0xbc, 0x08, 0x16, 0xd5, 0x3d, 0xff, 0x3f, 0x0e, 0xbe,
  0x95, 0x8a, 0xdc, 0x3d, 0x4f, 0x14, 0x0f, 0xbe, 0x6e, 0x77, 0x2e, 0xbe,
  0xa2, 0xbf, 0x31, 0x3e, 0xec, 0x38, 0x71, 0xbd, 0xbc, 0x67, 0x57, 0xbe,
  0x3f, 0x06, 0x1d, 0xbe, 0xc6, 0xa5, 0x1f, 0x3e, 0xaf, 0x07, 0x5b, 0xbc,
  0xad, 0x13, 0xb8, 0x3d, 0xb6, 0x0d, 0x2f, 0xbe, 0x18, 0x94, 0x9e, 0xbb,
  0xb6, 0xdf, 0xb1, 0x3d, 0x6a, 0x84, 0x58, 0xbc, 0x68, 0x29, 0x1d, 0x3e,
  0xc8, 0x25, 0x84, 0xbe, 0x2f, 0xc3, 0xb4, 0xbd, 0x42, 0x7f, 0x00, 0x3c,
  0xe5, 0xe8, 0xd3, 0xbc, 0x3c, 0x87, 0xb5, 0xbd, 0xa2, 0x45, 0xe6, 0xbd,
  0xf3, 0x79, 0x74, 0xbe, 0x8a, 0x65, 0x17, 0xbd, 0x9a, 0x76, 0x8b, 0xbd,
  0xde, 0x29, 0x17, 0xbe, 0x99, 0x89, 0x1b, 0xbe, 0x71, 0x85, 0xed, 0x3d,
  0xb5, 0xe5, 0x54, 0xbd, 0xe2, 0xf3, 0x39, 0x3e, 0x1d, 0xfe, 0x31, 0xbe,
  0x22, 0xa9, 0xc2, 0x3d, 0xe4, 0x28, 0x90, 0xbe, 0x75, 0x79, 0x09, 0xbe,
  0x13, 0xe1, 0x71, 0xbd, 0x78, 0xf3, 0xa3, 0xbe, 0xe7, 0x6d, 0x16, 0xbe,
  0xd4, 0xb2, 0xb7, 0xbd, 0xba, 0x49, 0xa5, 0x3b, 0x65, 0xed, 0x52, 0xbe,
  0xf4, 0x6e, 0x4d, 0xbe, 0xb6, 0x3d, 0x2a, 0xbe, 0x7b, 0x22, 0xf7, 0x3d,
  0xd7, 0x2f, 0x3a, 0xbe, 0x32, 0x64, 0xa7, 0xbe, 0x62, 0xe6, 0x0e, 0x3d,
  0x34, 0x1b, 0x7b, 0x3d, 0xf5, 0x28, 0x01, 0xbd, 0xd8, 0x3f, 0x75, 0xbe,
  0x7a, 0x97, 0x09, 0xbf, 0x86, 0x37, 0x29, 0x3f, 0x63, 0x00, 0x4a, 0xbe,
  0x02, 0xba, 0x42, 0x3d, 0x9b, 0x42, 0x04, 0xbf, 0x43, 0xee, 0xf9, 0x3e,
  0x56, 0xd9, 0x22, 0x3d, 0xd5, 0xab, 0x93, 0x3e, 0x72, 0x5a, 0x41, 0x3d,
  0xca, 0x7b, 0xa2, 0x3e, 0x08, 0x8a, 0x75, 0x3d, 0xd2, 0xa8, 0x71, 0xbe,
  0x9a, 0x13, 0x07, 0x3e, 0xe8, 0xc9, 0xc9, 0xbe, 0xf2, 0x8b, 0x82, 0x3e,
  0xf8, 0x34, 0x15, 0x3d, 0xd9, 0x18, 0x49, 0x3e, 0x04, 0x27, 0x07, 0x3f,
  0x91, 0x04, 0xb8, 0xbd, 0x52, 0xbd, 0x5e, 0x3d, 0xf9, 0x5a, 0xf3, 0xbd,
  0x1d, 0x60, 0x81, 0x3d, 0x73, 0x61, 0x93, 0xbd, 0x40, 0x06, 0xc3, 0x3d,
  0xc4, 0x15, 0x05, 0xbe, 0x58, 0x6f, 0x20, 0x3e, 0x1a, 0x75, 0x5d, 0xbc,
  0x73, 0xfc, 0x2f, 0x3d, 0x38, 0xaf, 0xeb, 0x3d, 0x32, 0x9b, 0x9d, 0xbe,
  0x45, 0x36, 0x7d, 0x3e, 0x8d, 0x89, 0x28, 0x3b, 0x5e, 0xaf, 0x44, 0x3e,
  0xfb, 0x0c, 0xff, 0x3e, 0x94, 0xd1, 0xc6, 0x3d, 0x33, 0x10, 0x55, 0xbc,
  0xad, 0x6e, 0xc1, 0xbd, 0x50, 0x82, 0xf6, 0x3c, 0x88, 0x30, 0x0a, 0xbd,
  0x06, 0x60, 0x0a, 0x3e, 0x62, 0xf0, 0x37, 0xbc, 0xb6, 0x84, 0x61, 0x3e,
  0xa8, 0x04, 0x52, 0xbb, 0xc1, 0x8b, 0x03, 0x3e, 0xd7, 0x44, 0xba, 0x3d,
  0xa5, 0xfc, 0x70, 0xbe, 0xa1, 0x3b, 0x95, 0x3e, 0xf1, 0x9a, 0xbd, 0x3c,
  0x87, 0xc4, 0xd0, 0x3c, 0xa1, 0x10, 0x0d, 0x3f, 0x55, 0x53, 0x64, 0x3b,
  0x17, 0xf6, 0xbf, 0x3c, 0xe2, 0x22, 0x1e, 0xbe, 0x8e, 0x34, 0x00, 0x3e,
  0x12, 0x80, 0x91, 0xbd, 0xec, 0x1b, 0x93, 0x3b, 0xed, 0x5e, 0xa9, 0x3d,
  0xc3, 0x81, 0xc4, 0x3c, 0x11, 0x5e, 0xf0, 0xbc, 0x3c, 0x2a, 0xde, 0xbd,
  0x52, 0x29, 0x9b, 0x3d, 0x0b, 0x33, 0x23, 0xbe, 0x43, 0xae, 0xae, 0x3e,
  0xd1, 0xbc, 0x80, 0x3d, 0x5a, 0x2c, 0x2f, 0x3d, 0x19, 0xab, 0xc2, 0x3e,
  0x02, 0xc7, 0xa4, 0xbb, 0x3b, 0xf2, 0xfa, 0xbc, 0x0d, 0x7e, 0x1a, 0xbe,
  0xfd, 0x30, 0x36, 0xbd, 0xfa, 0xaf, 0x64, 0x3e, 0x0a, 0x2e, 0x3b, 0x3e,
  0xf5, 0x4f, 0x2c, 0x3c, 0xe6, 0x17, 0x65, 0x3e, 0x5f, 0xdf, 0x93, 0xbb,
  0x64, 0x8b, 0xc5, 0xbd, 0xbe, 0x7d, 0x53, 0x3e, 0x99, 0x76, 0x46, 0xbe,
  0x83, 0x6c, 0xc7, 0x3e, 0x16, 0xcf, 0xed, 0xb9, 0x5d, 0x7b, 0xa6, 0x3d,
  0xb3, 0x05, 0x62, 0x3e, 0x18, 0x8f, 0x80, 0x3c, 0xbe, 0xbb, 0x06, 0xbd,
  0x33, 0xd1, 0x63, 0xbe, 0x56, 0xa4, 0xbc, 0x3d, 0xd2, 0x6f, 0x48, 0x3e,
  0xcd, 0x8d, 0xe0, 0xbd, 0xd4, 0x5d, 0xba, 0x3d, 0xf8, 0x53, 0x84, 0x3d,
  0x90, 0x47, 0x9a, 0xba, 0x96, 0xa9, 0x0c, 0xbd, 0x74, 0xc7, 0x5a, 0x3e,
  0xb5, 0xba, 0xd7, 0xbe, 0x7b, 0x8a, 0x87, 0x3e, 0xe1, 0x0e, 0x2d, 0x3d,
  0xcd, 0x7e, 0x90, 0x3d, 0xc7, 0x43, 0x6f, 0x3e, 0x28, 0x81, 0x63, 0xbe,
  0x1b, 0xec, 0x8f, 0x3e, 0x28, 0x48, 0xb3, 0xbe, 0x94, 0x3a, 0x82, 0x3d,
  0x03, 0x7f, 0x35, 0x3d, 0x45, 0xbd, 0xae, 0x3d, 0x58, 0x70, 0xd4, 0x3d,
  0x14, 0xdc, 0x8a, 0xbc, 0xd4, 0xe2, 0xb4, 0x3d, 0x98, 0xcc, 0x72, 0xbc,
  0xa4, 0x06, 0x67, 0x3e, 0xee, 0x2f, 0xa9, 0xbe, 0xa7, 0xdd, 0x48, 0x3e,
  0x5d, 0x44, 0x25, 0x3d, 0x77, 0x1a, 0x33, 0xbe, 0xd9, 0x85, 0x33, 0xbe,
  0x8d, 0x41, 0x00, 0x3c, 0xe7, 0xf0, 0x67, 0x3c, 0xb4, 0x81, 0xc9, 0x3d,
  0xc5, 0x14, 0x3c, 0xbe, 0x2f, 0xeb, 0x70, 0x3c, 0x46, 0x8c, 0x71, 0x3d,
  0x63, 0xe6, 0x92, 0x3d, 0x39, 0xfd, 0xaa, 0x3d, 0xf1, 0xe0, 0x8b, 0xbe,
  0x8e, 0xae, 0x18, 0xbe, 0x1b, 0x35, 0xf6, 0xbb, 0xa5, 0xb9, 0x86, 0xbe,
  0x96, 0x5d, 0x7a, 0xbd, 0x99, 0xf4, 0xc3, 0xbd, 0x1d, 0x8b, 0x0f, 0xbe,
  0x75, 0x78, 0x9f, 0x3d, 0x94, 0x40, 0x0b, 0xbd, 0x59, 0x74, 0x0d, 0xbe,
  0x6e, 0x26, 0xfc, 0xbd, 0xd6, 0xb9, 0x50, 0xbe, 0x74, 0x50, 0x70, 0xbd,
  0x1d, 0x26, 0xaa, 0x3d, 0x6e, 0xe9, 0x73, 0xbc, 0x39, 0x17, 0x25, 0xbe,
  0xd5, 0x58, 0x3f, 0xbd, 0x44, 0xd9, 0x3d, 0xbd, 0x0f, 0x41, 0x92, 0xbd,
  0x5f, 0x9e, 0x3f, 0x3c, 0x28, 0x46, 0x9c, 0xbc, 0x1a, 0x9f, 0x90, 0xbe,
  0x49, 0x62, 0xbb, 0x3d, 0x0a, 0xfb, 0xdb, 0x3d, 0xfe, 0xdc, 0x4d, 0xbe,
  0x01, 0xd7, 0x1f, 0x3c, 0xb3, 0x0a, 0x99, 0xbd, 0x8b, 0xc2, 0x0e, 0x3e,
  0x1e, 0xf5, 0x22, 0xbe, 0xef, 0x9f, 0x8f, 0xbd, 0x39, 0x71, 0xb4, 0x3d,
  0xa0, 0xba, 0xa8, 0xbd, 0xa5, 0xc0, 0x50, 0xbe, 0x7a, 0x51, 0x04, 0xbe,
  0x55, 0xb0, 0x11, 0xbe, 0x1d, 0xa6, 0x0b, 0x3d, 0x29, 0x7d, 0xaa, 0x3d,
  0x46, 0x5b, 0xa0, 0xbd, 0x8d, 0x9a, 0xa0, 0x3c, 0x21, 0x4a, 0x33, 0xbe,
  0x38, 0x64, 0x66, 0xbe, 0xcc, 0x84, 0x07, 0x3d, 0x21, 0x6f, 0xc7, 0xbc,
  0x62, 0x7d, 0x1b, 0x3e, 0xdf, 0x39, 0x6f, 0xbe, 0x4d, 0xdd, 0x00, 0xbe,
  0x98, 0xf2, 0x1f, 0x3e, 0x16, 0x3e, 0x89, 0x3d, 0xf3, 0x01, 0x05, 0x3d,
  0x96, 0x96, 0x41, 0xbc, 0x71, 0xce, 0x25, 0xbd, 0xa8, 0xf7, 0x04, 0xbe,
  0xbb, 0xdb, 0xe0, 0xbd, 0x00, 0x9f, 0xdd, 0xbd, 0xa6, 0x10, 0x7a, 0xbe,
  0x31, 0xcf, 0xf4, 0x3d, 0xc0, 0x20, 0x94, 0xbd, 0x85, 0x9b, 0xab, 0xbd,
  0x80, 0xcd, 0x04, 0x3e, 0x7b, 0x1a, 0xa7, 0xbd, 0xae, 0x91, 0xe1, 0x3d,
  0xd3, 0x0e, 0x19, 0x3e, 0xfe, 0xaa, 0x4f, 0xbe, 0x72, 0x27, 0x0b, 0x3e,
  0x95, 0xa8, 0xfc, 0xbd, 0x3a, 0x31, 0xb4, 0xbd, 0x32, 0xf6, 0x24, 0x3e,
  0x0a, 0xe8, 0xb5, 0x39, 0xcd, 0x7e, 0x7f, 0xbd, 0x33, 0x87, 0xcd, 0xbd,
  0x6f, 0x11, 0xda, 0x3d, 0xdb, 0x41, 0x9a, 0xbd, 0x5e, 0xe5, 0x80, 0xbd,
  0xa0, 0x6e, 0x62, 0xbe, 0xa9, 0x38, 0x06, 0x3e, 0xa1, 0x18, 0x1f, 0xbe,
  0x99, 0x18, 0x88, 0x3d, 0x68, 0xfc, 0x70, 0xbe, 0x82, 0xbf, 0xdf, 0xbd,
  0x1a, 0x1b, 0x90, 0x3d, 0x20, 0x5e, 0x6c, 0xbe, 0x03, 0xe4, 0x61, 0xbe,
  0xb0, 0x4e, 0x29, 0x3e, 0x20, 0x34, 0x0a, 0xbe, 0x73, 0x2f, 0x34, 0x3e,
  0xf4, 0x29, 0x78, 0xbe, 0x23, 0xc2, 0x14, 0xbe, 0x99, 0x29, 0xe4, 0xbc,
  0x42, 0x66, 0x07, 0xbe, 0xd2, 0xea, 0xc7, 0xbc, 0xf2, 0x26, 0x80, 0xbd,
  0xf9, 0xfd, 0x61, 0xbe, 0x70, 0x69, 0x0c, 0x3e, 0x90, 0xd4, 0x89, 0xbc,
  0xb9, 0xbe, 0x8e, 0x3d, 0xc2, 0x04, 0x44, 0xbe, 0x15, 0x87, 0xbf, 0xbc,
  0x42, 0x83, 0x06, 0xbe, 0x02, 0x73, 0x9b, 0x3d, 0xdd, 0x42, 0x16, 0x3c,
  0x65, 0xf9, 0x5d, 0xbe, 0x77, 0x87, 0x53, 0xbe, 0xd9, 0x0f, 0x8d, 0xbe,
  0x63, 0x6d, 0xbe, 0x3d, 0x5a, 0xdc, 0x8c, 0xbe, 0x8a, 0xd7, 0xcf, 0x3d,
  0xb0, 0xc3, 0xad, 0xbe, 0xeb, 0xfd, 0x06, 0x3f, 0x8c, 0x92, 0xac, 0x3d,
  0x6b, 0x73, 0x27, 0x3e, 0xb6, 0x4e, 0x65, 0xbe, 0x41, 0xba, 0xd4, 0x3e,
  0xc1, 0x1f, 0x8f, 0x3d, 0x32, 0x58, 0x5a, 0xbe, 0xd2, 0x04, 0xa1, 0x3d,
  0xef, 0x7e, 0x8c, 0xbe, 0xdf, 0xc1, 0x07, 0x3f, 0x2f, 0xcc, 0xd0, 0x3d,
  0x0c, 0xce, 0x55, 0x3e, 0xfa, 0x9d, 0xa5, 0x3e, 0xec, 0xa5, 0x8e, 0xbc,
  0xca, 0xdf, 0xd1, 0x3d, 0x4d, 0x0c, 0xbe, 0xbd, 0xe4, 0x75, 0x1f, 0x3e,
  0x0d, 0x42, 0xc9, 0xbd, 0x6e, 0x85, 0x4a, 0x3e, 0xf9, 0x2a, 0x89, 0xbe,
  0x65, 0x7a, 0xc9, 0xbc, 0x8d, 0x28, 0x07, 0x3c, 0x9b, 0x81, 0x7a, 0xbe,
  0xea, 0xcc, 0x18, 0x3d, 0x98, 0x7f, 0xbb, 0xbd, 0x67, 0xd4, 0xff, 0x3e,
  0x11, 0xa3, 0x1a, 0xbc, 0x64, 0xd9, 0x1a, 0x3e, 0xef, 0x7f, 0x00, 0x3f,
  0x61, 0x32, 0x56, 0xbe, 0x0b, 0x5f, 0xf6, 0x3d, 0x73, 0x07, 0x4f, 0x3d,
  0x9c, 0x6f, 0xba, 0x3e, 0xff, 0x2c, 0x29, 0xbd, 0x4b, 0x8e, 0x5c, 0x3e,
  0xd6, 0xd4, 0x92, 0x3d, 0x6f, 0x25, 0xa9, 0x3d, 0x7f, 0xcc, 0x8a, 0x3d,
  0x02, 0xd3, 0xac, 0xbc, 0x2d, 0x1e, 0xab, 0x3d, 0x21, 0x2e, 0x0b, 0xbe,
  0x17, 0xd3, 0x94, 0x3e, 0xd3, 0x0d, 0x03, 0x3d, 0x70, 0x8f, 0x08, 0x3d,
  0x4c, 0x48, 0xcb, 0x3e, 0x35, 0x5b, 0x90, 0x3d, 0x50, 0xf2, 0x08, 0xbe,
  0xaf, 0x33, 0x71, 0xbe, 0x25, 0xa5, 0x89, 0x3e, 0xac, 0xaa, 0x9e, 0x3d,
  0xec, 0x27, 0x9b, 0x3d, 0x28, 0x66, 0xc6, 0xbd, 0x04, 0xb9, 0x3c, 0x3e,
  0xdf, 0x0e, 0xf3, 0x3b, 0x70, 0x10, 0x47, 0xbe, 0xc0, 0x1d, 0xaf, 0x3b,
  0x19, 0xe1, 0x15, 0xbe, 0x2b, 0x16, 0xac, 0x3e, 0xbc, 0xf1, 0xd4, 0x3c,
  0x51, 0x50, 0x04, 0xbe, 0x17, 0xbf, 0x9c, 0x3e, 0xa9, 0x6e, 0x59, 0xbd,
  0xfe, 0x85, 0x3d, 0x3e, 0x58, 0xb7, 0xd5, 0x3c, 0xc3, 0x24, 0xef, 0x3d,
  0xc2, 0x78, 0x2c, 0xbd, 0x0b, 0xad, 0x46, 0x3e, 0xfb, 0x33, 0x2d, 0xbd,
  0xa6, 0x75, 0x4c, 0x3e, 0x73, 0xa2, 0x7f, 0x3c, 0x95, 0xb3, 0x5c, 0xbc,
  0x05, 0x4a, 0x61, 0x3e, 0x36, 0x6d, 0x44, 0xbe, 0xce, 0x16, 0x81, 0x3e,
  0xfe, 0xc8, 0xa6, 0x3d, 0x5a, 0x2e, 0xf0, 0x3d, 0x03, 0xb6, 0xc0, 0x3e,
  0xf3, 0x32, 0xec, 0xbc, 0x7e, 0x64, 0x78, 0x3d, 0x83, 0x81, 0xea, 0xbd,
  0x29, 0xe6, 0x61, 0x3e, 0xb9, 0xa8, 0xce, 0x3d, 0x5f, 0x7d, 0x0a, 0x3e,
  0xda, 0xc8, 0x5b, 0xbd, 0x32, 0x3c, 0xf8, 0x3d, 0x71, 0x02, 0xff, 0xbb,
  0xfc, 0xbb, 0x68, 0xbd, 0x95, 0x6e, 0x47, 0x3d, 0x1b, 0xdd, 0x34, 0xbe,
  0xce, 0x87, 0x65, 0x3e, 0x0d, 0x51, 0x08, 0x3d, 0xff, 0x07, 0x9e, 0xbd,
  0xcb, 0x8d, 0x50, 0x3e, 0x69, 0xbc, 0x87, 0xbe, 0xe0, 0x84, 0xdf, 0x3e,
  0x1a, 0xea, 0x87, 0xbe, 0xe9, 0x4d, 0xc6, 0x3d, 0xc9, 0xa1, 0x9b, 0x3d,
  0xe5, 0x7e, 0x5a, 0x3e, 0xee, 0xe0, 0x3d, 0x3c, 0x39, 0x08, 0x8b, 0xbd,
  0x84, 0x50, 0x7c, 0x3c, 0xfe, 0xbe, 0x4a, 0xbd, 0xb4, 0xb4, 0xd2, 0x3d,
  0xf6, 0x6f, 0x48, 0xbe, 0x1b, 0x03, 0x8f, 0x3e, 0x63, 0xee, 0x0c, 0xbd,
  0xc7, 0xf5, 0x7c, 0xbe, 0x65, 0x50, 0xec, 0x3d, 0xd2, 0xe3, 0x24, 0xbe,
  0xc9, 0xf9, 0xab, 0xbd, 0x12, 0x40, 0x45, 0xbd, 0x05, 0xdb, 0x5c, 0xbd,
  0xcd, 0xab, 0x2f, 0xbe, 0x89, 0x02, 0xf6, 0x3d, 0x3d, 0xa9, 0x95, 0xbd,
  0xcc, 0xc2, 0xbd, 0x3d, 0xb8, 0xcb, 0xa0, 0xbd, 0x50, 0x0e, 0xd2, 0xbd,
  0x34, 0xa5, 0x62, 0xbe, 0x5a, 0xcc, 0x91, 0x3d, 0x4c, 0x9a, 0xf6, 0xbd,
  0x1f, 0xd7, 0xdd, 0xbd, 0x1f, 0x1c, 0x03, 0xbe, 0xce, 0x60, 0xd8, 0x3d,
  0xe3, 0xf1, 0x79, 0xbe, 0x62, 0xf4, 0x60, 0xbe, 0xd1, 0x09, 0x36, 0xbc,
  0xf3, 0xb0, 0x81, 0x3d, 0xf3, 0xe7, 0x49, 0xbe, 0x33, 0xd8, 0x00, 0xbe,
  0x45, 0x47, 0x4f, 0xbe, 0xef, 0xcf, 0x28, 0x3c, 0x14, 0x52, 0xe7, 0xbd,
  0x7d, 0xb5, 0xdb, 0x3a, 0x61, 0x70, 0xe3, 0x3d, 0xb7, 0x4e, 0x92, 0xbd,
  0x37, 0x64, 0x81, 0xbd, 0x97, 0x2f, 0x40, 0xbe, 0xd2, 0xdc, 0x01, 0xbe,
  0xd5, 0x76, 0x7b, 0x3d, 0x27, 0xe9, 0xe8, 0x3d, 0x4b, 0x46, 0x40, 0x3d,
  0xbc, 0xd0, 0xe2, 0x3c, 0x29, 0x77, 0x8a, 0xbe, 0x9f, 0xec, 0xf6, 0xbc,
  0xd5, 0x97, 0xae, 0xbc, 0xa4, 0xf8, 0x51, 0xbd, 0x29, 0x4a, 0x47, 0xbd,
  0x3c, 0x69, 0x62, 0xbe, 0x6f, 0xa9, 0x0c, 0xbe, 0x7f, 0x35, 0x88, 0xbd,
  0xb6, 0x8e, 0x10, 0xbe, 0x8e, 0x9a, 0x3d, 0xbe, 0xd0, 0x4e, 0x72, 0x3c,
  0x5c, 0x74, 0x7d, 0xbe, 0x5c, 0x01, 0x4b, 0xbe, 0xbe, 0xdc, 0x1d, 0xbe,
  0x09, 0x2d, 0x50, 0x3d, 0xbd, 0x65, 0x96, 0x3d, 0x1e, 0xa0, 0x0c, 0xbd,
  0x75, 0x96, 0x9a, 0x3d, 0x46, 0x6c, 0x1f, 0xbe, 0x04, 0xbf, 0x26, 0xbe,
  0xed, 0x8f, 0x02, 0xbe, 0x64, 0x72, 0x2b, 0x3d, 0x9e, 0x5b, 0x86, 0xbc,
  0x45, 0x6b, 0x0c, 0x3e, 0xee, 0x75, 0xf8, 0xbd, 0x07, 0x37, 0x4d, 0xbe,
  0x15, 0x9a, 0x7c, 0xbe, 0x93, 0x6e, 0x66, 0xbb, 0x6d, 0x1c, 0x0b, 0xbd,
  0xa9, 0xa0, 0xa9, 0xbd, 0x58, 0xfc, 0xe3, 0x3d, 0xc2, 0x51, 0x40, 0xbc,
  0x99, 0x3c, 0x4a, 0xbe, 0xa2, 0x54, 0xec, 0xbd, 0xfe, 0x3c, 0x83, 0xbc,
  0x35, 0xc4, 0x39, 0xbd, 0x68, 0x01, 0xbe, 0xbd, 0xe3, 0x90, 0x54, 0xbe,
  0x90, 0x3c, 0x8d, 0xbd, 0x78, 0x7f, 0xb9, 0x3d, 0x0d, 0xe6, 0x03, 0xbc,
  0x3e, 0xb3, 0x1d, 0xbe, 0xbc, 0x7c, 0x15, 0x3d, 0xc1, 0x73, 0xdd, 0xbd,
  0x61, 0xe8, 0xd4, 0xbd, 0x7b, 0x6c, 0x19, 0xbe, 0x13, 0x72, 0x9f, 0x3d,
  0xd4, 0x08, 0x53, 0xbd, 0x8a, 0x5e, 0x75, 0xbd, 0x0f, 0x30, 0xd3, 0x3d,
  0x3c, 0x52, 0x25, 0xbd, 0x65, 0x81, 0xff, 0xbd, 0xa5, 0xba, 0x92, 0x3a,
  0xc1, 0x71, 0x87, 0x3a, 0xd0, 0xb7, 0x21, 0x3e, 0xc6, 0x06, 0xb7, 0x3d,
  0xd9, 0xe7, 0x2b, 0xbe, 0x42, 0xe1, 0xa5, 0x3c, 0xfc, 0xcd, 0x87, 0xbe,
  0xbe, 0x6d, 0x5b, 0xba, 0x39, 0x68, 0x01, 0x3e, 0xc5, 0xd1, 0xe0, 0xbd,
  0x99, 0x5e, 0x39, 0x3d, 0x01, 0xc1, 0x09, 0xbe, 0x0f, 0x36, 0x6e, 0xbe,
  0x30, 0x1f, 0x66, 0xbd, 0xa6, 0x15, 0x26, 0xbe, 0xd1, 0xf9, 0x0e, 0xbe,
  0x89, 0xb4, 0xe9, 0xbd, 0x8f, 0x5c, 0x87, 0xbe, 0x8e, 0x43, 0x2e, 0xbe,
  0xeb, 0xd2, 0xed, 0x3d, 0x82, 0xa3, 0x21, 0x3d, 0x80, 0x35, 0xf9, 0x3d,
  0x69, 0x37, 0xf5, 0xbd, 0x8d, 0x8b, 0x4f, 0x3d, 0x2a, 0x2a, 0xdd, 0xbc,
  0xc4, 0x91, 0x9a, 0xbe, 0x35, 0xeb, 0xd8, 0x3c, 0x3e, 0xaa, 0x48, 0xbc,
  0x16, 0xb1, 0x94, 0x3d, 0x1b, 0xa2, 0x6b, 0xbe, 0x55, 0x05, 0x36, 0xbe,
  0x75, 0x40, 0xd8, 0x3d, 0x77, 0x39, 0xc5, 0xbd, 0x38, 0x77, 0x86, 0xbd,
  0xe0, 0x0a, 0x14, 0xbe, 0x6d, 0xcd, 0xef, 0xbd, 0xe3, 0x67, 0x19, 0xbe,
  0x64, 0x0b, 0x0f, 0xbd, 0x1b, 0x05, 0x80, 0xbe, 0xc0, 0xde, 0xaf, 0xba,
  0x96, 0x2d, 0x42, 0x3d, 0xf9, 0xa5, 0x48, 0xbd, 0x5b, 0xae, 0xed, 0xbd,
  0xb0, 0xd5, 0x21, 0xbd, 0x04, 0x4a, 0x16, 0xbe, 0x34, 0x25, 0x3d, 0x3e,
  0xb8, 0x9e, 0x4b, 0xbc, 0xeb, 0x33, 0x63, 0xbc, 0x3c, 0xb8, 0x24, 0xbe,
  0x42, 0xe4, 0xd6, 0x3d, 0xf2, 0x9b, 0x63, 0xbe, 0x1e, 0xa9, 0x34, 0xbc,
  0xff, 0x54, 0x69, 0xbe, 0x7a, 0x67, 0xf9, 0x3b, 0x51, 0x4a, 0xd6, 0xbd,
  0xbb, 0x71, 0xb8, 0x3d, 0x16, 0xe6, 0x13, 0xbd, 0xbf, 0x8d, 0x0c, 0x3e,
  0x7e, 0xd5, 0x9b, 0x3d, 0xb2, 0xae, 0xc8, 0xbd, 0x6b, 0x61, 0x4a, 0xbe,
  0x6b, 0x9f, 0xec, 0x3d, 0xb5, 0x55, 0x57, 0xbe, 0x82, 0xe2, 0x5b, 0xbe,
  0xa9, 0xab, 0xab, 0xbd, 0x1b, 0x01, 0xe3, 0xbd, 0xeb, 0x9c, 0xae, 0xbe,
  0xde, 0xea, 0xd5, 0xbd, 0x50, 0x88, 0xba, 0xbd, 0x21, 0x5a, 0xae, 0x3c,
  0x17, 0xbd, 0x22, 0xbe, 0x51, 0xc1, 0xbe, 0x3d, 0x11, 0xa0, 0x45, 0x3c,
  0x8a, 0xcc, 0x6a, 0xbe, 0x40, 0xa6, 0xa9, 0xbd, 0xdf, 0xc4, 0xe6, 0x3d,
  0x94, 0x8e, 0xfe, 0x3d, 0x45, 0xbb, 0x8d, 0xbd, 0xac, 0xc6, 0x55, 0x3d,
  0x62, 0xb1, 0x27, 0x3c, 0x8c, 0x44, 0x19, 0x3e, 0x04, 0x96, 0xb7, 0xbd,
  0x6b, 0x20, 0x2a, 0x3d, 0x21, 0x85, 0xd9, 0x3d, 0x92, 0x44, 0x69, 0xbe,
  0xb3, 0x69, 0xda, 0x3a, 0x9f, 0x13, 0xab, 0xbe, 0x33, 0xc5, 0x71, 0xbe,
  0x3e, 0xed, 0x69, 0xbe, 0xa1, 0x98, 0x8f, 0xbb, 0x99, 0x89, 0x10, 0x3c,
  0x80, 0xeb, 0xfe, 0xbd, 0xa1, 0x10, 0x6c, 0xbd, 0x55, 0xf1, 0xc8, 0xbc,
  0x03, 0x44, 0x7b, 0xbe, 0xc6, 0x99, 0xb6, 0x3d, 0xc9, 0x94, 0xcd, 0xbc,
  0x0c, 0x38, 0x1e, 0xbe, 0x2b, 0x65, 0xf3, 0x3d, 0xdd, 0x6c, 0x44, 0x3e,
  0x30, 0x6e, 0xb3, 0xbd, 0x4c, 0xe3, 0xee, 0x3d, 0x33, 0xf6, 0xbb, 0xbe,
  0x61, 0x8d, 0x84, 0xbe, 0x67, 0x73, 0xca, 0x3c, 0xea, 0xee, 0xc3, 0x3d,
  0x1b, 0x9b, 0xe4, 0xbd, 0x11, 0x1b, 0x71, 0x3c, 0x3c, 0x4c, 0xf4, 0x3d,
  0x16, 0xd7, 0x27, 0xbe, 0xa0, 0xaa, 0x84, 0xbd, 0xa5, 0x74, 0x11, 0xbc,
  0x54, 0xd2, 0x66, 0xbe, 0x90, 0x5d, 0x08, 0xbe, 0xac, 0x1b, 0xe4, 0x3c,
  0x45, 0xf8, 0x13, 0x3d, 0x9a, 0xcf, 0x30, 0xbc, 0x3f, 0x26, 0x1c, 0x3e,
  0xa8, 0x99, 0xa3, 0xbd, 0x88, 0xea, 0xb4, 0xbd, 0x72, 0xa9, 0x0b, 0x3d,
  0xfc, 0xc9, 0xe2, 0xbd, 0x35, 0x3f, 0xb7, 0x3d, 0x9b, 0x44, 0x36, 0xbe,
  0x87, 0x53, 0xba, 0x3d, 0x76, 0xff, 0xcc, 0xbd, 0x9d, 0x15, 0xa7, 0x3d,
  0x62, 0xc5, 0x14, 0x3d, 0x13, 0xa0, 0x16, 0x3e, 0xd5, 0x84, 0x29, 0xbe,
  0x30, 0xdc, 0x57, 0xbe, 0x0f, 0xa2, 0x4d, 0xbe, 0xf4, 0xe1, 0x86, 0xbd,
  0x2d, 0xaa, 0x9a, 0xbc, 0x3a, 0x7c, 0xde, 0x3c, 0x67, 0x1a, 0x2c, 0x3e,
  0xed, 0x72, 0x69, 0xbe, 0x92, 0x42, 0x06, 0xbe, 0x8b, 0x89, 0x02, 0x3f,
  0x3b, 0x08, 0x76, 0xbd, 0xdb, 0x71, 0xd3, 0xbe, 0x97, 0xd1, 0x1a, 0x3e,
  0xe3, 0x46, 0xa7, 0xbe, 0xb4, 0xcc, 0x77, 0xbe, 0x92, 0xf5, 0xac, 0xbe,
  0xc1, 0x30, 0xf6, 0x3e, 0xaf, 0xda, 0x04, 0xbe, 0x26, 0xcb, 0xcc, 0x3c,
  0x1b, 0x86, 0x8e, 0xbc, 0x2e, 0x7a, 0xe8, 0xbe, 0x40, 0x69, 0x08, 0x3d,
  0xd1, 0xa4, 0x28, 0xbe, 0x2f, 0x6b, 0x8c, 0xbe, 0xe3, 0xf9, 0xb7, 0xbd,
  0x44, 0x1e, 0x2f, 0x3d, 0x72, 0xa5, 0xc9, 0xbd, 0x07, 0x80, 0x31, 0xbe,
  0xfd, 0xec, 0x00, 0xbe, 0x58, 0x0e, 0x4a, 0xbd, 0x79, 0xd3, 0x10, 0x3f,
  0x6b, 0xf1, 0x0c, 0x3e, 0x0b, 0xa6, 0x9c, 0x3e, 0xaa, 0x20, 0x74, 0x3e,
  0x57, 0xf1, 0x11, 0x3e, 0xc4, 0x76, 0x85, 0xbd, 0x96, 0xa4, 0x93, 0xbe,
  0xdc, 0x7c, 0x7e, 0xbc, 0xdb, 0x11, 0x3b, 0xbc, 0x89, 0x05, 0xbb, 0xbd,
  0x2e, 0xfb, 0x45, 0xbe, 0xf4, 0x26, 0x0d, 0xbe, 0xd6, 0x24, 0xc2, 0x3c,
  0x73, 0x5b, 0x13, 0x3e, 0x5b, 0x89, 0xd5, 0xbd, 0xda, 0x11, 0x3f, 0xbe,
  0xd3, 0x4c, 0x0b, 0x3f, 0x9e, 0xe2, 0x55, 0xbe, 0xf8, 0x76, 0x1a, 0xbd,
  0xdc, 0x12, 0x84, 0xbd, 0xb6, 0x00, 0x76, 0xbe, 0x6d, 0x3e, 0x97, 0x3c,
  0xe1, 0x1c, 0x3b, 0xbe, 0x23, 0x6c, 0x0a, 0xbe, 0xce, 0x08, 0x23, 0x3e,
  0x1b, 0xf4, 0xc8, 0xbd, 0x2f, 0x95, 0x41, 0xbe, 0x3b, 0x7f, 0xd5, 0x3d,
  0x54, 0x2d, 0xa8, 0x3c, 0xc9, 0x7b, 0x2a, 0x3e, 0xc2, 0xc6, 0x89, 0xbd,
  0x19, 0xfb, 0xb9, 0xbb, 0x71, 0x52, 0x04, 0x3e, 0x99, 0x4f, 0x46, 0xbd,
  0x7c, 0xd0, 0x15, 0xbd, 0xc4, 0x9d, 0x09, 0xbe, 0xe2, 0xd4, 0x0a, 0x3e,
  0x3a, 0x61, 0x91, 0x3d, 0x04, 0x45, 0x80, 0x3c, 0x31, 0x65, 0xb9, 0xbd,
  0xb6, 0xca, 0x92, 0x3e, 0x18, 0xa9, 0x18, 0xbd, 0x03, 0x5d, 0x3e, 0xbe,
  0x44, 0x79, 0x2c, 0x3d, 0xdb, 0xab, 0xeb, 0xbb, 0x2e, 0x13, 0x39, 0x3d,
  0xd7, 0x2d, 0x04, 0xbd, 0xd3, 0x6d, 0x08, 0xbe, 0x42, 0x27, 0x71, 0xbd,
  0xd8, 0xc6, 0x91, 0xbd, 0xaf, 0x3f, 0xe4, 0xbd, 0x94, 0x3f, 0x9b, 0xbd,
  0x7b, 0x21, 0x5a, 0x3d, 0xe9, 0x1d, 0xa3, 0x3c, 0x64, 0x17, 0x5e, 0xbd,
  0xbc, 0xd0, 0x7d, 0xbd, 0xb5, 0x06, 0x95, 0x3d, 0x0a, 0x4a, 0x55, 0x3d,
  0x06, 0x5f, 0xee, 0xbe, 0xa7, 0x09, 0x1e, 0x3c, 0x46, 0x34, 0xbb, 0xbe,
  0xd7, 0x87, 0x03, 0xbd, 0xce, 0x24, 0x5e, 0x3e, 0x51, 0x1d, 0x85, 0x3a,
  0x12, 0x13, 0xb7, 0x3a, 0x91, 0x2f, 0xba, 0xbc, 0x4b, 0x5e, 0x58, 0xbb,
  0x5d, 0x73, 0xcc, 0xbd, 0x89, 0x5a, 0x8f, 0x3c, 0xe8, 0x76, 0xac, 0xbe,
  0x77, 0x84, 0xbd, 0xbd, 0x7c, 0x78, 0xd1, 0xbc, 0xd7, 0x88, 0x8e, 0x3d,
  0x35, 0xfb, 0x07, 0x3e, 0xc1, 0xfc, 0xac, 0xbe, 0x37, 0x4a, 0x29, 0xbe,
  0xbc, 0x7a, 0xe2, 0xbe, 0xd8, 0x50, 0xd5, 0xbd, 0x2e, 0x03, 0xdd, 0xbd,
  0xf6, 0x3e, 0xbc, 0xbd, 0xa9, 0xc3, 0x15, 0x3e, 0xa7, 0x6e, 0x97, 0xbc,
  0x44, 0xea, 0x7e, 0x3b, 0x07, 0x10, 0x1d, 0xbe, 0x7c, 0x98, 0x0c, 0xbc,
  0x24, 0xfd, 0x89, 0xbe, 0xb8, 0x55, 0x02, 0xbe, 0xc5, 0x81, 0xa3, 0xbb,
  0x4c, 0x37, 0x57, 0x3d, 0xa3, 0xc8, 0x07, 0x3c, 0x47, 0x57, 0x6e, 0x3c,
  0xc0, 0xb6, 0xe3, 0x3c, 0x5a, 0x97, 0x00, 0x3d, 0xf7, 0x1d, 0x07, 0x3d,
  0xff, 0x34, 0x4f, 0xbe, 0xd0, 0x96, 0xe6, 0x3d, 0xd1, 0x2f, 0x97, 0x3c,
  0xe9, 0x6a, 0x22, 0xbe, 0x61, 0x6a, 0x6a, 0xbd, 0x69, 0x94, 0x8f, 0xbe,
  0x4d, 0xeb, 0xfd, 0x3d, 0x89, 0xf2, 0x9d, 0x3d, 0xc7, 0xfb, 0x10, 0xbe,
  0x1d, 0x94, 0x8d, 0xbe, 0x04, 0xe6, 0xd2, 0x3d, 0x4a, 0x4f, 0x94, 0xbd,
  0x93, 0xd9, 0x2b, 0xbe, 0xb3, 0x20, 0x60, 0xbe, 0x48, 0x3e, 0xfe, 0xbd,
  0x60, 0x23, 0x48, 0xbe, 0x54, 0x3a, 0xd2, 0xbc, 0x2e, 0x84, 0x6d, 0x3d,
  0x78, 0xad, 0x1b, 0x3e, 0x51, 0x6b, 0x01, 0x3e, 0x97, 0xa3, 0x8e, 0xbe,
  0xd3, 0x75, 0xd9, 0xbd, 0x07, 0xa3, 0x05, 0x3e, 0xc2, 0x20, 0xcf, 0xbc,
  0xdd, 0x9f, 0x14, 0x3e, 0xb7, 0x8a, 0xcb, 0xbe, 0x51, 0x5d, 0x4f, 0xbd,
  0x52, 0x8d, 0xea, 0xbd, 0x91, 0x3e, 0x60, 0xbe, 0xe4, 0xab, 0xc9, 0xbd,
  0xa3, 0xcd, 0x29, 0xbe, 0x1e, 0xe9, 0x6d, 0xbd, 0x0c, 0x69, 0xd7, 0x3d,
  0xf6, 0x6c, 0x26, 0x3e, 0x2e, 0xf4, 0x4e, 0xbe, 0x13, 0xca, 0x08, 0x3e,
  0x85, 0xbd, 0x33, 0xbe, 0xc3, 0x9c, 0xec, 0xbb, 0xaa, 0xd4, 0x0f, 0xbe,
  0x61, 0x25, 0x7d, 0xbe, 0xf8, 0x14, 0xdd, 0xbc, 0xf6, 0x77, 0x89, 0xbe,
  0x4b, 0x2f, 0x11, 0xbe, 0xf6, 0xd0, 0x70, 0xbd, 0x10, 0x18, 0x0c, 0xbe,
  0xcb, 0xb8, 0x6f, 0xbd, 0xfb, 0xbe, 0x18, 0xbe, 0x5c, 0x9e, 0x75, 0xbe,
  0xf1, 0x96, 0xce, 0x3d, 0x59, 0xec, 0x87, 0xbd, 0xc7, 0xae, 0x3a, 0xbe,
  0x79, 0xd0, 0x2c, 0xbc, 0x2a, 0x8e, 0x8b, 0xbe, 0x69, 0x7f, 0x53, 0xbd,
  0x44, 0xdf, 0x74, 0xbd, 0x9b, 0x4a, 0xc7, 0xbd, 0xa7, 0xf1, 0xe7, 0xbd,
  0xd4, 0x46, 0x20, 0xbe, 0x87, 0x17, 0xa5, 0xbd, 0x9f, 0xfc, 0x15, 0xbe,
  0xff, 0x81, 0x48, 0xbc, 0x81, 0xaf, 0x9e, 0x3c, 0x86, 0x02, 0x7e, 0xbd,
  0x6d, 0xe1, 0x3e, 0xbc, 0x32, 0xfa, 0x3d, 0x3d, 0x4a, 0x11, 0xe0, 0x3d,
  0x6a, 0xd2, 0x35, 0xbe, 0xe8, 0x9a, 0xc0, 0x3d, 0x79, 0x6a, 0x28, 0xbe,
  0xcf, 0xda, 0x21, 0xbe, 0x16, 0xb2, 0xdd, 0x3d, 0x1e, 0x14, 0x09, 0xbe,
  0xa2, 0x96, 0x7b, 0x3d, 0xb4, 0x90, 0x8f, 0xbe, 0x6f, 0x70, 0x31, 0xbe,
  0x36, 0x46, 0xfe, 0x3d, 0xe5, 0x49, 0xa7, 0x3d, 0x78, 0x6d, 0xc6, 0xbd,
  0x43, 0x3e, 0x42, 0xbd, 0xd5, 0x03, 0x19, 0x3d, 0xcc, 0xe8, 0x11, 0xbe,
  0xa4, 0xf8, 0x8a, 0x3d, 0xfd, 0xcc, 0x96, 0xbd, 0x19, 0x03, 0x5a, 0xbd,
  0x04, 0x8e, 0x9b, 0xbe, 0x2e, 0x11, 0x19, 0xbe, 0x84, 0xdb, 0x2d, 0x3d,
  0xd9, 0xf8, 0xb7, 0xbc, 0xa5, 0x0b, 0x4b, 0xbe, 0x82, 0x7b, 0xe2, 0xbe,
  0x8d, 0xc1, 0x9f, 0x3d, 0x51, 0x21, 0xc5, 0x3d, 0xcf, 0xfb, 0x4e, 0xbe,
  0x78, 0x23, 0x3c, 0x3e, 0xdf, 0x61, 0xb3, 0x3d, 0xbc, 0x4d, 0x57, 0x3d,
  0x34, 0xbf, 0xa3, 0xbc, 0xb9, 0xa2, 0xb3, 0xbc, 0xf1, 0x3c, 0x42, 0x3b,
  0x17, 0xa8, 0x88, 0xbe, 0xe6, 0x7e, 0xb3, 0xbd, 0x30, 0x79, 0xb9, 0x3c,
  0x70, 0xcc, 0x07, 0x3e, 0xc5, 0xb0, 0x0f, 0xbe, 0x66, 0xf2, 0x7b, 0xbd,
  0x6c, 0x22, 0xcd, 0xbd, 0x2c, 0x72, 0x0a, 0xbb, 0x83, 0xd2, 0x17, 0x3d,
  0xe1, 0x65, 0x92, 0xba, 0xef, 0x08, 0x1e, 0xbe, 0x06, 0xcd, 0x81, 0x3d,
  0x27, 0x50, 0x69, 0xbe, 0x3e, 0xed, 0x00, 0x3e, 0x97, 0x0a, 0x2c, 0xbe,
  0x90, 0x00, 0xf2, 0xbb, 0x37, 0x9d, 0x42, 0xbd, 0xee, 0xbb, 0x66, 0xbe,
  0x02, 0x68, 0x45, 0xbe, 0x7d, 0x17, 0xbb, 0x3d, 0x5c, 0x20, 0x84, 0x3d,
  0x2c, 0x85, 0x61, 0xbe, 0x2a, 0x6d, 0x82, 0xbe, 0xa2, 0x15, 0x29, 0xbe,
  0xc5, 0xd8, 0x05, 0xbd, 0xae, 0x1d, 0x4b, 0xbe, 0xb7, 0x3e, 0x83, 0xbd,
  0x87, 0x4f, 0x92, 0xbd, 0x21, 0x28, 0xb6, 0x3d, 0xaa, 0x40, 0x0e, 0xbe,
  0x51, 0xee, 0xd6, 0x3c, 0xaf, 0x94, 0x95, 0xbe, 0x66, 0xd4, 0x0d, 0x3d,
  0x72, 0xea, 0x51, 0xbe, 0x19, 0x7e, 0x69, 0x3d, 0x40, 0xe9, 0xdc, 0xbc,
  0xa4, 0x2a, 0x00, 0xbe, 0x37, 0xc1, 0x0a, 0xbe, 0x6f, 0x00, 0xb8, 0xbe,
  0xe4, 0xa8, 0x8a, 0xbe, 0xaa, 0x34, 0xdd, 0x3c, 0x44, 0x9f, 0x35, 0xbe,
  0x87, 0xb0, 0x54, 0xbe, 0x92, 0xaf, 0x68, 0xbe, 0x1c, 0x0c, 0x08, 0x3e,
  0xf4, 0x30, 0xdb, 0x3d, 0x63, 0xc4, 0x23, 0xbd, 0x9d, 0x0c, 0x36, 0xbe,
  0x93, 0x8c, 0xce, 0xbb, 0xe6, 0x1c, 0x15, 0xbe, 0x7e, 0xf4, 0xe3, 0xbc,
  0x0f, 0xcb, 0x49, 0xbe, 0xe7, 0x86, 0x01, 0x3e, 0xa4, 0xaf, 0x88, 0xbd,
  0x2d, 0x4c, 0x9b, 0xbb, 0x5a, 0xe0, 0x6e, 0xbe, 0x51, 0xef, 0x84, 0x3c,
  0xcd, 0xa6, 0x08, 0x3d, 0xa4, 0x82, 0xeb, 0xbc, 0x3c, 0x88, 0x54, 0xbe,
  0x2c, 0xda, 0xec, 0xbd, 0xf0, 0xb5, 0x52, 0xbe, 0x0a, 0xa3, 0x67, 0xbe,
  0x4e, 0x27, 0x55, 0x3d, 0x0b, 0x52, 0x91, 0x3d, 0x28, 0xac, 0x80, 0xbe,
  0xa6, 0x92, 0x90, 0xbe, 0x22, 0x35, 0x76, 0xbe, 0x53, 0x54, 0x30, 0xbd,
  0x67, 0xc2, 0x3c, 0xbe, 0x61, 0x2f, 0x72, 0xbe, 0x84, 0x47, 0x23, 0xbe,
  0x7b, 0x6f, 0x51, 0xbe, 0x2d, 0x02, 0x24, 0x3c, 0xec, 0xbb, 0xda, 0xbc,
  0x05, 0xce, 0xf5, 0xbd, 0x49, 0x6a, 0x1c, 0xbe, 0xe3, 0xfe, 0x5a, 0xbc,
  0xe2, 0x66, 0xab, 0x3d, 0x07, 0x1e, 0x0e, 0xbe, 0xe5, 0x08, 0x51, 0x3d,
  0x5e, 0xce, 0x66, 0xbd, 0x78, 0x9e, 0xa3, 0xbe, 0xd1, 0x27, 0x23, 0xbe,
  0xac, 0x4a, 0x52, 0x3c, 0xea, 0xe7, 0x01, 0xbe, 0xda, 0xca, 0x7e, 0xbe,
  0xc0, 0x9c, 0x6a, 0xbe, 0xd9, 0x2e, 0x5a, 0x3d, 0x4b, 0xd3, 0xef, 0x3d,
  0xd7, 0xe6, 0xb3, 0xbb, 0xbe, 0x6a, 0x14, 0xbe, 0x7f, 0x0c, 0x37, 0x3c,
  0xd1, 0x71, 0x36, 0xbe, 0xb8, 0xe3, 0x42, 0xbd, 0x01, 0x5f, 0x0f, 0x3e,
  0xf2, 0xf8, 0x56, 0xbc, 0xcb, 0x28, 0x9d, 0xbe, 0xac, 0xbb, 0x58, 0xbe,
  0xdb, 0x35, 0x5e, 0xbe, 0x84, 0xcd, 0x42, 0x3c, 0x8f, 0xa4, 0x26, 0xbd,
  0x37, 0x49, 0xba, 0xbe, 0xf5, 0xd9, 0xd5, 0xbd, 0xce, 0x00, 0x0b, 0x3c,
  0xaa, 0x49, 0xdf, 0x3d, 0xaf, 0x76, 0xc1, 0xbc, 0x26, 0x4a, 0xa2, 0xbd,
  0x09, 0xa7, 0x6c, 0xbb, 0x12, 0xfc, 0xef, 0xbd, 0xba, 0xa2, 0x09, 0x3e,
  0xfd, 0x20, 0xac, 0x3c, 0x5f, 0x41, 0xac, 0x3c, 0x89, 0x6d, 0xa3, 0xbd,
  0xa2, 0xf5, 0xb3, 0xbc, 0x7c, 0xc9, 0xe5, 0x3c, 0x41, 0x3c, 0xc5, 0xbd,
  0x90, 0xf3, 0xf5, 0xbd, 0xc1, 0x12, 0x3a, 0x3c, 0x5b, 0x7e, 0xbd, 0xbe,
  0x44, 0x00, 0xda, 0x3e, 0x62, 0x95, 0x10, 0xbe, 0x26, 0x74, 0xb3, 0x3d,
  0x15, 0xc7, 0x97, 0xbe, 0x79, 0xfc, 0xbb, 0x3e, 0xd5, 0x3e, 0xef, 0x3d,
  0x0a, 0x07, 0xc8, 0x3e, 0xb9, 0x89, 0xa3, 0x3c, 0x26, 0x28, 0x95, 0x3e,
  0x93, 0x04, 0x95, 0x3d, 0x55, 0xbb, 0x4c, 0xbe, 0x74, 0x86, 0x1d, 0x3e,
  0x2d, 0xb1, 0x70, 0xbe, 0xab, 0xe5, 0x86, 0x3e, 0x4e, 0x9f, 0xa7, 0x3c,
  0x7d, 0x71, 0x45, 0x3e, 0x91, 0x80, 0xf5, 0x3e, 0x21, 0x10, 0x22, 0x3c,
  0xeb, 0x02, 0x54, 0x3d, 0xa9, 0xfc, 0x75, 0xbe, 0x24, 0x32, 0x9f, 0x3e,
  0xc0, 0x11, 0x73, 0x3e, 0xca, 0xa9, 0x06, 0x3d, 0xc0, 0x45, 0x41, 0x3c,
  0x4b, 0xb2, 0xbf, 0x3d, 0xb9, 0xcc, 0xc3, 0xbc, 0x71, 0x03, 0xbd, 0xbd,
  0xc2, 0x26, 0x44, 0xbd, 0xfa, 0x70, 0x9b, 0xbe, 0xd0, 0x92, 0xd5, 0x3e,
  0x48, 0x00, 0x45, 0x3d, 0xcd, 0x72, 0x7e, 0x3e, 0xab, 0xb8, 0x0e, 0x3f,
  0x68, 0x5d, 0x1a, 0x3e, 0x5f, 0xfb, 0xcc, 0x3d, 0xe5, 0x6e, 0xe7, 0xbd,
  0x3c, 0xe9, 0x39, 0x3d, 0x4e, 0x7c, 0x24, 0x3e, 0x59, 0x53, 0x93, 0xbd,
  0xef, 0x76, 0x6c, 0xbc, 0x5f, 0x53, 0x00, 0x3f, 0xb5, 0xd6, 0xb4, 0xbc,
  0x32, 0x80, 0x19, 0x3d, 0x81, 0x74, 0xdf, 0xbc, 0xa5, 0x1d, 0x3b, 0xbe,
  0x0e, 0xfe, 0xfb, 0x3e, 0x6b, 0xbf, 0xa8, 0x3c, 0x72, 0xff, 0x4c, 0xbd,
  0xf1, 0x9b, 0x3d, 0x3f, 0x8c, 0x50, 0xb2, 0x3c, 0x43, 0xaa, 0x7a, 0x3d,
  0x9f, 0x41, 0x15, 0xbe, 0x07, 0x6d, 0x92, 0x3d, 0x89, 0x3b, 0xd8, 0x3d,
  0xd9, 0x24, 0xf2, 0x39, 0x17, 0xbe, 0x93, 0x3d, 0xa8, 0x86, 0xb9, 0x3e,
  0x98, 0x7c, 0x94, 0x3d, 0xae, 0x4c, 0x70, 0x3d, 0xa3, 0x82, 0x72, 0x3d,
  0xaa, 0xa5, 0x3d, 0xbe, 0x1b, 0xcc, 0xfc, 0x3e, 0x45, 0x9d, 0x2e, 0x3d,
  0x3e, 0xc6, 0x9e, 0x3c, 0xe3, 0x2c, 0x4b, 0x3f, 0xd3, 0xd1, 0x41, 0x3e,
  0x65, 0x9e, 0x18, 0x3d, 0x97, 0x79, 0x7b, 0xbe, 0xa9, 0x17, 0xfa, 0x3c,
  0xd6, 0x5d, 0xe1, 0x3d, 0x8f, 0xf0, 0x91, 0xbc, 0xda, 0x4c, 0xec, 0x3c,
  0xb2, 0x4c, 0x9c, 0x3e, 0x79, 0x04, 0x67, 0xbd, 0xa9, 0x4b, 0x65, 0xbb,
  0x2b, 0x49, 0x26, 0x3e, 0xb3, 0x90, 0x4f, 0xbe, 0x18, 0x26, 0xc0, 0x3e,
  0x70, 0x15, 0xdf, 0x3c, 0xa5, 0xbb, 0xcb, 0x3d, 0x4f, 0xc7, 0x22, 0x3f,
  0x0f, 0x73, 0xd6, 0x3d, 0xde, 0x4f, 0x59, 0x3d, 0xc0, 0x27, 0xa3, 0xbe,
  0xb6, 0xcf, 0x50, 0x3d, 0xdd, 0xbd, 0x58, 0xbd, 0x6f, 0xe3, 0x1e, 0x3d,
  0xa2, 0xc4, 0xeb, 0xbc, 0x2f, 0xb3, 0xa3, 0x3e, 0x40, 0x7d, 0x5f, 0xbd,
  0xc7, 0x59, 0x86, 0xbc, 0x9d, 0xcb, 0xf1, 0x3d, 0x6c, 0x21, 0xb7, 0xbe,
  0x9f, 0xab, 0x0d, 0x3f, 0xb3, 0x91, 0x8f, 0x3d, 0x3f, 0xbb, 0xea, 0x3d,
  0x20, 0xc5, 0xb5, 0x3c, 0x3c, 0xdb, 0x8b, 0xbd, 0x26, 0x38, 0x92, 0x3e,
  0x23, 0x42, 0x51, 0xbe, 0x3d, 0x48, 0x29, 0x3e, 0xa2, 0x9a, 0xd1, 0x3d,
  0x0f, 0x14, 0x3a, 0x3e, 0xc6, 0x10, 0xbc, 0x3d, 0xb1, 0x18, 0x84, 0x3e,
  0x1a, 0x6a, 0xd5, 0x3d, 0x22, 0xc9, 0x79, 0xbd, 0x6e, 0xb3, 0xc0, 0x3e,
  0x78, 0x25, 0xec, 0xbd, 0x8f, 0xf7, 0x86, 0x3e, 0x88, 0x34, 0xb5, 0x3c,
  0x50, 0x64, 0xba, 0xbd, 0xdd, 0xa3, 0x15, 0xbd, 0xad, 0xcc, 0x24, 0xbe,
  0xf5, 0xa1, 0xd3, 0xbd, 0x90, 0xf4, 0x2b, 0x3d, 0x5d, 0x83, 0xb1, 0xbc,
  0x74, 0xd9, 0x96, 0xbd, 0xeb, 0xf0, 0x88, 0x3d, 0x46, 0xfd, 0x0f, 0x3e,
  0xea, 0x32, 0xde, 0x3d, 0xf9, 0x4c, 0x30, 0xbe, 0x9b, 0xe4, 0x93, 0x3d,
  0x2f, 0xa8, 0x7f, 0xbe, 0x6e, 0x5f, 0x35, 0x3d, 0xea, 0x2f, 0x3d, 0x3e,
  0xa2, 0x48, 0xaf, 0xbe, 0x79, 0x58, 0x38, 0x3c, 0x6b, 0x53, 0x70, 0x3d,
  0x8c, 0xad, 0xe1, 0x3c, 0x36, 0x1a, 0xa8, 0x3d, 0xef, 0xb4, 0x8f, 0xbd,
  0xcd, 0xce, 0x1c, 0xbd, 0xfd, 0x34, 0x65, 0xbe, 0x52, 0xad, 0x26, 0xbe,
  0x79, 0x0b, 0x68, 0xbe, 0xe6, 0x32, 0x46, 0xbe, 0x16, 0x8c, 0x83, 0xbe,
  0x7c, 0x1a, 0x92, 0xbe, 0x4d, 0xf3, 0x34, 0xbd, 0x42, 0x7f, 0x8a, 0xbc,
  0xde, 0x20, 0x1d, 0x3e, 0x35, 0x1c, 0x6d, 0xbe, 0xd1, 0x0a, 0x2c, 0xbe,
  0x28, 0xf2, 0x54, 0x3d, 0xc5, 0x14, 0x11, 0xbe, 0x03, 0x59, 0x0f, 0x3d,
  0x33, 0x36, 0x70, 0xbe, 0xe7, 0x89, 0x10, 0x3e, 0x12, 0x32, 0xf4, 0xbd,
  0xce, 0x4e, 0xb5, 0x3d, 0xf8, 0x91, 0x52, 0xbe, 0xd9, 0x34, 0x87, 0xbd,
  0x26, 0x54, 0x91, 0xbb, 0xcb, 0x65, 0x77, 0xbe, 0x1e, 0xa5, 0x1b, 0x3e,
  0xc8, 0x0c, 0x62, 0xbe, 0xe6, 0x82, 0x65, 0xbe, 0xd2, 0xfc, 0x9f, 0xbe,
  0xe9, 0x41, 0xc2, 0x3b, 0x0e, 0x93, 0xd2, 0xbc, 0xa2, 0x1f, 0xae, 0xbd,
  0x06, 0x46, 0x8f, 0xbc, 0x96, 0x90, 0xe0, 0xbd, 0x2e, 0xc0, 0xce, 0xbd,
  0xde, 0xd0, 0xf2, 0xbd, 0xb5, 0x37, 0xc3, 0xbc, 0xdc, 0x99, 0xbc, 0xbd,
  0x9b, 0x9e, 0x04, 0xbe, 0x3b, 0xe6, 0xf0, 0xbd, 0x50, 0x85, 0xcd, 0x3c,
  0xff, 0xad, 0x93, 0xbd, 0x43, 0x24, 0xe0, 0x3c, 0x8c, 0xdd, 0xee, 0xbd,
  0xbd, 0x31, 0x58, 0xbd, 0xb4, 0x79, 0x1d, 0x3d, 0x9f, 0xdd, 0xac, 0xbd,
  0x5a, 0x4c, 0x33, 0x3e, 0xba, 0x67, 0xc6, 0x3b, 0xb5, 0xd7, 0x11, 0xbe,
  0x0c, 0x46, 0x14, 0x3e, 0xef, 0xdd, 0x6b, 0xbe, 0x3e, 0x12, 0x01, 0xbd,
  0x16, 0x1b, 0xa5, 0xbd, 0xc4, 0xdd, 0x6c, 0xbe, 0x67, 0xa0, 0x7b, 0xbe,
  0x01, 0xa6, 0xba, 0xbc, 0x53, 0x83, 0x09, 0xbe, 0x60, 0xfe, 0xb1, 0x3c,
  0x68, 0x37, 0x2b, 0x3e, 0x65, 0xfb, 0xc4, 0xbe, 0x38, 0xcc, 0x15, 0x3d,
  0xbe, 0x41, 0xdc, 0x3c, 0x88, 0x07, 0x52, 0xbe, 0x9e, 0x66, 0x9a, 0xbd,
  0xd8, 0x5e, 0x83, 0x3d, 0xa8, 0x2c, 0xc4, 0x3d, 0xe8, 0xa9, 0x20, 0xbe,
  0x48, 0x64, 0xbc, 0x3c, 0x5a, 0x5d, 0xc2, 0x3d, 0xd8, 0x69, 0xc7, 0xbd,
  0x7a, 0xe0, 0x0d, 0xbe, 0xc3, 0xfb, 0x82, 0xbe, 0xed, 0xd6, 0x86, 0xbe,
  0x26, 0x9e, 0x01, 0xbd, 0x86, 0x3d, 0xea, 0xba, 0x21, 0x3a, 0xac, 0xbe,
  0xbd, 0xda, 0x76, 0x3d, 0xd8, 0x5a, 0xd0, 0xbd, 0xd7, 0xc9, 0x88, 0x3d,
  0x5e, 0x15, 0x82, 0xbd, 0xbd, 0xb1, 0x42, 0xbd, 0xa0, 0x58, 0x49, 0xbe,
  0xbf, 0x8f, 0x22, 0xbd, 0x77, 0x25, 0x06, 0x3e, 0xff, 0x29, 0x5a, 0x3d,
  0x67, 0xc0, 0x4f, 0xbe, 0xa9, 0x5f, 0x0d, 0xbe, 0xb1, 0x85, 0xa5, 0xbe,
  0x35, 0x32, 0x8e, 0xbe, 0x37, 0x8a, 0x9e, 0xbd, 0x5f, 0x0a, 0x3d, 0xbe,
  0xa4, 0x81, 0x9d, 0xbe, 0x42, 0xfe, 0xff, 0xff, 0x10, 0x00, 0x00, 0x00,
  0x05, 0x00, 0x00, 0x00, 0x14, 0x00, 0x00, 0x00, 0x2c, 0x00, 0x00, 0x00,
  0x02, 0x00, 0x00, 0x00, 0x10, 0x00, 0x00, 0x00, 0x70, 0x00, 0x00, 0x00,
  0x17, 0x00, 0x00, 0x00, 0x73, 0x65, 0x71, 0x75, 0x65, 0x6e, 0x74, 0x69,
  0x61, 0x6c, 0x2f, 0x64, 0x65, 0x6e, 0x73, 0x65, 0x2f, 0x4d, 0x61, 0x74,
  0x4d, 0x75, 0x6c, 0x00, 0x30, 0xfe, 0xff, 0xff, 0x26, 0xff, 0xff, 0xff,
  0x04, 0x00, 0x00, 0x00, 0x08, 0x00, 0x00, 0x00, 0xff, 0xff, 0xff, 0xff,
  0x70, 0x00, 0x00, 0x00, 0x00, 0x00, 0x0e, 0x00, 0x18, 0x00, 0x08, 0x00,
  0x07, 0x00, 0x0c, 0x00, 0x10, 0x00, 0x14, 0x00, 0x0e, 0x00, 0x00, 0x00,
  0x00, 0x00, 0x00, 0x02, 0x10, 0x00, 0x00, 0x00, 0x04, 0x00, 0x00, 0x00,
  0x10, 0x00, 0x00, 0x00, 0x2c, 0x00, 0x00, 0x00, 0x01, 0x00, 0x00, 0x00,
  0x02, 0x00, 0x00, 0x00, 0x18, 0x00, 0x00, 0x00, 0x73, 0x65, 0x71, 0x75,
  0x65, 0x6e, 0x74, 0x69, 0x61, 0x6c, 0x2f, 0x66, 0x6c, 0x61, 0x74, 0x74,
  0x65, 0x6e, 0x2f, 0x43, 0x6f, 0x6e, 0x73, 0x74, 0x00, 0x00, 0x00, 0x00,
  0x98, 0xfe, 0xff, 0xff, 0x8e, 0xff, 0xff, 0xff, 0x04, 0x00, 0x00, 0x00,
  0x14, 0x00, 0x00, 0x00, 0x2f, 0x82, 0x9d, 0x3e, 0x3c, 0x0c, 0x8e, 0x3d,
  0xd3, 0xd5, 0xf3, 0xbe, 0x96, 0x64, 0xa2, 0x3d, 0x77, 0x49, 0x37, 0xc0,
  0x0a, 0xff, 0xff, 0xff, 0x10, 0x00, 0x00, 0x00, 0x03, 0x00, 0x00, 0x00,
  0x10, 0x00, 0x00, 0x00, 0x3c, 0x00, 0x00, 0x00, 0x01, 0x00, 0x00, 0x00,
  0x05, 0x00, 0x00, 0x00, 0x29, 0x00, 0x00, 0x00, 0x73, 0x65, 0x71, 0x75,
  0x65, 0x6e, 0x74, 0x69, 0x61, 0x6c, 0x2f, 0x64, 0x65, 0x6e, 0x73, 0x65,
  0x5f, 0x31, 0x2f, 0x42, 0x69, 0x61, 0x73, 0x41, 0x64, 0x64, 0x2f, 0x52,
  0x65, 0x61, 0x64, 0x56, 0x61, 0x72, 0x69, 0x61, 0x62, 0x6c, 0x65, 0x4f,
  0x70, 0x00, 0x00, 0x00, 0x60, 0xff, 0xff, 0xff, 0x00, 0x00, 0x06, 0x00,
  0x08, 0x00, 0x04, 0x00, 0x06, 0x00, 0x00, 0x00, 0x04, 0x00, 0x00, 0x00,
  0x40, 0x00, 0x00, 0x00, 0x4a, 0x5c, 0x48, 0xbe, 0x74, 0xb6, 0x53, 0xbe,
  0xdd, 0x13, 0x18, 0xbe, 0x7b, 0xf9, 0x01, 0xbe, 0x0a, 0xf4, 0x85, 0xbd,
  0x0e, 0x02, 0x0e, 0xbe, 0xe5, 0xba, 0x9e, 0x3f, 0x88, 0xc6, 0x06, 0xbe,
  0xb5, 0x6f, 0x13, 0x3e, 0x2f, 0x6f, 0xf7, 0xbd, 0xc4, 0x74, 0xc1, 0xbd,
  0x71, 0xf8, 0xf8, 0x3e, 0x1f, 0x36, 0x47, 0xbe, 0x94, 0x89, 0x29, 0xbe,
  0xae, 0x4b, 0xc9, 0x3f, 0x18, 0x6f, 0x3f, 0xbe, 0xae, 0xff, 0xff, 0xff,
  0x10, 0x00, 0x00, 0x00, 0x02, 0x00, 0x00, 0x00, 0x10, 0x00, 0x00, 0x00,
  0x3c, 0x00, 0x00, 0x00, 0x01, 0x00, 0x00, 0x00, 0x10, 0x00, 0x00, 0x00,
  0x27, 0x00, 0x00, 0x00, 0x73, 0x65, 0x71, 0x75, 0x65, 0x6e, 0x74, 0x69,
  0x61, 0x6c, 0x2f, 0x64, 0x65, 0x6e, 0x73, 0x65, 0x2f, 0x42, 0x69, 0x61,
  0x73, 0x41, 0x64, 0x64, 0x2f, 0x52, 0x65, 0x61, 0x64, 0x56, 0x61, 0x72,
  0x69, 0x61, 0x62, 0x6c, 0x65, 0x4f, 0x70, 0x00, 0x04, 0x00, 0x06, 0x00,
  0x04, 0x00, 0x00, 0x00, 0x00, 0x00, 0x0e, 0x00, 0x14, 0x00, 0x04, 0x00,
  0x00, 0x00, 0x08, 0x00, 0x0c, 0x00, 0x10, 0x00, 0x0e, 0x00, 0x00, 0x00,
  0x10, 0x00, 0x00, 0x00, 0x01, 0x00, 0x00, 0x00, 0x1c, 0x00, 0x00, 0x00,
  0x2c, 0x00, 0x00, 0x00, 0x04, 0x00, 0x00, 0x00, 0x01, 0x00, 0x00, 0x00,
  0x40, 0x00, 0x00, 0x00, 0x03, 0x00, 0x00, 0x00, 0x01, 0x00, 0x00, 0x00,
  0x0c, 0x00, 0x00, 0x00, 0x63, 0x6f, 0x6e, 0x76, 0x32, 0x64, 0x5f, 0x69,
  0x6e, 0x70, 0x75, 0x74, 0x00, 0x00, 0x00, 0x00, 0xfc, 0xff, 0xff, 0xff,
  0x04, 0x00, 0x04, 0x00, 0x04, 0x00, 0x00, 0x00
  
};


unsigned int model_tflite_len = 12452;// Fill the int in `src/model.cc` here
