#include "magic_wand_model_data.h"


// We need to keep the data array aligned on some architectures.

#ifdef __has_attribute

#define HAVE_ATTRIBUTE(x) __has_attribute(x)

#else

#define HAVE_ATTRIBUTE(x) 0

#endif

#if HAVE_ATTRIBUTE(aligned) || (defined(__GNUC__) && !defined(__clang__))

#define DATA_ALIGN_ATTRIBUTE __attribute__((aligned(4)))

#else

#define DATA_ALIGN_ATTRIBUTE

#endif


const unsigned char g_magic_wand_model_data[] DATA_ALIGN_ATTRIBUTE = {

  // Paste the data of the char array in `src/model.cc` here
  

  0x08, 0x00, 0x00, 0x00, 0x54, 0x46, 0x4c, 0x33, 0x62, 0xff, 0xff, 0xff,
  0x03, 0x00, 0x00, 0x00, 0x10, 0x00, 0x00, 0x00, 0x24, 0x00, 0x00, 0x00,
  0x78, 0x00, 0x00, 0x00, 0x24, 0x00, 0x00, 0x00, 0x05, 0x00, 0x00, 0x00,
  0x78, 0x05, 0x00, 0x00, 0xb0, 0x04, 0x00, 0x00, 0xe0, 0x02, 0x00, 0x00,
  0x60, 0x02, 0x00, 0x00, 0x54, 0x01, 0x00, 0x00, 0x01, 0x00, 0x00, 0x00,
  0x78, 0x00, 0x00, 0x00, 0x13, 0x00, 0x00, 0x00, 0x18, 0x30, 0x00, 0x00,
  0x14, 0x30, 0x00, 0x00, 0x20, 0x2f, 0x00, 0x00, 0xa8, 0x2e, 0x00, 0x00,
  0x3c, 0x2e, 0x00, 0x00, 0xec, 0x11, 0x00, 0x00, 0x98, 0x10, 0x00, 0x00,
  0xbc, 0x0e, 0x00, 0x00, 0x60, 0x06, 0x00, 0x00, 0xfc, 0x05, 0x00, 0x00,
  0x78, 0x05, 0x00, 0x00, 0xec, 0x2f, 0x00, 0x00, 0xe8, 0x2f, 0x00, 0x00,
  0xe4, 0x2f, 0x00, 0x00, 0xe0, 0x2f, 0x00, 0x00, 0xdc, 0x2f, 0x00, 0x00,
  0xd8, 0x2f, 0x00, 0x00, 0xd4, 0x2f, 0x00, 0x00, 0xd0, 0x2f, 0x00, 0x00,
  0x0f, 0x00, 0x00, 0x00, 0x4d, 0x4c, 0x49, 0x52, 0x20, 0x43, 0x6f, 0x6e,
  0x76, 0x65, 0x72, 0x74, 0x65, 0x64, 0x2e, 0x00, 0x00, 0x00, 0x0e, 0x00,
  0x18, 0x00, 0x04, 0x00, 0x08, 0x00, 0x0c, 0x00, 0x10, 0x00, 0x14, 0x00,
  0x0e, 0x00, 0x00, 0x00, 0x14, 0x00, 0x00, 0x00, 0x5c, 0x00, 0x00, 0x00,
  0x60, 0x00, 0x00, 0x00, 0x64, 0x00, 0x00, 0x00, 0x84, 0x00, 0x00, 0x00,
  0x12, 0x00, 0x00, 0x00, 0x48, 0x2f, 0x00, 0x00, 0xe4, 0x2e, 0x00, 0x00,
  0x3c, 0x2e, 0x00, 0x00, 0xd8, 0x2d, 0x00, 0x00, 0x70, 0x2d, 0x00, 0x00,
  0x1c, 0x11, 0x00, 0x00, 0xc0, 0x0f, 0x00, 0x00, 0xe4, 0x0d, 0x00, 0x00,
  0xa0, 0x05, 0x00, 0x00, 0x3c, 0x05, 0x00, 0x00, 0xb0, 0x04, 0x00, 0x00,
  0xe8, 0x03, 0x00, 0x00, 0x38, 0x03, 0x00, 0x00, 0xa4, 0x02, 0x00, 0x00,
  0x10, 0x02, 0x00, 0x00, 0x90, 0x01, 0x00, 0x00, 0xfc, 0x00, 0x00, 0x00,
  0x80, 0x00, 0x00, 0x00, 0x01, 0x00, 0x00, 0x00, 0x00, 0x00, 0x00, 0x00,
  0x01, 0x00, 0x00, 0x00, 0x11, 0x00, 0x00, 0x00, 0x08, 0x00, 0x00, 0x00,
  0x1c, 0x04, 0x00, 0x00, 0x58, 0x03, 0x00, 0x00, 0xc8, 0x02, 0x00, 0x00,
  0x24, 0x02, 0x00, 0x00, 0xac, 0x01, 0x00, 0x00, 0x10, 0x01, 0x00, 0x00,
  0x94, 0x00, 0x00, 0x00, 0x10, 0x00, 0x00, 0x00, 0x04, 0x00, 0x00, 0x00,
  0x6d, 0x61, 0x69, 0x6e, 0x00, 0x00, 0x00, 0x00, 0x8e, 0xff, 0xff, 0xff,
  0x00, 0x00, 0x00, 0x09, 0x04, 0x00, 0x00, 0x00, 0x1c, 0x00, 0x00, 0x00,
  0x10, 0x00, 0x00, 0x00, 0x04, 0x00, 0x00, 0x00, 0x0a, 0xd2, 0xff, 0xff,
  0x00, 0x00, 0x80, 0x3f, 0x01, 0x00, 0x00, 0x00, 0x11, 0x00, 0x00, 0x00,
  0x01, 0x00, 0x00, 0x00, 0x10, 0x00, 0x00, 0x00, 0xf6, 0xfb, 0xff, 0xff,
  0x00, 0x00, 0x00, 0x19, 0x01, 0x00, 0x00, 0x00, 0x8a, 0xd1, 0xff, 0xff,
  0x10, 0x00, 0x00, 0x00, 0x12, 0x00, 0x00, 0x00, 0x14, 0x00, 0x00, 0x00,
  0x20, 0x00, 0x00, 0x00, 0x02, 0x00, 0x00, 0x00, 0x01, 0x00, 0x00, 0x00,
  0x04, 0x00, 0x00, 0x00, 0x08, 0x00, 0x00, 0x00, 0x49, 0x64, 0x65, 0x6e,
  0x74, 0x69, 0x74, 0x79, 0x00, 0x00, 0x00, 0x00, 0xc4, 0xd1, 0xff, 0xff,
  0x00, 0x00, 0x0e, 0x00, 0x18, 0x00, 0x08, 0x00, 0x0c, 0x00, 0x10, 0x00,
  0x07, 0x00, 0x14, 0x00, 0x0e, 0x00, 0x00, 0x00, 0x00, 0x00, 0x00, 0x08,
  0x03, 0x00, 0x00, 0x00, 0x18, 0x00, 0x00, 0x00, 0x0c, 0x00, 0x00, 0x00,
  0x04, 0x00, 0x00, 0x00, 0x98, 0xd1, 0xff, 0xff, 0x01, 0x00, 0x00, 0x00,
  0x10, 0x00, 0x00, 0x00, 0x03, 0x00, 0x00, 0x00, 0x0f, 0x00, 0x00, 0x00,
  0x05, 0x00, 0x00, 0x00, 0x02, 0x00, 0x00, 0x00, 0x02, 0xd2, 0xff, 0xff,
  0x10, 0x00, 0x00, 0x00, 0x11, 0x00, 0x00, 0x00, 0x14, 0x00, 0x00, 0x00,
  0x30, 0x00, 0x00, 0x00, 0x02, 0x00, 0x00, 0x00, 0x01, 0x00, 0x00, 0x00,
  0x04, 0x00, 0x00, 0x00, 0x1a, 0x00, 0x00, 0x00, 0x73, 0x65, 0x71, 0x75,
  0x65, 0x6e, 0x74, 0x69, 0x61, 0x6c, 0x2f, 0x64, 0x65, 0x6e, 0x73, 0x65,
  0x5f, 0x31, 0x2f, 0x42, 0x69, 0x61, 0x73, 0x41, 0x64, 0x64, 0x00, 0x00,
  0xf4, 0xd1, 0xff, 0xff, 0xd6, 0xfd, 0xff, 0xff, 0x00, 0x00, 0x00, 0x08,
  0x03, 0x00, 0x00, 0x00, 0x24, 0x00, 0x00, 0x00, 0x18, 0x00, 0x00, 0x00,
  0x0c, 0x00, 0x00, 0x00, 0x00, 0x00, 0x06, 0x00, 0x08, 0x00, 0x07, 0x00,
  0x06, 0x00, 0x00, 0x00, 0x00, 0x00, 0x00, 0x01, 0x01, 0x00, 0x00, 0x00,
  0x0f, 0x00, 0x00, 0x00, 0x03, 0x00, 0x00, 0x00, 0x0e, 0x00, 0x00, 0x00,
  0x04, 0x00, 0x00, 0x00, 0x01, 0x00, 0x00, 0x00, 0xfe, 0xfc, 0xff, 0xff,
  0x00, 0x00, 0x00, 0x09, 0x01, 0x00, 0x00, 0x00, 0x92, 0xd2, 0xff, 0xff,
  0x10, 0x00, 0x00, 0x00, 0x10, 0x00, 0x00, 0x00, 0x14, 0x00, 0x00, 0x00,
  0x2c, 0x00, 0x00, 0x00, 0x02, 0x00, 0x00, 0x00, 0x01, 0x00, 0x00, 0x00,
  0x10, 0x00, 0x00, 0x00, 0x15, 0x00, 0x00, 0x00, 0x73, 0x65, 0x71, 0x75,
  0x65, 0x6e, 0x74, 0x69, 0x61, 0x6c, 0x2f, 0x64, 0x65, 0x6e, 0x73, 0x65,
  0x2f, 0x52, 0x65, 0x6c, 0x75, 0x00, 0x00, 0x00, 0xd8, 0xd2, 0xff, 0xff,
  0x00, 0x00, 0x0a, 0x00, 0x10, 0x00, 0x04, 0x00, 0x08, 0x00, 0x0c, 0x00,
  0x0a, 0x00, 0x00, 0x00, 0x02, 0x00, 0x00, 0x00, 0x10, 0x00, 0x00, 0x00,
  0x04, 0x00, 0x00, 0x00, 0x01, 0x00, 0x00, 0x00, 0x0e, 0x00, 0x00, 0x00,
  0x02, 0x00, 0x00, 0x00, 0x0d, 0x00, 0x00, 0x00, 0x03, 0x00, 0x00, 0x00,
  0x7a, 0xfd, 0xff, 0xff, 0x00, 0x00, 0x00, 0x16, 0x01, 0x00, 0x00, 0x00,
  0x0e, 0xd3, 0xff, 0xff, 0x10, 0x00, 0x00, 0x00, 0x0f, 0x00, 0x00, 0x00,
  0x14, 0x00, 0x00, 0x00, 0x30, 0x00, 0x00, 0x00, 0x02, 0x00, 0x00, 0x00,
  0x01, 0x00, 0x00, 0x00, 0x70, 0x00, 0x00, 0x00, 0x1a, 0x00, 0x00, 0x00,
  0x73, 0x65, 0x71, 0x75, 0x65, 0x6e, 0x74, 0x69, 0x61, 0x6c, 0x2f, 0x66,
  0x6c, 0x61, 0x74, 0x74, 0x65, 0x6e, 0x2f, 0x52, 0x65, 0x73, 0x68, 0x61,
  0x70, 0x65, 0x00, 0x00, 0x00, 0xd3, 0xff, 0xff, 0xe2, 0xfe, 0xff, 0xff,
  0x00, 0x00, 0x00, 0x05, 0x01, 0x00, 0x00, 0x00, 0x38, 0x00, 0x00, 0x00,
  0x2c, 0x00, 0x00, 0x00, 0x14, 0x00, 0x00, 0x00, 0x00, 0x00, 0x0e, 0x00,
  0x14, 0x00, 0x00, 0x00, 0x10, 0x00, 0x0c, 0x00, 0x08, 0x00, 0x04, 0x00,
  0x0e, 0x00, 0x00, 0x00, 0x03, 0x00, 0x00, 0x00, 0x01, 0x00, 0x00, 0x00,
  0x03, 0x00, 0x00, 0x00, 0x01, 0x00, 0x00, 0x00, 0x01, 0x00, 0x00, 0x00,
  0x0d, 0x00, 0x00, 0x00, 0x01, 0x00, 0x00, 0x00, 0x0c, 0x00, 0x00, 0x00,
  0x9e, 0xd3, 0xff, 0xff, 0x10, 0x00, 0x00, 0x00, 0x0e, 0x00, 0x00, 0x00,
  0x1c, 0x00, 0x00, 0x00, 0x40, 0x00, 0x00, 0x00, 0x04, 0x00, 0x00, 0x00,
  0x01, 0x00, 0x00, 0x00, 0x07, 0x00, 0x00, 0x00, 0x01, 0x00, 0x00, 0x00,
  0x10, 0x00, 0x00, 0x00, 0x22, 0x00, 0x00, 0x00, 0x73, 0x65, 0x71, 0x75,
  0x65, 0x6e, 0x74, 0x69, 0x61, 0x6c, 0x2f, 0x6d, 0x61, 0x78, 0x5f, 0x70,
  0x6f, 0x6f, 0x6c, 0x69, 0x6e, 0x67, 0x32, 0x64, 0x5f, 0x31, 0x2f, 0x4d,
  0x61, 0x78, 0x50, 0x6f, 0x6f, 0x6c, 0x00, 0x00, 0xa0, 0xd3, 0xff, 0xff,
  0xc2, 0xfe, 0xff, 0xff, 0x00, 0x00, 0x00, 0x01, 0x24, 0x00, 0x00, 0x00,
  0x18, 0x00, 0x00, 0x00, 0x04, 0x00, 0x00, 0x00, 0xb4, 0xfe, 0xff, 0xff,
  0x01, 0x00, 0x00, 0x00, 0x01, 0x00, 0x00, 0x00, 0x00, 0x00, 0x00, 0x01,
  0x01, 0x00, 0x00, 0x00, 0x0c, 0x00, 0x00, 0x00, 0x03, 0x00, 0x00, 0x00,
  0x0b, 0x00, 0x00, 0x00, 0x07, 0x00, 0x00, 0x00, 0x09, 0x00, 0x00, 0x00,
  0x2e, 0xd4, 0xff, 0xff, 0x10, 0x00, 0x00, 0x00, 0x0d, 0x00, 0x00, 0x00,
  0x1c, 0x00, 0x00, 0x00, 0x2c, 0x00, 0x00, 0x00, 0x04, 0x00, 0x00, 0x00,
  0x01, 0x00, 0x00, 0x00, 0x15, 0x00, 0x00, 0x00, 0x01, 0x00, 0x00, 0x00,
  0x10, 0x00, 0x00, 0x00, 0x0c, 0x00, 0x00, 0x00, 0x74, 0x66, 0x6c, 0x2e,
  0x63, 0x6f, 0x6e, 0x76, 0x5f, 0x32, 0x64, 0x31, 0x00, 0x00, 0x00, 0x00,
  0x74, 0xd4, 0xff, 0xff, 0x00, 0x00, 0x0e, 0x00, 0x1a, 0x00, 0x08, 0x00,
  0x0c, 0x00, 0x10, 0x00, 0x07, 0x00, 0x14, 0x00, 0x0e, 0x00, 0x00, 0x00,
  0x00, 0x00, 0x00, 0x05, 0x01, 0x00, 0x00, 0x00, 0x3c, 0x00, 0x00, 0x00,
  0x30, 0x00, 0x00, 0x00, 0x14, 0x00, 0x00, 0x00, 0x00, 0x00, 0x0e, 0x00,
  0x18, 0x00, 0x17, 0x00, 0x10, 0x00, 0x0c, 0x00, 0x08, 0x00, 0x04, 0x00,
  0x0e, 0x00, 0x00, 0x00, 0x03, 0x00, 0x00, 0x00, 0x03, 0x00, 0x00, 0x00,
  0x03, 0x00, 0x00, 0x00, 0x03, 0x00, 0x00, 0x00, 0x00, 0x00, 0x00, 0x01,
  0x01, 0x00, 0x00, 0x00, 0x0b, 0x00, 0x00, 0x00, 0x01, 0x00, 0x00, 0x00,
  0x0a, 0x00, 0x00, 0x00, 0x46, 0xff, 0xff, 0xff, 0x00, 0x00, 0x00, 0x11,
  0x01, 0x00, 0x00, 0x00, 0xda, 0xd4, 0xff, 0xff, 0x10, 0x00, 0x00, 0x00,
  0x0c, 0x00, 0x00, 0x00, 0x1c, 0x00, 0x00, 0x00, 0x40, 0x00, 0x00, 0x00,
  0x04, 0x00, 0x00, 0x00, 0x01, 0x00, 0x00, 0x00, 0x15, 0x00, 0x00, 0x00,
  0x01, 0x00, 0x00, 0x00, 0x08, 0x00, 0x00, 0x00, 0x20, 0x00, 0x00, 0x00,
  0x73, 0x65, 0x71, 0x75, 0x65, 0x6e, 0x74, 0x69, 0x61, 0x6c, 0x2f, 0x6d,
  0x61, 0x78, 0x5f, 0x70, 0x6f, 0x6f, 0x6c, 0x69, 0x6e, 0x67, 0x32, 0x64,
  0x2f, 0x4d, 0x61, 0x78, 0x50, 0x6f, 0x6f, 0x6c, 0x00, 0x00, 0x00, 0x00,
  0x34, 0xd5, 0xff, 0xff, 0x00, 0x00, 0x0e, 0x00, 0x14, 0x00, 0x00, 0x00,
  0x08, 0x00, 0x0c, 0x00, 0x07, 0x00, 0x10, 0x00, 0x0e, 0x00, 0x00, 0x00,
  0x00, 0x00, 0x00, 0x01, 0x30, 0x00, 0x00, 0x00, 0x24, 0x00, 0x00, 0x00,
  0x10, 0x00, 0x00, 0x00, 0x0c, 0x00, 0x10, 0x00, 0x00, 0x00, 0x04, 0x00,
  0x08, 0x00, 0x0f, 0x00, 0x0c, 0x00, 0x00, 0x00, 0x01, 0x00, 0x00, 0x00,
  0x01, 0x00, 0x00, 0x00, 0x00, 0x00, 0x00, 0x01, 0x01, 0x00, 0x00, 0x00,
  0x0a, 0x00, 0x00, 0x00, 0x03, 0x00, 0x00, 0x00, 0x00, 0x00, 0x00, 0x00,
  0x06, 0x00, 0x00, 0x00, 0x08, 0x00, 0x00, 0x00, 0x00, 0x00, 0x0a, 0x00,
  0x0c, 0x00, 0x07, 0x00, 0x00, 0x00, 0x08, 0x00, 0x0a, 0x00, 0x00, 0x00,
  0x00, 0x00, 0x00, 0x03, 0x01, 0x00, 0x00, 0x00, 0x9e, 0xd5, 0xff, 0xff,
  0x10, 0x00, 0x00, 0x00, 0x0b, 0x00, 0x00, 0x00, 0x1c, 0x00, 0x00, 0x00,
  0x28, 0x00, 0x00, 0x00, 0x04, 0x00, 0x00, 0x00, 0x01, 0x00, 0x00, 0x00,
  0x40, 0x00, 0x00, 0x00, 0x03, 0x00, 0x00, 0x00, 0x08, 0x00, 0x00, 0x00,
  0x0b, 0x00, 0x00, 0x00, 0x74, 0x66, 0x6c, 0x2e, 0x63, 0x6f, 0x6e, 0x76,
  0x5f, 0x32, 0x64, 0x00, 0x88, 0xd5, 0xff, 0xff, 0x7e, 0xd6, 0xff, 0xff,
  0x04, 0x00, 0x00, 0x00, 0x40, 0x00, 0x00, 0x00, 0xc5, 0xc2, 0x99, 0xbf,
  0xe7, 0x22, 0x93, 0xbf, 0xee, 0x3c, 0xff, 0x3d, 0x26, 0xb5, 0x10, 0xbf,
  0xe9, 0x40, 0x2a, 0x3e, 0x2d, 0x9a, 0x1f, 0x40, 0xea, 0xe1, 0xd7, 0x3e,
  0xd0, 0xdd, 0xb4, 0xbe, 0x3f, 0xd3, 0x50, 0x3c, 0x82, 0xeb, 0x59, 0xbe,
  0x40, 0x10, 0x88, 0x40, 0xd4, 0x14, 0xcc, 0xbf, 0xfa, 0xd7, 0x7e, 0xbf,
  0xc9, 0x4a, 0xd1, 0xbf, 0x78, 0x7f, 0x5f, 0xbf, 0x84, 0x37, 0x80, 0x3f,
  0x26, 0xd6, 0xff, 0xff, 0x10, 0x00, 0x00, 0x00, 0x0a, 0x00, 0x00, 0x00,
  0x10, 0x00, 0x00, 0x00, 0x20, 0x00, 0x00, 0x00, 0x01, 0x00, 0x00, 0x00,
  0x10, 0x00, 0x00, 0x00, 0x0d, 0x00, 0x00, 0x00, 0x73, 0x74, 0x64, 0x2e,
  0x63, 0x6f, 0x6e, 0x73, 0x74, 0x61, 0x6e, 0x74, 0x31, 0x00, 0x00, 0x00,
  0x08, 0xd6, 0xff, 0xff, 0xfe, 0xd6, 0xff, 0xff, 0x04, 0x00, 0x00, 0x00,
  0x20, 0x00, 0x00, 0x00, 0x65, 0xc0, 0x28, 0xbf, 0x9f, 0xbe, 0x10, 0xbd,
  0xe9, 0xb2, 0xda, 0xbf, 0xe6, 0x30, 0xb1, 0xbf, 0x06, 0x86, 0x30, 0x3b,
  0xcb, 0x30, 0x03, 0xbf, 0x11, 0x38, 0xe4, 0xbf, 0x52, 0xba, 0x94, 0xbf,
  0x86, 0xd6, 0xff, 0xff, 0x10, 0x00, 0x00, 0x00, 0x09, 0x00, 0x00, 0x00,
  0x10, 0x00, 0x00, 0x00, 0x20, 0x00, 0x00, 0x00, 0x01, 0x00, 0x00, 0x00,
  0x08, 0x00, 0x00, 0x00, 0x0c, 0x00, 0x00, 0x00, 0x73, 0x74, 0x64, 0x2e,
  0x63, 0x6f, 0x6e, 0x73, 0x74, 0x61, 0x6e, 0x74, 0x00, 0x00, 0x00, 0x00,
  0x68, 0xd6, 0xff, 0xff, 0x5e, 0xd7, 0xff, 0xff, 0x04, 0x00, 0x00, 0x00,
  0x00, 0x08, 0x00, 0x00, 0xb2, 0x9b, 0x2b, 0xbd, 0x46, 0x1c, 0x88, 0xbd,
  0x4a, 0xe6, 0x15, 0xbf, 0xc2, 0x7d, 0xcc, 0xbb, 0x7f, 0xbc, 0x85, 0xbe,
  0xef, 0x0e, 0x1e, 0xbf, 0xbd, 0xd8, 0xdc, 0xbd, 0x1a, 0x29, 0x71, 0xbd,
  0xce, 0x51, 0x5f, 0xbd, 0x0c, 0x57, 0xf3, 0xbc, 0x48, 0xa9, 0x04, 0xbe,
  0x27, 0xc6, 0xa9, 0xbc, 0x17, 0xc8, 0xdd, 0xbd, 0xcd, 0xb7, 0x08, 0xbf,
  0x8d, 0x72, 0xb6, 0xbd, 0x36, 0xa1, 0xdc, 0xbc, 0x46, 0x02, 0x9c, 0x3d,
  0x3b, 0x2e, 0xf8, 0x3c, 0x0e, 0xd4, 0xb0, 0x3e, 0xde, 0x69, 0x22, 0x3b,
  0x3a, 0xc6, 0x90, 0xbe, 0x19, 0x97, 0x52, 0x3d, 0x6e, 0xad, 0xdf, 0x3e,
  0x38, 0xd1, 0x9a, 0xbd, 0x27, 0xc0, 0x34, 0x3b, 0x2e, 0xc0, 0xd7, 0x3c,
  0x49, 0x21, 0x29, 0x3e, 0x2c, 0xa9, 0x87, 0x3b, 0x8d, 0x45, 0x49, 0xbe,
  0x8b, 0x2b, 0xc7, 0x3d, 0xb1, 0x61, 0x75, 0xbd, 0xb7, 0x41, 0x69, 0x3e,
  0x9d, 0x8a, 0x52, 0xbe, 0xb4, 0xa3, 0x9d, 0xbd, 0x96, 0x39, 0xa2, 0xbd,
  0x7d, 0xe4, 0x38, 0xbe, 0xcf, 0x6e, 0xea, 0x3c, 0x95, 0x01, 0x22, 0xbe,
  0xfd, 0x17, 0xde, 0x3e, 0xe2, 0x70, 0x58, 0xbe, 0x97, 0xbe, 0xa8, 0xbd,
  0x7a, 0x47, 0x5c, 0xbd, 0xdb, 0x09, 0x3e, 0xbe, 0xcd, 0x15, 0xc2, 0xbd,
  0x1e, 0xa7, 0xea, 0xbc, 0x11, 0xcb, 0x93, 0xbe, 0x4f, 0x09, 0xd3, 0x3e,
  0x7f, 0x01, 0xb8, 0xbd, 0x27, 0x66, 0x9a, 0xbd, 0x13, 0x87, 0xc9, 0xbd,
  0x20, 0x5f, 0x89, 0xbc, 0xe5, 0x1c, 0x25, 0xbc, 0xa6, 0x21, 0xd5, 0x39,
  0x9a, 0x73, 0x42, 0xbd, 0x0d, 0x05, 0x8e, 0xbe, 0xe9, 0x23, 0x61, 0xbd,
  0x9e, 0xb6, 0xf6, 0xbd, 0xa5, 0x57, 0x6e, 0xbe, 0x02, 0x21, 0xe1, 0xbd,
  0x9a, 0x29, 0xb9, 0xbd, 0xa3, 0x2c, 0x5a, 0xbd, 0x8e, 0xfe, 0x4f, 0x3f,
  0x57, 0x4a, 0xd3, 0xbe, 0xa0, 0x72, 0xb7, 0xbd, 0x42, 0x70, 0x5f, 0x3d,
  0xec, 0x40, 0x40, 0xbd, 0xa2, 0xe9, 0xd3, 0xbd, 0x5b, 0x69, 0x0b, 0xbc,
  0xf6, 0xae, 0x16, 0xbd, 0xf2, 0x98, 0xfd, 0xbc, 0x2c, 0xe5, 0x0f, 0xbe,
  0x80, 0x49, 0x08, 0x3d, 0xa2, 0x48, 0xec, 0x3c, 0x18, 0x92, 0x3d, 0xbd,
  0xd0, 0xf0, 0x89, 0xbe, 0x8d, 0xda, 0x5d, 0xbc, 0x32, 0x6f, 0xfb, 0xbc,
  0x95, 0xa6, 0x85, 0xbd, 0xc0, 0x48, 0x02, 0xbe, 0x27, 0xee, 0x57, 0x3c,
  0x12, 0xde, 0xed, 0xba, 0xad, 0xd6, 0x86, 0xbd, 0x97, 0xd4, 0x8c, 0xbe,
  0xe4, 0xa5, 0x9d, 0xbb, 0x72, 0x43, 0x0f, 0x3c, 0x3d, 0xe3, 0x53, 0x3c,
  0x29, 0xa1, 0x03, 0xbe, 0xd4, 0x88, 0xda, 0x3c, 0x8d, 0xc9, 0x4a, 0xbc,
  0x99, 0x65, 0x00, 0xbd, 0x11, 0xc9, 0x29, 0x3f, 0xea, 0xe2, 0x4d, 0xbc,
  0x69, 0x1e, 0x59, 0x3b, 0x03, 0xa4, 0x2c, 0x3d, 0xb0, 0xb2, 0xcb, 0xbd,
  0xaa, 0x0f, 0x77, 0xbc, 0xd2, 0xe9, 0x5a, 0x3d, 0x3f, 0xd4, 0x9d, 0xbd,
  0xd0, 0xdc, 0xf3, 0x3e, 0x47, 0x8e, 0x9b, 0x3d, 0xa6, 0x6a, 0x21, 0xbe,
  0xf9, 0xc8, 0x27, 0xbe, 0x69, 0x88, 0x62, 0xbe, 0x67, 0x39, 0xc2, 0x3e,
  0x00, 0x22, 0xa6, 0xbd, 0x33, 0xbc, 0x7f, 0xbd, 0x68, 0xd9, 0x6a, 0xbd,
  0xa2, 0x96, 0xfb, 0xbc, 0xd9, 0x9c, 0x78, 0xbe, 0x5a, 0x8a, 0x60, 0xbe,
  0xe7, 0x01, 0xfb, 0x3d, 0x43, 0xde, 0xd5, 0xbd, 0xf5, 0xd8, 0x89, 0xbe,
  0x2e, 0x54, 0xb7, 0xbc, 0x0f, 0x49, 0x33, 0x3e, 0xa9, 0x43, 0xa9, 0xbc,
  0x1d, 0xff, 0xb2, 0xbc, 0x80, 0xe5, 0xd7, 0xbd, 0x9d, 0xf2, 0x88, 0xbd,
  0x47, 0x38, 0xa2, 0xbe, 0xc0, 0x50, 0xb3, 0xbe, 0x43, 0x31, 0xe8, 0xbc,
  0x01, 0xcc, 0x3b, 0x3e, 0x96, 0xed, 0xb3, 0xbb, 0x56, 0x77, 0x05, 0x3e,
  0x94, 0x88, 0x2a, 0x3c, 0x40, 0xdd, 0x5c, 0xbc, 0x35, 0x24, 0x9d, 0xbe,
  0xaa, 0x04, 0x05, 0xbe, 0xe2, 0x52, 0x42, 0x3f, 0x19, 0x6f, 0xf4, 0xbd,
  0x0f, 0x2c, 0x94, 0xbd, 0x4d, 0xd9, 0x4f, 0xbc, 0xc4, 0x3e, 0x91, 0x3d,
  0x51, 0x69, 0x2d, 0xbd, 0x01, 0x99, 0xb2, 0xbd, 0xf5, 0x5d, 0x57, 0xbd,
  0xcd, 0xb7, 0x80, 0xbe, 0x59, 0xb2, 0x39, 0xbc, 0x74, 0x48, 0x82, 0xbd,
  0xf1, 0xe8, 0x59, 0x3e, 0xc2, 0x5e, 0x1b, 0xbe, 0xb1, 0x75, 0x83, 0xbd,
  0x10, 0x93, 0x9c, 0xbc, 0x76, 0xbc, 0x3e, 0xbd, 0x5c, 0xfb, 0x74, 0xbe,
  0x4e, 0xa2, 0xcb, 0xbc, 0x05, 0x43, 0x69, 0xbd, 0x86, 0xf1, 0x1f, 0x3d,
  0x1d, 0x0b, 0x10, 0x3e, 0x40, 0xb5, 0x02, 0x3e, 0x4c, 0xea, 0x1c, 0xbd,
  0xb7, 0x7a, 0x41, 0x3c, 0x09, 0xdc, 0x1e, 0x3d, 0xb5, 0x4d, 0xb0, 0x3d,
  0xc6, 0xff, 0x4f, 0xbc, 0x01, 0xc7, 0xf0, 0x3c, 0x4b, 0x07, 0x07, 0xbe,
  0x11, 0xb7, 0xa7, 0x3d, 0xf1, 0xac, 0x36, 0xbc, 0xd3, 0xef, 0xb8, 0x3c,
  0x20, 0xe4, 0x89, 0xbb, 0x1e, 0x24, 0x48, 0x3c, 0x6b, 0x02, 0x48, 0xbc,
  0xdf, 0x43, 0x3f, 0xbe, 0x91, 0x2d, 0x35, 0xbc, 0x13, 0xe4, 0x8a, 0x3d,
  0x6c, 0xde, 0xcb, 0x3e, 0xb5, 0x92, 0x90, 0xbd, 0x49, 0xbd, 0x1d, 0xbe,
  0x71, 0x6f, 0x03, 0xbe, 0x38, 0xfc, 0x28, 0xbd, 0x69, 0x79, 0x62, 0xbe,
  0xe5, 0xd5, 0xa5, 0x3d, 0xfa, 0x75, 0x93, 0x3c, 0xd9, 0xf3, 0xfa, 0xbd,
  0x0b, 0x74, 0x4a, 0xbd, 0x9b, 0x08, 0x60, 0xbe, 0x45, 0xd4, 0x61, 0x3d,
  0x45, 0x4a, 0xfd, 0xbd, 0x18, 0x07, 0x3a, 0xbe, 0x8e, 0xff, 0x8d, 0x3d,
  0xbf, 0x9f, 0x6a, 0xbe, 0x42, 0xd8, 0x8b, 0xbd, 0xb8, 0x89, 0xb4, 0xbd,
  0xdc, 0x88, 0x21, 0xbe, 0x57, 0x56, 0x80, 0x3e, 0xf9, 0x8b, 0x29, 0xbe,
  0xa4, 0xf5, 0x9e, 0x3c, 0x3f, 0xcb, 0x02, 0xbd, 0x9b, 0x6b, 0x50, 0xbe,
  0xd9, 0xb3, 0xe4, 0xbd, 0x66, 0xa4, 0x3e, 0x3d, 0x65, 0x2c, 0x6c, 0xbe,
  0xc0, 0x19, 0x9c, 0xbe, 0x53, 0x8c, 0x72, 0xbd, 0x2a, 0xf5, 0x76, 0xbe,
  0x83, 0x20, 0x8b, 0xbe, 0x24, 0x7e, 0xef, 0xbd, 0x67, 0xe5, 0x65, 0xbc,
  0x2e, 0xfb, 0x85, 0x3d, 0x09, 0x0f, 0x11, 0xbe, 0xbf, 0xd1, 0x57, 0x3d,
  0x3a, 0x6b, 0x85, 0x3d, 0xc0, 0x1e, 0x82, 0x3d, 0x43, 0x44, 0xf5, 0x3d,
  0x5e, 0x20, 0xc8, 0xbd, 0x59, 0xf0, 0x33, 0x3e, 0xa0, 0x7f, 0xe0, 0xbd,
  0xba, 0x0a, 0x0d, 0x3e, 0xd6, 0x13, 0xa3, 0xbe, 0x25, 0xa8, 0x8f, 0x3d,
  0xf8, 0x4b, 0xb4, 0xbe, 0xf7, 0xba, 0x94, 0xbe, 0xf1, 0xec, 0x68, 0xbe,
  0x8d, 0xf2, 0x3a, 0xbe, 0xe8, 0x61, 0x66, 0xbd, 0x1d, 0xb5, 0x41, 0xbe,
  0x55, 0x62, 0x1c, 0xbe, 0x5b, 0xb0, 0x55, 0x3e, 0x26, 0x91, 0x4d, 0xbe,
  0xf0, 0x4f, 0x80, 0xbe, 0x00, 0x14, 0x7f, 0x3e, 0xfe, 0xae, 0x67, 0x3d,
  0x27, 0x27, 0xf5, 0xbd, 0x2c, 0x24, 0x67, 0x3e, 0x0c, 0xd2, 0xd3, 0x3d,
  0xc8, 0xcb, 0x04, 0xbf, 0xf7, 0xd0, 0xa7, 0xbd, 0x28, 0xe9, 0x0a, 0x3e,
  0x66, 0xf4, 0x01, 0x3e, 0x2c, 0xba, 0xaf, 0xbd, 0x6e, 0x75, 0x25, 0xbe,
  0xc0, 0x19, 0x1d, 0x3e, 0x4d, 0x1c, 0x9d, 0x3d, 0x1d, 0x42, 0x1e, 0xbf,
  0xb5, 0x47, 0xcc, 0xbd, 0x3b, 0x0b, 0xf4, 0x3e, 0xf5, 0xb6, 0x93, 0x3d,
  0xbf, 0x2d, 0xf7, 0xbd, 0x64, 0x45, 0x45, 0xbe, 0x73, 0x07, 0x0c, 0x3d,
  0xc0, 0x91, 0xb1, 0x3d, 0x29, 0xe7, 0xde, 0xbe, 0xcf, 0xdc, 0xa3, 0x3d,
  0xfe, 0xac, 0xb0, 0xbd, 0x31, 0x49, 0x9d, 0x3e, 0xc7, 0xb3, 0xd6, 0xbd,
  0x14, 0x9a, 0x0f, 0xbe, 0x79, 0xfd, 0xe4, 0x3e, 0x52, 0xf3, 0x0d, 0x3e,
  0x6e, 0xd0, 0xba, 0xbe, 0xf4, 0x76, 0xac, 0xbc, 0xe7, 0x31, 0x0d, 0x3d,
  0xad, 0x01, 0xae, 0xbb, 0x34, 0x37, 0xa7, 0xbd, 0x5a, 0x05, 0x9c, 0x3d,
  0x9d, 0x63, 0x95, 0x3d, 0xe3, 0x14, 0x84, 0x3e, 0x29, 0xf9, 0x98, 0x3d,
  0xc8, 0x72, 0x44, 0xbd, 0xd6, 0x23, 0x38, 0x3e, 0x73, 0x9b, 0x84, 0xbe,
  0xf7, 0xd3, 0xc3, 0xbc, 0x10, 0x0e, 0x0d, 0xbf, 0x21, 0xc0, 0x83, 0xbc,
  0x63, 0x33, 0xb4, 0xbe, 0x36, 0x5c, 0x8c, 0x3c, 0xc4, 0x43, 0x21, 0x3e,
  0x29, 0xa3, 0x7d, 0xbd, 0xad, 0x76, 0x7b, 0xbe, 0xe2, 0xf5, 0x1d, 0xbf,
  0x89, 0xc1, 0xf9, 0xbe, 0x3d, 0x47, 0x8c, 0xbd, 0xed, 0x5b, 0x6b, 0xbe,
  0x41, 0xa6, 0xd8, 0xbc, 0xca, 0x0a, 0x3b, 0xbe, 0x71, 0x0c, 0x59, 0x3e,
  0x7c, 0x23, 0x1f, 0x3e, 0xa7, 0x55, 0xb8, 0xbe, 0x27, 0x7e, 0x8e, 0xbe,
  0x68, 0x60, 0x58, 0x3e, 0x80, 0x1f, 0xc7, 0xbd, 0xed, 0x73, 0xc8, 0xbc,
  0xce, 0xc0, 0x50, 0xbe, 0x82, 0x66, 0x9a, 0xbc, 0xa7, 0xcb, 0xdc, 0xbe,
  0x51, 0xe5, 0xf2, 0xbe, 0xb5, 0x8c, 0x68, 0xbe, 0x9c, 0xa5, 0x9f, 0xbe,
  0x82, 0x0f, 0x20, 0x3f, 0x34, 0x87, 0x87, 0xbc, 0xdf, 0x32, 0xf2, 0xbc,
  0xe1, 0xde, 0xcb, 0xbd, 0x73, 0xff, 0x09, 0xbf, 0xa3, 0x1a, 0x32, 0xbe,
  0xfc, 0x5b, 0xb2, 0xbe, 0xb0, 0xa6, 0xb3, 0x3c, 0xdb, 0xb6, 0xd0, 0x3d,
  0xa6, 0xae, 0x79, 0x3b, 0x36, 0x51, 0x4d, 0xbc, 0xd1, 0x6c, 0x9a, 0x3e,
  0x6c, 0x58, 0xcd, 0xb8, 0xb5, 0xe9, 0xac, 0xbe, 0xab, 0x1d, 0x5b, 0xbf,
  0x01, 0xa4, 0x14, 0x3d, 0xfe, 0xb8, 0xd0, 0x3d, 0x47, 0xe2, 0xb0, 0xbc,
  0x86, 0x81, 0x4b, 0x3d, 0xcf, 0x42, 0x74, 0x3e, 0xfe, 0x93, 0x72, 0xbe,
  0x47, 0x8c, 0x00, 0xbf, 0x92, 0xda, 0xc8, 0xbe, 0x8e, 0x14, 0xb5, 0xbe,
  0x02, 0xe0, 0x45, 0xbd, 0x4b, 0x1f, 0x6e, 0xbd, 0x0a, 0x83, 0xbb, 0xbc,
  0xbe, 0xdf, 0x7e, 0xbe, 0x81, 0xb6, 0xdc, 0xbe, 0xa1, 0xad, 0x60, 0xbe,
  0x25, 0x5e, 0x27, 0xbf, 0x02, 0xbb, 0x0c, 0xbf, 0x06, 0x20, 0x00, 0xbf,
  0xab, 0x1a, 0x33, 0xbf, 0x9c, 0x99, 0xf3, 0xbe, 0xcf, 0xcc, 0xe2, 0xbe,
  0xe3, 0x1b, 0x71, 0xbe, 0x64, 0x67, 0xa4, 0xbe, 0xa8, 0x59, 0x0f, 0x3d,
  0x8f, 0x6e, 0xc5, 0xbd, 0xd0, 0x76, 0x93, 0xbe, 0xea, 0xcb, 0x9f, 0x3b,
  0xff, 0x4e, 0x20, 0xbd, 0x28, 0x4d, 0x3b, 0x3e, 0xc6, 0xce, 0xf5, 0xbd,
  0x20, 0x90, 0x7f, 0x3d, 0x47, 0xc8, 0xcb, 0xbe, 0x4d, 0xb9, 0x37, 0xbd,
  0xc7, 0x7d, 0xa6, 0xbd, 0x53, 0xbc, 0xec, 0xbc, 0x8c, 0xf8, 0x14, 0xbc,
  0x1b, 0x4a, 0x2a, 0xbd, 0x55, 0xf2, 0x92, 0xbd, 0xf8, 0x57, 0xce, 0xbe,
  0xd7, 0xfb, 0x70, 0xbe, 0xc7, 0x22, 0x9e, 0xbd, 0x1d, 0xba, 0x79, 0x3e,
  0xb8, 0x68, 0x82, 0xbc, 0xd0, 0x46, 0x99, 0xbd, 0xb2, 0x16, 0xce, 0xbd,
  0x6b, 0xff, 0x1e, 0x3d, 0xa9, 0x44, 0xc2, 0xbe, 0x74, 0x25, 0x18, 0xbe,
  0x6b, 0x39, 0x0a, 0xbf, 0xc5, 0x54, 0x93, 0xbe, 0xb3, 0x7b, 0xe5, 0xbe,
  0xc4, 0xc8, 0x1a, 0xbf, 0x2e, 0x78, 0x90, 0xbe, 0x2b, 0x98, 0x21, 0xbf,
  0xa0, 0xe7, 0x0d, 0xbe, 0x21, 0x3c, 0xcc, 0xbc, 0xf0, 0x43, 0x5d, 0xbd,
  0x69, 0x4d, 0x6c, 0x3d, 0x7a, 0xc0, 0x0c, 0xbb, 0x34, 0x50, 0xa6, 0xbc,
  0x1b, 0x0b, 0xa9, 0xbc, 0x8a, 0xdc, 0xa3, 0x3c, 0x37, 0xa2, 0x26, 0x3d,
  0x37, 0x7e, 0xe9, 0xbb, 0x52, 0x4e, 0x25, 0xbe, 0xdb, 0x0b, 0x35, 0x3f,
  0xbf, 0x04, 0x19, 0x3d, 0x51, 0x89, 0x6c, 0xbe, 0x64, 0x48, 0xa6, 0x3e,
  0xd6, 0x61, 0x45, 0xbc, 0x18, 0x1b, 0xfb, 0x3c, 0x79, 0xcc, 0x4b, 0xbd,
  0x37, 0xa3, 0x51, 0xbe, 0x3e, 0x5f, 0x7d, 0x3d, 0xd1, 0x00, 0x34, 0xbc,
  0x66, 0x48, 0x06, 0xbe, 0xe6, 0x88, 0x8f, 0x3c, 0x21, 0x6a, 0x4b, 0xbe,
  0xa2, 0xf9, 0x85, 0xbd, 0xec, 0x75, 0x8d, 0xbe, 0x88, 0xbe, 0xd3, 0xbe,
  0x7e, 0xc8, 0x0a, 0x3e, 0x8d, 0x48, 0x2c, 0xbe, 0x2e, 0x70, 0xef, 0xbd,
  0x8c, 0x43, 0x6e, 0x3e, 0x00, 0x90, 0xf7, 0xbe, 0x49, 0x0f, 0x02, 0xbe,
  0x4b, 0x8c, 0x76, 0xbf, 0x52, 0x11, 0x09, 0x3e, 0xb4, 0xc6, 0xb1, 0xbd,
  0xbb, 0x53, 0x29, 0xbf, 0xb2, 0xaf, 0x32, 0xbe, 0x20, 0xf3, 0xdc, 0x3e,
  0x97, 0xec, 0xa2, 0x3d, 0x25, 0x83, 0x30, 0xbf, 0x20, 0x66, 0xea, 0xbd,
  0xda, 0x44, 0xab, 0x3e, 0x20, 0xc5, 0xc1, 0x3d, 0x5a, 0xe9, 0x45, 0xbe,
  0x58, 0xc8, 0x5f, 0x3d, 0x28, 0x36, 0xe9, 0xbe, 0x1e, 0x63, 0x95, 0x3d,
  0xd7, 0x6a, 0x41, 0x3d, 0xdc, 0x51, 0xa7, 0x3d, 0xf5, 0xac, 0xf1, 0x3d,
  0xe3, 0xdc, 0xe4, 0xbd, 0x69, 0x35, 0x07, 0x3d, 0x3b, 0x73, 0xaf, 0x3d,
  0x3b, 0x36, 0x39, 0xbc, 0x4a, 0x5e, 0x8c, 0x3d, 0x7f, 0xe0, 0xb5, 0x3d,
  0xbb, 0xdb, 0xae, 0xbd, 0xab, 0xf4, 0x07, 0xbe, 0xf2, 0x00, 0xe6, 0xbc,
  0x74, 0xd5, 0x1f, 0xbd, 0x8c, 0x3c, 0xb8, 0xbd, 0xcd, 0x97, 0xfe, 0xbd,
  0xe7, 0xb0, 0x86, 0xbe, 0x4c, 0x7e, 0x91, 0xbd, 0xa5, 0xa3, 0xa0, 0xbd,
  0xb3, 0x0e, 0x12, 0xbe, 0x23, 0xc4, 0x89, 0xbd, 0xd3, 0xe1, 0x44, 0xbd,
  0x17, 0x0b, 0x30, 0xbe, 0xfb, 0xb8, 0x62, 0x3e, 0x59, 0xc3, 0x31, 0xbe,
  0xce, 0xa3, 0xe2, 0xbd, 0xeb, 0xff, 0x25, 0xbd, 0x52, 0x20, 0x4b, 0x3d,
  0x5c, 0xbd, 0xfa, 0x3c, 0x04, 0xc6, 0xbe, 0xbc, 0x1f, 0x99, 0x29, 0x3c,
  0xb5, 0x11, 0x45, 0xbe, 0x8f, 0x9d, 0x4c, 0x3e, 0xf4, 0x13, 0x9d, 0xbd,
  0xf6, 0xbb, 0x4e, 0x3e, 0x2f, 0xb2, 0x54, 0x3c, 0x44, 0x8e, 0xeb, 0x3d,
  0x1e, 0xf3, 0x05, 0x3e, 0x2a, 0xa2, 0x69, 0xbd, 0x49, 0x24, 0x2e, 0xbd,
  0x71, 0xfd, 0xe8, 0x3e, 0x42, 0x1a, 0xc7, 0x3d, 0x0b, 0x3b, 0x9e, 0xbd,
  0x3d, 0x5f, 0x94, 0xbe, 0x83, 0x27, 0xa6, 0x3e, 0x8e, 0x68, 0x2b, 0xbc,
  0x69, 0xb6, 0x6c, 0xbd, 0x1c, 0x43, 0x20, 0x3d, 0xda, 0x56, 0x9f, 0xbe,
  0x9e, 0xbe, 0x03, 0xbe, 0xc6, 0x84, 0x8b, 0xbe, 0xd3, 0xa7, 0x1b, 0xbd,
  0xd7, 0xb3, 0xba, 0xbd, 0x43, 0x33, 0x0c, 0xbd, 0xa9, 0x1f, 0x98, 0xbd,
  0xb8, 0xfe, 0x06, 0xbe, 0x1e, 0xc2, 0x12, 0xbe, 0x98, 0x80, 0x5b, 0xbe,
  0xb3, 0x79, 0x72, 0xbd, 0xd9, 0x94, 0xbe, 0xbc, 0xf9, 0x26, 0xf4, 0xbd,
  0x82, 0x0e, 0xf1, 0xbc, 0x96, 0x06, 0xe3, 0x3d, 0x07, 0xe6, 0x36, 0xbe,
  0x14, 0x90, 0xcb, 0xbe, 0x52, 0xe1, 0xa6, 0xbc, 0x30, 0x06, 0xc5, 0x3d,
  0x70, 0x8d, 0xc5, 0xbc, 0xe3, 0x9d, 0x76, 0xbd, 0x41, 0x27, 0x23, 0x3d,
  0xe0, 0xe7, 0xf9, 0xbd, 0xe4, 0x4d, 0x81, 0x3d, 0x41, 0xb3, 0x28, 0x3f,
  0x2c, 0xfb, 0x07, 0x3e, 0x64, 0xe4, 0x65, 0x3d, 0xaf, 0x9f, 0x17, 0xbd,
  0x62, 0x64, 0xec, 0xbc, 0xc9, 0xc8, 0x17, 0x3d, 0x4d, 0x23, 0xdf, 0xbd,
  0x54, 0x1e, 0x8f, 0x3e, 0xf9, 0x8f, 0xf6, 0x3d, 0x3c, 0xad, 0xc0, 0x3e,
  0xb9, 0x3a, 0x23, 0x3c, 0x5b, 0x25, 0xe0, 0xbd, 0xd6, 0xf5, 0x27, 0x3e,
  0xdb, 0xb1, 0xb6, 0xbc, 0x48, 0xb1, 0x59, 0xbd, 0x67, 0x40, 0xf6, 0x3d,
  0x7e, 0x96, 0x0f, 0xbe, 0x49, 0xd2, 0xa1, 0xbc, 0x48, 0xc5, 0xab, 0xbd,
  0xf7, 0xca, 0x8b, 0xbe, 0x62, 0xa9, 0x7c, 0x3e, 0x57, 0x41, 0xbe, 0xbd,
  0xae, 0xb7, 0xa5, 0xbd, 0x03, 0xac, 0x59, 0xbd, 0x56, 0xc3, 0xa7, 0xbe,
  0xe3, 0xe9, 0xe6, 0xbd, 0x0a, 0xdb, 0x06, 0xbe, 0x86, 0x9a, 0x5f, 0xbe,
  0x85, 0x67, 0xeb, 0x3d, 0xa8, 0x46, 0xd6, 0xbd, 0x55, 0x8f, 0x6d, 0x3c,
  0x8e, 0x59, 0xa8, 0xbd, 0x0f, 0xce, 0xb5, 0xbe, 0x03, 0xf6, 0x05, 0xbe,
  0xc6, 0xde, 0xff, 0xff, 0x10, 0x00, 0x00, 0x00, 0x08, 0x00, 0x00, 0x00,
  0x1c, 0x00, 0x00, 0x00, 0x38, 0x00, 0x00, 0x00, 0x04, 0x00, 0x00, 0x00,
  0x10, 0x00, 0x00, 0x00, 0x04, 0x00, 0x00, 0x00, 0x01, 0x00, 0x00, 0x00,
  0x08, 0x00, 0x00, 0x00, 0x1a, 0x00, 0x00, 0x00, 0x73, 0x65, 0x71, 0x75,
  0x65, 0x6e, 0x74, 0x69, 0x61, 0x6c, 0x2f, 0x63, 0x6f, 0x6e, 0x76, 0x32,
  0x64, 0x5f, 0x31, 0x2f, 0x43, 0x6f, 0x6e, 0x76, 0x32, 0x44, 0x00, 0x00,
  0xc0, 0xde, 0xff, 0xff, 0xb6, 0xdf, 0xff, 0xff, 0x04, 0x00, 0x00, 0x00,
  0x80, 0x01, 0x00, 0x00, 0x92, 0xc8, 0x28, 0x3e, 0x33, 0x76, 0xaf, 0xbe,
  0x4e, 0x94, 0xc6, 0xbd, 0x66, 0x4c, 0x0b, 0xbe, 0x88, 0x7e, 0x64, 0x3a,
  0x0d, 0x0b, 0x0a, 0x3e, 0x35, 0x7e, 0xb8, 0xbc, 0x12, 0x97, 0x30, 0xbd,
  0x01, 0x43, 0xb5, 0xbd, 0x74, 0xf1, 0xed, 0xbd, 0xc6, 0xc7, 0x65, 0x3b,
  0xb3, 0x38, 0x13, 0x3d, 0x30, 0x9c, 0xfa, 0xbd, 0x29, 0xaa, 0x9e, 0x3e,
  0x61, 0xfc, 0xaa, 0xbd, 0x8b, 0xe2, 0x22, 0x3e, 0xfa, 0x0a, 0x69, 0xbe,
  0x20, 0x62, 0xde, 0x3e, 0x4a, 0x76, 0xcc, 0xbb, 0xe6, 0x1d, 0xfe, 0xbc,
  0xcb, 0xc8, 0x1b, 0xbe, 0xba, 0x2b, 0xc3, 0xbd, 0x1e, 0x40, 0xef, 0xbd,
  0xc1, 0x7d, 0x94, 0xbe, 0x0f, 0xa4, 0x85, 0x3e, 0x08, 0x48, 0x2f, 0xbe,
  0x08, 0xb0, 0xa7, 0x3d, 0x43, 0xfa, 0x60, 0x3d, 0xe2, 0x98, 0xed, 0xbe,
  0x0d, 0x1a, 0x73, 0x3d, 0x5d, 0x59, 0xa1, 0xbe, 0x78, 0x9b, 0x4f, 0x3e,
  0x54, 0x02, 0x09, 0xbe, 0xff, 0x73, 0xa0, 0xbd, 0x38, 0xcb, 0xbd, 0x3e,
  0x52, 0xb5, 0x16, 0xbd, 0x8f, 0xc2, 0xc6, 0xbc, 0x08, 0x80, 0xba, 0xbd,
  0xe6, 0x6c, 0x83, 0x3d, 0x2a, 0x7e, 0x72, 0xbd, 0xdd, 0x87, 0x0b, 0x3d,
  0xc9, 0x27, 0x49, 0x3d, 0x07, 0xa6, 0x72, 0xbd, 0x42, 0x1e, 0x63, 0x3d,
  0x04, 0xf5, 0xf2, 0xbb, 0x84, 0x96, 0x9e, 0xbd, 0xce, 0xa1, 0x57, 0x3d,
  0x31, 0x8c, 0x5e, 0x3c, 0xe3, 0x40, 0x47, 0x3e, 0x56, 0x14, 0x69, 0x3d,
  0x9d, 0xdf, 0x9a, 0x3e, 0x3b, 0x92, 0xe5, 0x3b, 0xda, 0x72, 0x1c, 0xbe,
  0x27, 0xe9, 0x06, 0xbe, 0x24, 0x1b, 0xa2, 0x3e, 0x27, 0x56, 0xf6, 0xbd,
  0x4a, 0x0c, 0x0f, 0xbe, 0x42, 0x48, 0x1d, 0xbe, 0x3e, 0x7d, 0x13, 0x3e,
  0xea, 0xc4, 0x12, 0xbe, 0xb3, 0xe9, 0xf4, 0x3b, 0x2c, 0x2a, 0x18, 0xbe,
  0xf6, 0xea, 0x29, 0xbe, 0xa4, 0x15, 0x82, 0xbe, 0x2a, 0xc5, 0x58, 0xbe,
  0x05, 0xa9, 0xdf, 0xbe, 0xa5, 0x58, 0x45, 0x3e, 0x65, 0x8d, 0xa9, 0x3e,
  0x42, 0x26, 0x7c, 0x3e, 0x8a, 0x6b, 0xa1, 0x3d, 0x7d, 0xdc, 0x9d, 0xbc,
  0x86, 0xca, 0x87, 0x3e, 0x0b, 0x95, 0x99, 0x3e, 0x31, 0x0d, 0xc1, 0x3e,
  0x4e, 0xea, 0x39, 0x3d, 0x99, 0x3d, 0x86, 0x3c, 0xa9, 0x57, 0x80, 0x3d,
  0x2e, 0xb6, 0x70, 0xbc, 0x21, 0x74, 0x9a, 0xbe, 0x23, 0x05, 0xed, 0xbe,
  0xd7, 0xcc, 0xf8, 0xbd, 0xf2, 0x17, 0xd9, 0xbd, 0x8b, 0x79, 0x93, 0xbd,
  0x07, 0xeb, 0xa5, 0x3b, 0x2e, 0x8e, 0x5b, 0x3e, 0xad, 0xb3, 0x84, 0xbe,
  0xa6, 0x05, 0x43, 0xbd, 0x73, 0x14, 0x11, 0x3d, 0x8f, 0xf9, 0x25, 0xbe,
  0xfd, 0xab, 0xe4, 0x3d, 0x53, 0xab, 0x61, 0xbe, 0x50, 0x60, 0xf7, 0xbb,
  0xb4, 0xc0, 0x8d, 0xbd, 0x68, 0xcb, 0x12, 0xbe, 0xbf, 0xe5, 0xff, 0x3d,
  0x40, 0xf4, 0xf4, 0xbb, 0x9e, 0xe0, 0xff, 0xff, 0x10, 0x00, 0x00, 0x00,
  0x07, 0x00, 0x00, 0x00, 0x1c, 0x00, 0x00, 0x00, 0x38, 0x00, 0x00, 0x00,
  0x04, 0x00, 0x00, 0x00, 0x08, 0x00, 0x00, 0x00, 0x04, 0x00, 0x00, 0x00,
  0x03, 0x00, 0x00, 0x00, 0x01, 0x00, 0x00, 0x00, 0x18, 0x00, 0x00, 0x00,
  0x73, 0x65, 0x71, 0x75, 0x65, 0x6e, 0x74, 0x69, 0x61, 0x6c, 0x2f, 0x63,
  0x6f, 0x6e, 0x76, 0x32, 0x64, 0x2f, 0x43, 0x6f, 0x6e, 0x76, 0x32, 0x44,
  0x00, 0x00, 0x00, 0x00, 0x98, 0xe0, 0xff, 0xff, 0x8e, 0xe1, 0xff, 0xff,
  0x04, 0x00, 0x00, 0x00, 0x00, 0x01, 0x00, 0x00, 0x7f, 0x98, 0xae, 0x3e,
  0x6c, 0x38, 0x80, 0xbc, 0xb8, 0x8b, 0x18, 0x3e, 0x3d, 0xb1, 0x9b, 0xbe,
  0xf2, 0xd7, 0x9a, 0x3d, 0x8e, 0x9a, 0x83, 0xbe, 0x35, 0xb2, 0xb1, 0xbe,
  0x4a, 0x8c, 0x0f, 0x3e, 0x44, 0xdc, 0x8c, 0xbe, 0x10, 0x88, 0x9a, 0x3e,
  0x22, 0x69, 0xdd, 0x3c, 0xc9, 0xc5, 0x87, 0x3e, 0xff, 0x8c, 0x9a, 0x3e,
  0x63, 0x1f, 0x35, 0x3e, 0xa4, 0xef, 0x4b, 0x3e, 0x4c, 0xef, 0x2c, 0xbe,
  0x4d, 0x22, 0xc8, 0x3e, 0xcb, 0xb2, 0x27, 0x3d, 0x0c, 0xc8, 0x65, 0x3e,
  0x49, 0xff, 0xa4, 0xbe, 0x64, 0xe3, 0xcf, 0xbf, 0x86, 0xcd, 0x6f, 0xbe,
  0xef, 0x9c, 0x86, 0xbe, 0x64, 0x87, 0xd2, 0x3d, 0x3a, 0x63, 0xb3, 0xbd,
  0x2f, 0xcb, 0x73, 0x3e, 0x07, 0x55, 0xc8, 0x3d, 0x85, 0x51, 0x5f, 0x3e,
  0xe0, 0xd1, 0x9c, 0x3e, 0x23, 0xf0, 0x68, 0x3e, 0xba, 0xa6, 0x3a, 0x3e,
  0x79, 0xcd, 0x5a, 0x3a, 0x16, 0x0f, 0xe1, 0x3d, 0xf9, 0x98, 0xc9, 0xbd,
  0xf8, 0xc0, 0x8a, 0xbd, 0x94, 0xb3, 0x2c, 0xbf, 0x2c, 0xdb, 0x10, 0xbf,
  0xe5, 0x71, 0x22, 0x3e, 0x4f, 0x3e, 0xde, 0xbe, 0x30, 0xce, 0x08, 0x3e,
  0xc9, 0x86, 0x21, 0xbe, 0x22, 0x76, 0xe7, 0x3d, 0xeb, 0x3c, 0x8d, 0xbe,
  0xc8, 0x27, 0xe8, 0x3d, 0x3a, 0xe9, 0x95, 0xbe, 0x6f, 0x30, 0x96, 0xbe,
  0x2f, 0x9e, 0x8a, 0x3d, 0x2a, 0x4b, 0x2a, 0x3e, 0xfb, 0x3d, 0x64, 0x3e,
  0xa6, 0xc8, 0x9c, 0xbc, 0x0d, 0xae, 0x0c, 0x3e, 0x02, 0x4b, 0x80, 0xbe,
  0xd3, 0xaa, 0xaf, 0xbe, 0x3c, 0x57, 0xc7, 0x3d, 0x6e, 0x46, 0x5b, 0xbe,
  0xc3, 0x9f, 0xdf, 0xbd, 0x59, 0x68, 0x18, 0x3d, 0x7c, 0xa0, 0x7b, 0x3e,
  0xe5, 0xad, 0x82, 0x3d, 0xb2, 0x22, 0x1c, 0x3e, 0xfb, 0xa1, 0xb4, 0x3e,
  0x96, 0xe2, 0x1c, 0x3e, 0x34, 0xd3, 0xbe, 0x3d, 0x1d, 0xfd, 0x42, 0xbd,
  0xf6, 0xe1, 0xff, 0xff, 0x10, 0x00, 0x00, 0x00, 0x06, 0x00, 0x00, 0x00,
  0x14, 0x00, 0x00, 0x00, 0x30, 0x00, 0x00, 0x00, 0x02, 0x00, 0x00, 0x00,
  0x04, 0x00, 0x00, 0x00, 0x10, 0x00, 0x00, 0x00, 0x19, 0x00, 0x00, 0x00,
  0x73, 0x65, 0x71, 0x75, 0x65, 0x6e, 0x74, 0x69, 0x61, 0x6c, 0x2f, 0x64,
  0x65, 0x6e, 0x73, 0x65, 0x5f, 0x31, 0x2f, 0x4d, 0x61, 0x74, 0x4d, 0x75,
  0x6c, 0x00, 0x00, 0x00, 0xe8, 0xe1, 0xff, 0xff, 0xde, 0xe2, 0xff, 0xff,
  0x04, 0x00, 0x00, 0x00, 0x00, 0x1c, 0x00, 0x00, 0xd2, 0xfe, 0xeb, 0xbe,
  0x8e, 0x89, 0xb4, 0xbe, 0xce, 0xc1, 0xb3, 0xbe, 0x62, 0x94, 0xbb, 0xbe,
  0xf7, 0x28, 0x73, 0xbd, 0x5e, 0xf4, 0x1d, 0xbe, 0x22, 0x1f, 0x58, 0xbf,
  0x5f, 0x2b, 0xf0, 0xbe, 0x8d, 0x73, 0xb6, 0xbe, 0x29, 0x98, 0xb2, 0xbe,
  0x28, 0xa8, 0x10, 0xbe, 0xa5, 0x30, 0x01, 0xbf, 0xb6, 0xd4, 0x2e, 0xbe,
  0x4d, 0x1d, 0x33, 0xbf, 0xed, 0xb0, 0x6b, 0xbe, 0xf5, 0x7d, 0x05, 0xbf,
  0x95, 0x33, 0xcf, 0xbe, 0xef, 0x2b, 0x85, 0xbe, 0x54, 0xd7, 0x9a, 0xbe,
  0x7c, 0x00, 0x5e, 0xbe, 0xa3, 0xdb, 0x29, 0xbd, 0x51, 0x72, 0xbb, 0xbe,
  0x8e, 0xed, 0xe9, 0xbe, 0x1d, 0xf3, 0x05, 0x3e, 0x7c, 0xf5, 0x80, 0x3d,
  0xb1, 0x9c, 0xf5, 0xbd, 0x60, 0xac, 0x51, 0x3c, 0x44, 0x32, 0x70, 0xbe,
  0xf5, 0x6f, 0xd0, 0x3b, 0xea, 0x92, 0x86, 0xbe, 0xcb, 0x1f, 0xd4, 0xbd,
  0x36, 0xde, 0xc5, 0xbe, 0x65, 0x9d, 0xc9, 0xbd, 0x28, 0xbe, 0x70, 0xbe,
  0x19, 0xd6, 0xdd, 0xbe, 0x6b, 0x6b, 0xb2, 0xbe, 0xd4, 0x0a, 0x41, 0x3a,
  0xf8, 0x62, 0x3a, 0xbe, 0xb3, 0x72, 0xfb, 0xbe, 0x00, 0x4d, 0x19, 0xbe,
  0x67, 0xf3, 0x6c, 0x3c, 0x7e, 0xee, 0x24, 0x3d, 0xfb, 0x9f, 0x99, 0xbe,
  0x28, 0x07, 0x07, 0xbe, 0x27, 0x63, 0xc6, 0x3d, 0x0c, 0x78, 0x55, 0xbe,
  0xcc, 0x98, 0x84, 0xbe, 0xb0, 0x24, 0xbb, 0xbe, 0xdb, 0x61, 0xdd, 0xbe,
  0x05, 0x46, 0x33, 0xbe, 0xce, 0x79, 0x06, 0xbf, 0x75, 0x7d, 0x11, 0xbf,
  0x1a, 0x03, 0x9e, 0x3b, 0xb7, 0x1f, 0xa0, 0xbe, 0x88, 0x79, 0xc7, 0xbe,
  0x9b, 0x72, 0xb1, 0xbe, 0x96, 0xd1, 0x49, 0xbe, 0xae, 0xdf, 0xba, 0x3b,
  0x5c, 0x5d, 0x5d, 0xbe, 0x05, 0x4e, 0x45, 0xbe, 0xad, 0x4a, 0x60, 0xbe,
  0x3d, 0xb5, 0x3a, 0xbf, 0x6c, 0x20, 0x8d, 0xbe, 0x8a, 0x4f, 0x92, 0xbe,
  0xf7, 0xdd, 0x52, 0xbe, 0x12, 0x96, 0x92, 0x3e, 0xdb, 0x99, 0x9a, 0x3d,
  0xcb, 0xbf, 0x24, 0xbe, 0x83, 0x37, 0x62, 0xbd, 0xca, 0x2a, 0xdb, 0xbd,
  0xce, 0x41, 0xd5, 0xbe, 0x32, 0x43, 0x1a, 0xbe, 0x97, 0x55, 0xa7, 0xbe,
  0xb9, 0xfe, 0x3b, 0xbe, 0x73, 0xa9, 0xe0, 0x3d, 0x98, 0x2f, 0xc3, 0x3e,
  0xec, 0xc4, 0x49, 0x3e, 0x38, 0x0e, 0xac, 0xbd, 0xa2, 0x96, 0x33, 0xbe,
  0xbb, 0x2e, 0xdb, 0xbe, 0xb5, 0xfc, 0x63, 0xbd, 0x27, 0x03, 0x0e, 0x3e,
  0x88, 0x75, 0x07, 0x3d, 0x81, 0x35, 0x2e, 0xbe, 0xb4, 0xc1, 0x41, 0xbc,
  0x27, 0xd5, 0x5e, 0xbe, 0xe8, 0x26, 0x14, 0xbe, 0x87, 0xf7, 0xda, 0x3c,
  0x90, 0x13, 0x8c, 0xbe, 0xb7, 0x27, 0xc5, 0xbe, 0x30, 0xc9, 0xbc, 0x3d,
  0x49, 0x4d, 0x37, 0xbe, 0x0d, 0xff, 0xa2, 0x3e, 0x0e, 0x99, 0x9d, 0x3d,
  0x49, 0x46, 0x54, 0x3d, 0x6a, 0x33, 0xf4, 0xbe, 0x1d, 0xb9, 0xd8, 0xbc,
  0x76, 0xb0, 0x33, 0x3e, 0xd2, 0xc0, 0xa4, 0xbc, 0xe1, 0x2f, 0xfa, 0x3c,
  0xed, 0x78, 0xbc, 0x3d, 0x5a, 0x37, 0x91, 0x3c, 0x40, 0x38, 0x17, 0xbe,
  0x19, 0x1f, 0xe5, 0x3d, 0x14, 0x65, 0xa0, 0xbe, 0x69, 0xe3, 0xd0, 0x3d,
  0x93, 0x06, 0x01, 0x3d, 0x24, 0x79, 0xde, 0x3c, 0xc2, 0xbc, 0x45, 0x3e,
  0x48, 0xa0, 0xa1, 0x3d, 0xe2, 0xa6, 0x2c, 0x3e, 0x5e, 0x88, 0x24, 0xbc,
  0xbe, 0xd8, 0x12, 0xbb, 0xbd, 0x3b, 0xb0, 0x3e, 0x3e, 0xf2, 0xeb, 0x3c,
  0x7e, 0x8e, 0xa4, 0x3c, 0x0b, 0x83, 0xde, 0x3d, 0xb3, 0xfc, 0xff, 0xbd,
  0xb7, 0xf5, 0x47, 0xbe, 0x97, 0x61, 0x3a, 0x3e, 0x92, 0x93, 0x4e, 0x3c,
  0x46, 0x4d, 0x8e, 0x3e, 0x47, 0x3c, 0xa0, 0x3c, 0x54, 0xaf, 0xf7, 0x3c,
  0x99, 0x62, 0x36, 0x3e, 0x10, 0xb7, 0xa1, 0x3d, 0xe7, 0x26, 0xba, 0x3d,
  0x89, 0xc4, 0x2f, 0xbd, 0x92, 0x77, 0xa8, 0x3d, 0x82, 0xd7, 0xe8, 0x3c,
  0x03, 0xc1, 0x60, 0x3d, 0x0e, 0x4f, 0x11, 0xbe, 0xe9, 0x14, 0xc4, 0x3d,
  0x77, 0x82, 0xf4, 0xbd, 0x34, 0x2b, 0x36, 0xbe, 0x77, 0xed, 0x9f, 0xbe,
  0x0b, 0x5c, 0xaa, 0xbe, 0xa6, 0xf0, 0x26, 0xbe, 0xb5, 0xaa, 0x7f, 0x3e,
  0x99, 0xf1, 0xcc, 0xba, 0x2b, 0x67, 0x41, 0xbe, 0x74, 0xf3, 0x08, 0xbf,
  0xc8, 0x94, 0xaf, 0xbe, 0x0c, 0xa8, 0xa9, 0x3d, 0x00, 0x4d, 0xbe, 0xbe,
  0xe8, 0xbc, 0x0c, 0xbf, 0x45, 0x77, 0x11, 0xbe, 0xbb, 0xb3, 0x88, 0xbc,
  0x2f, 0x42, 0x11, 0xbe, 0x17, 0xcc, 0x9b, 0x3d, 0xc1, 0xf0, 0x98, 0xbe,
  0x4e, 0x46, 0xe4, 0xbe, 0x40, 0x34, 0xdb, 0xbe, 0xdf, 0xa8, 0x0b, 0x3d,
  0x63, 0x1d, 0xc3, 0x3e, 0x50, 0xf2, 0xc4, 0xbe, 0xd9, 0xf8, 0xfa, 0xbe,
  0x3d, 0x6f, 0x49, 0xbf, 0xcc, 0x75, 0x7a, 0xbe, 0x7e, 0xa9, 0xe2, 0xbd,
  0x83, 0xcb, 0x85, 0xbe, 0xbd, 0x88, 0x60, 0x3e, 0x75, 0x31, 0xad, 0xbd,
  0x31, 0xd6, 0x87, 0xbe, 0x31, 0x71, 0xcc, 0xbd, 0x2c, 0xab, 0x9e, 0xbe,
  0x41, 0x87, 0x8c, 0xbe, 0x09, 0xab, 0x0b, 0xbf, 0xf3, 0x93, 0x0d, 0xbe,
  0x99, 0xab, 0x3b, 0x3e, 0xc2, 0x97, 0xd6, 0x3d, 0xb7, 0x46, 0x8a, 0x3d,
  0x88, 0x78, 0xab, 0xbd, 0x3c, 0xa9, 0x5d, 0xbf, 0x64, 0x31, 0x0c, 0xbf,
  0x72, 0x93, 0xa3, 0xbe, 0xb0, 0x3d, 0xa9, 0xbe, 0xbf, 0x38, 0xd6, 0x3e,
  0x42, 0x4e, 0xab, 0xbd, 0xf1, 0x86, 0x90, 0xbd, 0x4a, 0x3a, 0x88, 0xbd,
  0x67, 0x35, 0x3f, 0xbe, 0x00, 0x08, 0x3b, 0xbe, 0xc2, 0x09, 0xb1, 0x3c,
  0x75, 0x85, 0x30, 0xbe, 0xb2, 0x39, 0x09, 0x3e, 0x45, 0x4f, 0xce, 0x3d,
  0xa9, 0x3f, 0xe1, 0x3d, 0xf1, 0xba, 0x0a, 0x3f, 0x5e, 0x15, 0x31, 0xbd,
  0x2e, 0xe8, 0x06, 0x3d, 0x9c, 0xad, 0xae, 0xbe, 0x22, 0xbf, 0x2b, 0xbe,
  0xa1, 0xff, 0x98, 0x3e, 0x75, 0x62, 0x0d, 0x3d, 0x5a, 0xa9, 0x15, 0xbe,
  0x7e, 0x36, 0x3f, 0xbc, 0xce, 0x4e, 0x02, 0xbe, 0x65, 0x2d, 0x14, 0xbe,
  0x13, 0x41, 0x10, 0x3e, 0x0c, 0x5e, 0x17, 0xbe, 0x94, 0x1d, 0x4e, 0xbe,
  0x1d, 0x9f, 0x7f, 0x3b, 0x87, 0xd2, 0xb7, 0xbe, 0x18, 0xea, 0xc1, 0x3e,
  0x46, 0x2c, 0xb4, 0xbd, 0xf0, 0x0b, 0xce, 0x3c, 0x49, 0xbe, 0xa7, 0xbe,
  0xdb, 0x8b, 0xf3, 0x3c, 0x7b, 0x5f, 0xc6, 0x3e, 0xd5, 0xfc, 0xc2, 0xbc,
  0x91, 0xb5, 0xd4, 0xbd, 0x48, 0xa0, 0xfe, 0x3d, 0x8f, 0x70, 0xfa, 0x3b,
  0xa2, 0x2c, 0x8c, 0xbd, 0xf8, 0xa6, 0x31, 0x3d, 0xb2, 0xdc, 0xf6, 0x3d,
  0x79, 0x5a, 0xe5, 0x3d, 0x19, 0xe5, 0x01, 0xbe, 0x76, 0x3f, 0x1c, 0x3c,
  0x52, 0xcd, 0x5a, 0x3d, 0xa9, 0xa4, 0xdf, 0xbc, 0x6c, 0x6f, 0xcb, 0x3d,
  0xa5, 0xa3, 0x00, 0xbc, 0xb6, 0xb4, 0xd6, 0xbb, 0x15, 0xb3, 0x7e, 0x3e,
  0x57, 0x1d, 0x7b, 0xbd, 0x75, 0xd7, 0xb0, 0x3d, 0x1d, 0xfc, 0x5f, 0x3d,
  0x35, 0x6a, 0x48, 0x3e, 0x34, 0xaa, 0x0a, 0x3e, 0xd5, 0x5b, 0x57, 0x3e,
  0x28, 0x0f, 0x5a, 0x3e, 0x23, 0x3e, 0xc1, 0x3d, 0x8c, 0x45, 0x81, 0x3d,
  0x64, 0xed, 0xf0, 0xbd, 0x4f, 0x17, 0x30, 0x3e, 0x57, 0xbc, 0x07, 0xbc,
  0xe6, 0x67, 0x07, 0x3e, 0x58, 0xc3, 0xe3, 0x3d, 0x21, 0xa1, 0x70, 0x3e,
  0x06, 0x45, 0xb8, 0x3e, 0x03, 0xf8, 0x49, 0xbe, 0x33, 0x86, 0xe1, 0xbd,
  0x0d, 0xa2, 0x3b, 0x3e, 0x0f, 0x9e, 0xa8, 0xbb, 0xd4, 0x3f, 0xf1, 0xbd,
  0xd3, 0xdb, 0xf8, 0xba, 0xd4, 0x54, 0x16, 0xbe, 0x00, 0x1e, 0x7e, 0xbb,
  0x25, 0xa2, 0xa0, 0xbe, 0x61, 0x56, 0x8e, 0x3b, 0x36, 0x68, 0x3c, 0x3d,
  0xc5, 0xd2, 0x56, 0xbc, 0x0c, 0x30, 0xb2, 0xbd, 0x96, 0x62, 0xeb, 0xbc,
  0x30, 0xf7, 0x82, 0xbe, 0x6a, 0x7f, 0x2e, 0xbe, 0xc0, 0xc2, 0x5e, 0xbd,
  0xf1, 0xe0, 0xb6, 0xbe, 0x13, 0xda, 0x80, 0xbd, 0xa1, 0x66, 0xb5, 0x3b,
  0xbe, 0xb5, 0xe5, 0x3c, 0x06, 0x1b, 0x96, 0xbe, 0x1e, 0x2c, 0x4a, 0xbe,
  0xdf, 0x9a, 0x16, 0xbe, 0xa3, 0x10, 0x63, 0xbe, 0xf8, 0xf1, 0x21, 0xbe,
  0x87, 0x99, 0x48, 0x3d, 0x57, 0xca, 0x14, 0xbf, 0x09, 0x5e, 0x4f, 0xbe,
  0x76, 0x7a, 0x11, 0xbe, 0x01, 0x48, 0x5c, 0xbe, 0xa0, 0xcd, 0x80, 0xbe,
  0x61, 0x04, 0x2a, 0x3e, 0xe5, 0x5f, 0xb1, 0xbe, 0x45, 0x40, 0x91, 0xbd,
  0xe0, 0x60, 0xa2, 0xbd, 0x86, 0x71, 0x9c, 0xbd, 0xc8, 0x82, 0x54, 0xbe,
  0x8d, 0xc5, 0xe8, 0xbc, 0xdc, 0x07, 0x8b, 0x3d, 0x87, 0xf5, 0xb6, 0xbe,
  0x6f, 0xf9, 0x16, 0x3d, 0xdd, 0x28, 0x39, 0x3e, 0xc2, 0x73, 0x3a, 0xbe,
  0x75, 0x6f, 0xa0, 0xbe, 0x13, 0x99, 0x15, 0xbf, 0x46, 0xd1, 0xa7, 0xbe,
  0x86, 0xed, 0x70, 0x3d, 0x91, 0xd5, 0xbb, 0x3c, 0x27, 0x33, 0x2c, 0xbe,
  0x43, 0xba, 0x00, 0xbe, 0x8d, 0x99, 0xb4, 0xbc, 0xeb, 0x54, 0x04, 0xbe,
  0x5e, 0xa2, 0x27, 0xbb, 0x6d, 0x47, 0x10, 0xbe, 0xab, 0xde, 0x17, 0xbe,
  0x75, 0x02, 0x9a, 0xbe, 0xb5, 0x23, 0x50, 0x3e, 0x14, 0x23, 0xd0, 0x3d,
  0x48, 0xf9, 0x4c, 0xbe, 0x3e, 0xef, 0x0c, 0xbe, 0xd7, 0xbe, 0x92, 0xbe,
  0xba, 0x9d, 0x81, 0xbe, 0xc9, 0x6b, 0x0b, 0xbe, 0x9e, 0xd5, 0x6b, 0xbe,
  0xca, 0x9a, 0xd1, 0xbe, 0xa7, 0xf4, 0x8a, 0xbd, 0x1e, 0xfe, 0x85, 0xbe,
  0x5c, 0xde, 0xc3, 0xbd, 0xe0, 0x5b, 0xd4, 0x3c, 0x4c, 0xaf, 0x89, 0xbe,
  0x2d, 0xcd, 0xf1, 0x3d, 0x08, 0x3e, 0x2e, 0xbe, 0x4c, 0x98, 0x31, 0x3d,
  0xf0, 0x84, 0x0d, 0xbd, 0x60, 0xb2, 0x82, 0xbe, 0x94, 0x88, 0xc2, 0xbe,
  0x47, 0x9d, 0x13, 0xbe, 0x5b, 0x7c, 0x55, 0xbe, 0xf5, 0x49, 0x21, 0xbe,
  0x18, 0xe6, 0x9e, 0xbd, 0x64, 0x25, 0x61, 0xbe, 0x5a, 0xc1, 0xae, 0xbe,
  0xe0, 0x55, 0x0a, 0x3e, 0xaf, 0xb8, 0x85, 0xbc, 0xb4, 0x60, 0x0c, 0xbe,
  0x74, 0x00, 0xb2, 0xbc, 0x2f, 0x3a, 0xbd, 0xbe, 0x8a, 0xc4, 0x59, 0x3d,
  0x73, 0x18, 0xbf, 0x3d, 0xb0, 0xd4, 0x69, 0xbe, 0x63, 0x87, 0xc5, 0xbe,
  0x73, 0x63, 0xe6, 0xbe, 0x4f, 0x99, 0x0a, 0xbd, 0x2b, 0x36, 0xd8, 0xbd,
  0x8c, 0x96, 0xbf, 0x3d, 0x56, 0x6a, 0xb5, 0x3d, 0xac, 0xfe, 0xd5, 0xbd,
  0xb6, 0x50, 0xcc, 0x3d, 0x7f, 0xbc, 0x48, 0xbe, 0x71, 0x02, 0x17, 0xbd,
  0x8c, 0x1e, 0x56, 0x3c, 0x6a, 0xd6, 0xd2, 0xbd, 0xd4, 0xfe, 0x7c, 0xbd,
  0xef, 0x47, 0x97, 0x3e, 0x6b, 0x49, 0xf4, 0xbd, 0x90, 0x6a, 0x2b, 0xbe,
  0xa8, 0xa2, 0x86, 0xbe, 0x41, 0x2d, 0x7d, 0xbe, 0x9f, 0x7f, 0xab, 0xbe,
  0x63, 0x06, 0x31, 0x3c, 0x78, 0xa6, 0x3e, 0x3e, 0xcb, 0x9d, 0xd0, 0xbd,
  0x90, 0x49, 0x18, 0xbe, 0x86, 0x12, 0xfd, 0x3d, 0x96, 0x4f, 0x9e, 0xbe,
  0x6f, 0xd4, 0x87, 0xbd, 0x86, 0x93, 0x99, 0x3e, 0x26, 0xd0, 0xa8, 0x3d,
  0x51, 0xf4, 0x16, 0xbd, 0x9e, 0x9f, 0x2b, 0x3e, 0xbe, 0x4c, 0x65, 0xbd,
  0x89, 0x3b, 0x90, 0xbe, 0x5a, 0xfc, 0x5b, 0xbc, 0x76, 0xbb, 0xf2, 0xbd,
  0x27, 0xd2, 0xcd, 0xbe, 0x4c, 0xc3, 0x82, 0x3e, 0x4f, 0xd0, 0x03, 0x3e,
  0xad, 0x7c, 0xdf, 0x3d, 0x63, 0x4f, 0x8e, 0xbd, 0xa6, 0x90, 0xda, 0x3d,
  0xf9, 0x23, 0xf3, 0xbd, 0x76, 0xbe, 0x20, 0x3c, 0x37, 0x88, 0x8f, 0x3e,
  0xb3, 0x73, 0xde, 0xbb, 0x34, 0x85, 0xee, 0x3c, 0x1b, 0xef, 0x6b, 0x3e,
  0x3b, 0x20, 0x65, 0xbe, 0x6c, 0x37, 0x8a, 0xbe, 0x81, 0x46, 0x1a, 0x3e,
  0x64, 0x07, 0x07, 0x3d, 0x77, 0x1d, 0xe2, 0xbd, 0x2c, 0xa3, 0xfc, 0x3d,
  0xd4, 0x0d, 0x80, 0xbd, 0xfc, 0x87, 0x2f, 0x3e, 0xc9, 0x50, 0xfd, 0xbd,
  0x26, 0x03, 0x00, 0x3e, 0xb9, 0xb9, 0x0f, 0x3e, 0xf3, 0xcf, 0x9d, 0xbc,
  0x20, 0xa8, 0x62, 0x3e, 0x4e, 0x40, 0x61, 0x3e, 0xd7, 0x4e, 0x3d, 0xbc,
  0x81, 0x9e, 0x4a, 0x3c, 0x69, 0xe6, 0xb8, 0xbd, 0x1c, 0xba, 0xaa, 0x3d,
  0x90, 0xc9, 0x18, 0x3e, 0xaf, 0x3f, 0xe7, 0x3d, 0x71, 0xec, 0xc4, 0x3d,
  0x66, 0x75, 0xa3, 0xbd, 0xcd, 0xee, 0xdd, 0xbc, 0x57, 0xdb, 0x2c, 0x3c,
  0x69, 0x7d, 0x77, 0xbd, 0x85, 0x7f, 0x25, 0x3e, 0xbe, 0xde, 0x97, 0xbe,
  0x6b, 0x95, 0x19, 0xbd, 0x8b, 0xda, 0x89, 0x3e, 0x78, 0xe7, 0x05, 0xbe,
  0xf6, 0xa8, 0xc5, 0x3d, 0x83, 0xea, 0xb1, 0x3d, 0x07, 0x35, 0x6e, 0xbe,
  0x80, 0x1b, 0xd1, 0x3c, 0xee, 0x7f, 0x37, 0xbe, 0xc9, 0xba, 0x0d, 0xbe,
  0xf2, 0x9e, 0x2a, 0xbe, 0x9c, 0x33, 0x84, 0xbe, 0x7a, 0xba, 0x65, 0x3d,
  0xc3, 0x42, 0xc1, 0xbe, 0xb5, 0xfd, 0xc9, 0xbd, 0xe0, 0x88, 0xe6, 0x3d,
  0x99, 0x5f, 0x0e, 0x3e, 0xf2, 0x85, 0x0c, 0xbd, 0x04, 0x2d, 0x84, 0x3e,
  0x7b, 0x5a, 0x39, 0x3e, 0x80, 0x58, 0x0c, 0xbe, 0xdd, 0x58, 0xcd, 0xbb,
  0x85, 0x99, 0x60, 0xbd, 0x51, 0xff, 0x4a, 0xbd, 0xa1, 0x07, 0x98, 0xbe,
  0x7f, 0xb9, 0xad, 0xbe, 0x45, 0x5a, 0x2a, 0xbe, 0xa6, 0x28, 0x05, 0x3d,
  0xb1, 0x7e, 0x13, 0xbe, 0xf6, 0x59, 0x16, 0x3d, 0xf6, 0x88, 0x41, 0x3d,
  0x08, 0x18, 0x97, 0x3d, 0x03, 0x8e, 0x05, 0x3d, 0x53, 0xbc, 0xf3, 0x3c,
  0x42, 0xb4, 0x09, 0x3e, 0x0f, 0x61, 0x8a, 0xbd, 0x2c, 0x15, 0x95, 0xbe,
  0xb4, 0x2f, 0x01, 0xbc, 0x60, 0xe4, 0xdd, 0xbc, 0x98, 0x89, 0x10, 0xbe,
  0x7a, 0x80, 0x14, 0xbd, 0x37, 0x46, 0x88, 0xbe, 0x6a, 0xf2, 0x5b, 0x3c,
  0x3e, 0x13, 0x1d, 0xbe, 0xda, 0x0b, 0x95, 0x3c, 0xb4, 0x48, 0xdb, 0xbd,
  0xd7, 0x71, 0xc3, 0xbd, 0x69, 0x8a, 0x42, 0xbe, 0xa1, 0xc4, 0x11, 0x3e,
  0xbc, 0xd7, 0x06, 0xbd, 0x24, 0xd0, 0xe0, 0xbd, 0x43, 0xaa, 0x7d, 0xbd,
  0x48, 0xf8, 0x75, 0xbe, 0x8a, 0x0c, 0x8a, 0x3e, 0xa7, 0x9a, 0xf0, 0xbd,
  0xb3, 0xdc, 0x87, 0xbe, 0xcd, 0xfa, 0x0b, 0xbe, 0xfa, 0xa3, 0x41, 0xbe,
  0xe7, 0x7d, 0x51, 0xbd, 0x1f, 0x67, 0xcd, 0xbc, 0xb0, 0x47, 0x40, 0x3c,
  0xc1, 0x54, 0xd3, 0x3d, 0x42, 0x40, 0x80, 0xbe, 0x01, 0xd1, 0x82, 0xbe,
  0x50, 0x11, 0x20, 0x3d, 0xe1, 0x63, 0x24, 0xbe, 0xeb, 0x54, 0x00, 0xbd,
  0xa4, 0x17, 0x63, 0xbe, 0x0a, 0xca, 0x32, 0x3e, 0xb2, 0x75, 0x0a, 0x3f,
  0x21, 0x9f, 0x5c, 0x3d, 0x8d, 0x65, 0x07, 0x3e, 0x30, 0x0f, 0x41, 0xbe,
  0x44, 0xc9, 0x51, 0xbe, 0x84, 0x3a, 0x4d, 0xbc, 0x00, 0x85, 0xcb, 0x3b,
  0x6b, 0x88, 0xfa, 0x3d, 0x20, 0x08, 0xf0, 0xbd, 0x78, 0xf3, 0xa6, 0xbe,
  0x6f, 0x80, 0x5e, 0xbe, 0x9f, 0x1c, 0x7f, 0x3e, 0xfc, 0x03, 0x41, 0x3e,
  0xd7, 0x65, 0x20, 0x3d, 0xc1, 0xe3, 0x85, 0x3c, 0xd6, 0x89, 0xb8, 0xbd,
  0x33, 0x48, 0x02, 0x3f, 0xb7, 0xd3, 0xb1, 0x3d, 0x2a, 0xcc, 0xdb, 0x3c,
  0x7f, 0xae, 0xca, 0x3b, 0x32, 0x52, 0x67, 0xbe, 0x23, 0x41, 0x30, 0x3e,
  0x3e, 0x7f, 0xfa, 0x3c, 0xe3, 0x1f, 0x17, 0xbe, 0x5c, 0xc8, 0x54, 0x3d,
  0x8f, 0xa1, 0xac, 0xbe, 0x94, 0xf2, 0xc7, 0x3d, 0x88, 0xc8, 0xd0, 0x3e,
  0x2d, 0x1e, 0xd8, 0xbc, 0xcc, 0xde, 0x4e, 0x3c, 0x3e, 0xa2, 0xf9, 0xbd,
  0x88, 0xc6, 0x31, 0xbe, 0x7a, 0x66, 0xfa, 0x3e, 0xe3, 0x11, 0x12, 0x3e,
  0xd5, 0xa7, 0x35, 0xbd, 0x9f, 0xc6, 0x82, 0xbe, 0xde, 0x66, 0xf3, 0xbd,
  0xa4, 0x6c, 0x27, 0x3e, 0xc7, 0x18, 0x5c, 0xbe, 0xf8, 0x65, 0x15, 0x3e,
  0x73, 0x34, 0xb4, 0xbe, 0x23, 0x9c, 0x7a, 0xbd, 0xa1, 0x70, 0xa8, 0xbd,
  0x5e, 0x13, 0xb8, 0x3e, 0x45, 0x4f, 0x4d, 0xbe, 0xbb, 0x36, 0xc9, 0xbd,
  0xa8, 0x8a, 0x7a, 0xbe, 0x60, 0x6f, 0x4c, 0xbe, 0xca, 0x12, 0x0a, 0x3f,
  0xba, 0xc8, 0x26, 0xbe, 0xf4, 0x15, 0xda, 0x3d, 0x99, 0xa1, 0x15, 0xbd,
  0x34, 0x6c, 0xa8, 0xbd, 0xb2, 0xaf, 0xf7, 0x3d, 0x84, 0xae, 0x34, 0xbe,
  0xe6, 0x07, 0x95, 0xbd, 0x73, 0x36, 0xb5, 0xbd, 0x88, 0x93, 0xb8, 0xbe,
  0x19, 0xe6, 0xff, 0xbd, 0x01, 0x40, 0x60, 0x3d, 0x80, 0xa2, 0x18, 0xbe,
  0xbf, 0x30, 0xfb, 0xbd, 0xce, 0x9f, 0x29, 0xbe, 0x61, 0x89, 0x93, 0x3d,
  0x68, 0x0d, 0x42, 0x3f, 0x53, 0x0c, 0xff, 0xbd, 0x39, 0xb6, 0xe8, 0x3c,
  0x0a, 0x3f, 0xeb, 0xbd, 0xf4, 0xb8, 0x82, 0xbe, 0xd2, 0xd7, 0xf4, 0xb9,
  0xe0, 0xfc, 0xc6, 0xbd, 0xbf, 0x53, 0x7e, 0x3c, 0xd3, 0xc5, 0x2c, 0xbe,
  0xff, 0xac, 0x8a, 0xbe, 0x21, 0xa5, 0x82, 0xbe, 0xdb, 0xf6, 0x16, 0xbe,
  0x4b, 0xe4, 0x2f, 0xbe, 0x77, 0x97, 0x4f, 0xbe, 0x67, 0x82, 0x58, 0xbe,
  0xd3, 0xa7, 0x22, 0xbe, 0xef, 0x98, 0x41, 0x3f, 0x24, 0x30, 0x90, 0x3c,
  0xaf, 0x3a, 0x2b, 0xbe, 0x8d, 0x19, 0x99, 0xbc, 0x52, 0x5c, 0xbd, 0xbe,
  0xc6, 0x2d, 0x68, 0xbe, 0xf5, 0xc2, 0x12, 0x3b, 0x62, 0x79, 0x4c, 0xbe,
  0xe1, 0xee, 0x1d, 0xbd, 0xd5, 0x8c, 0x50, 0xbe, 0xf0, 0x45, 0x09, 0xbe,
  0xc3, 0x3c, 0x51, 0xbd, 0x9e, 0x80, 0x66, 0xbc, 0xb2, 0xf3, 0x05, 0xbe,
  0x47, 0x43, 0xa0, 0x3d, 0x8e, 0x15, 0xbe, 0xbd, 0xf6, 0xbf, 0xc4, 0x3c,
  0x11, 0x09, 0x27, 0xbe, 0x6b, 0xf3, 0x54, 0x3d, 0x1f, 0xc2, 0xa0, 0xbd,
  0x6f, 0x5d, 0x7d, 0xbe, 0x02, 0x70, 0x72, 0xbd, 0x06, 0x44, 0xfe, 0x3d,
  0x7c, 0xc6, 0x01, 0x3e, 0xb4, 0x29, 0x9e, 0xbe, 0x98, 0x2f, 0x83, 0xbe,
  0x57, 0xa2, 0xc0, 0xbd, 0xae, 0x79, 0x60, 0xbe, 0xc8, 0xdb, 0xe5, 0xbc,
  0x2e, 0x21, 0x59, 0xbe, 0x2f, 0xee, 0xf8, 0xbd, 0x30, 0x17, 0xf4, 0x3c,
  0x2f, 0xc4, 0xfd, 0x3d, 0x58, 0xed, 0x1b, 0xbe, 0x21, 0xe0, 0x9f, 0x3d,
  0xe6, 0x63, 0x0a, 0x3d, 0x7c, 0xba, 0x78, 0xbe, 0xe2, 0x84, 0x8a, 0xbc,
  0x0f, 0x9e, 0xba, 0xbc, 0xe2, 0x9c, 0xc1, 0xbc, 0x38, 0xb1, 0x14, 0xbe,
  0xa0, 0xe2, 0x2b, 0x39, 0x65, 0xb1, 0x71, 0xbe, 0xdb, 0x3d, 0xcd, 0xbc,
  0x54, 0xbc, 0xb7, 0xbb, 0x4c, 0xfa, 0xf8, 0xbd, 0x87, 0x31, 0xd9, 0x3d,
  0x00, 0xa7, 0x87, 0xbe, 0x86, 0xf4, 0x26, 0x3e, 0x62, 0xac, 0xb7, 0x3c,
  0x28, 0x97, 0x4d, 0xbe, 0x51, 0xd8, 0x8d, 0xbe, 0x0c, 0x61, 0x56, 0xbe,
  0xc5, 0x76, 0x5c, 0xbe, 0xa2, 0x59, 0xc8, 0xbb, 0x97, 0xdf, 0xf1, 0xbd,
  0x44, 0xcb, 0x24, 0xbc, 0xd0, 0x7a, 0x79, 0xbe, 0x33, 0xf0, 0x56, 0xbe,
  0x94, 0x46, 0x0b, 0xbd, 0x84, 0x1d, 0x37, 0xbe, 0x3c, 0x9d, 0xb4, 0x3d,
  0xed, 0xb8, 0x73, 0xbe, 0xb1, 0x24, 0x14, 0xbd, 0x2e, 0xa9, 0xdc, 0xbd,
  0xe5, 0x99, 0x25, 0x3e, 0x1b, 0x1c, 0x3b, 0xbe, 0x30, 0x54, 0x6b, 0xbe,
  0x78, 0x6e, 0x34, 0xbe, 0xe5, 0x5b, 0x2b, 0xbd, 0x3d, 0x15, 0xc1, 0xbd,
  0xf8, 0xdd, 0xe7, 0xbd, 0x85, 0x4f, 0xa5, 0xbe, 0x23, 0xf0, 0x02, 0xbe,
  0x0d, 0x7f, 0x7d, 0xbd, 0x35, 0x2b, 0xc9, 0xbd, 0x7d, 0x48, 0x31, 0xbe,
  0xd5, 0x1a, 0xbd, 0x3d, 0xed, 0xd3, 0xa4, 0xbc, 0x25, 0x49, 0xe0, 0xbd,
  0xc4, 0x1d, 0x21, 0xbe, 0x80, 0x77, 0xc0, 0xbc, 0x67, 0xd9, 0x89, 0x3d,
  0x98, 0xe1, 0x20, 0x3d, 0x5f, 0x76, 0x58, 0xbd, 0x4c, 0x65, 0xa9, 0xbd,
  0x51, 0x2c, 0x66, 0xbe, 0x4c, 0x01, 0xe8, 0xbd, 0xc0, 0x6b, 0x8b, 0xbe,
  0x1d, 0x6d, 0x42, 0xbe, 0x9e, 0x88, 0x00, 0xbe, 0x4f, 0x00, 0x54, 0x3d,
  0xec, 0xe7, 0xf1, 0xbd, 0x66, 0x32, 0xec, 0x3c, 0x10, 0x79, 0x96, 0xbd,
  0x91, 0x4e, 0x44, 0x3d, 0x8b, 0xfa, 0x25, 0x3e, 0xbf, 0x99, 0x41, 0xbc,
  0x64, 0xe6, 0x23, 0xbe, 0x55, 0xf8, 0x6c, 0x3d, 0x63, 0x09, 0x10, 0xbe,
  0x94, 0x62, 0x0a, 0x3b, 0x1f, 0x77, 0x1d, 0x3d, 0xb2, 0x38, 0x16, 0x3e,
  0xb5, 0xb1, 0x9a, 0xbe, 0x7f, 0xa6, 0xc3, 0xbe, 0x88, 0x73, 0xc1, 0xbd,
  0x87, 0xd3, 0x27, 0xbe, 0xb0, 0x2a, 0x47, 0xbe, 0xec, 0x2a, 0x08, 0xbe,
  0x30, 0x64, 0x54, 0xbd, 0x36, 0xb1, 0xb4, 0xbc, 0x28, 0x1f, 0xf7, 0xbc,
  0xad, 0xab, 0x03, 0xbe, 0xec, 0xfb, 0x0a, 0xbe, 0x6a, 0x49, 0x43, 0xbe,
  0x38, 0xc8, 0xf0, 0xbd, 0xe2, 0xfd, 0x8d, 0xbe, 0x09, 0x19, 0x35, 0xbe,
  0x68, 0x69, 0x92, 0xbd, 0xa3, 0x20, 0x52, 0x3d, 0xc0, 0xff, 0xb1, 0x3d,
  0xe8, 0xc0, 0xae, 0x3d, 0x75, 0x4a, 0x11, 0x3d, 0xa9, 0xdf, 0x15, 0x3e,
  0xe5, 0x2d, 0x5f, 0xbc, 0x0f, 0x37, 0x4d, 0x3e, 0xa3, 0xc5, 0xf2, 0x3d,
  0x23, 0x06, 0xe3, 0x3e, 0x9c, 0xac, 0xc0, 0xbe, 0x69, 0x66, 0x2e, 0xbe,
  0xfd, 0x5e, 0x51, 0xbd, 0x61, 0xe3, 0x89, 0x3d, 0xdc, 0x65, 0x82, 0xbc,
  0x23, 0x7c, 0xef, 0x3c, 0x15, 0x6a, 0x81, 0xbc, 0xe0, 0x3c, 0x3f, 0xbe,
  0xc7, 0x19, 0xed, 0xbe, 0x3b, 0x93, 0x03, 0xbf, 0xfe, 0x57, 0xcb, 0xbd,
  0xe1, 0x92, 0xab, 0xbc, 0x5c, 0xb6, 0x80, 0xbe, 0x72, 0x32, 0x96, 0xbe,
  0x69, 0x58, 0xd5, 0xbe, 0x4a, 0x78, 0x8a, 0x3d, 0xbc, 0x88, 0x01, 0x3e,
  0xed, 0x97, 0xb9, 0xbd, 0x59, 0x6e, 0x81, 0x3e, 0xaf, 0x93, 0x12, 0xbe,
  0xf8, 0x9e, 0xdd, 0xbe, 0xde, 0x6a, 0x21, 0xbe, 0xfc, 0x00, 0xdb, 0x3d,
  0x34, 0xb4, 0x7b, 0xbd, 0xc2, 0x70, 0x28, 0xbd, 0xf0, 0x4a, 0xe7, 0xbe,
  0x6b, 0x17, 0xe8, 0xbd, 0x1a, 0x03, 0x22, 0xbd, 0xb8, 0x36, 0xb1, 0x3d,
  0xad, 0x1a, 0x21, 0xbd, 0x7a, 0x4f, 0xf4, 0xbd, 0x84, 0x12, 0x84, 0x3e,
  0x32, 0x49, 0x07, 0xbe, 0x12, 0xff, 0x85, 0x3d, 0x11, 0x3e, 0x3a, 0x3e,
  0x85, 0xfe, 0xcc, 0xbe, 0x8f, 0x3d, 0x3c, 0xbe, 0x90, 0xa9, 0x38, 0xbe,
  0x02, 0xa5, 0x78, 0xbc, 0x73, 0x70, 0xe3, 0x3b, 0xbd, 0xf1, 0x0b, 0x3e,
  0x0e, 0x5c, 0x86, 0x3d, 0x10, 0x80, 0xcf, 0xbd, 0xfb, 0xbd, 0x84, 0xbd,
  0x35, 0xae, 0x19, 0x3d, 0x6d, 0x5d, 0xb0, 0x3d, 0x57, 0x4b, 0x2b, 0xbe,
  0x56, 0x7a, 0x7e, 0xbd, 0xf9, 0xd4, 0x27, 0x3e, 0x66, 0x6f, 0x1a, 0x3e,
  0x51, 0x5b, 0xfb, 0xbd, 0x88, 0xc6, 0x9c, 0xbe, 0x19, 0x93, 0x2e, 0xbe,
  0x35, 0x36, 0x9b, 0xbe, 0xd2, 0x60, 0x0c, 0x3e, 0xc0, 0x41, 0xf1, 0x3b,
  0x75, 0xf7, 0x9d, 0x3d, 0x76, 0x31, 0xdd, 0xbe, 0x62, 0x51, 0x68, 0xbe,
  0x4a, 0x91, 0x0a, 0x3d, 0xaf, 0xb0, 0x22, 0x3d, 0x81, 0x61, 0xce, 0xbd,
  0x7d, 0x98, 0xb4, 0xbc, 0x75, 0xd1, 0x19, 0x3e, 0xc6, 0xbc, 0x87, 0xbd,
  0xef, 0xaf, 0xce, 0x3b, 0x79, 0xc9, 0x97, 0xbd, 0xd9, 0x96, 0xc4, 0xbe,
  0x04, 0xcc, 0x85, 0xbe, 0x14, 0xc5, 0xcd, 0xbe, 0x39, 0x6e, 0x9c, 0xbd,
  0xb3, 0xfa, 0x10, 0xbf, 0x33, 0x34, 0xcc, 0xbe, 0x40, 0x3c, 0x18, 0xbe,
  0xf5, 0x5d, 0x6d, 0xbe, 0xdb, 0xf4, 0x4e, 0x3d, 0x05, 0x62, 0x6c, 0xbe,
  0x29, 0xac, 0x0d, 0xbe, 0xf0, 0x15, 0xab, 0xbe, 0x5c, 0xf2, 0x34, 0xbd,
  0x30, 0xa5, 0xb8, 0x3c, 0x11, 0x80, 0xe8, 0x3d, 0x82, 0x34, 0x28, 0xbe,
  0x24, 0x3e, 0x00, 0xbf, 0x6c, 0x34, 0x46, 0x3d, 0xfc, 0xb7, 0x02, 0xbf,
  0x3b, 0x12, 0x72, 0x3e, 0xb1, 0x33, 0xc6, 0xbe, 0xbb, 0xe9, 0xa3, 0xbe,
  0xc5, 0xdd, 0x0f, 0xbf, 0xf7, 0xcd, 0x0f, 0x3d, 0xe3, 0x91, 0xc8, 0x3d,
  0x8a, 0x8b, 0x32, 0xbd, 0xd2, 0x93, 0x1a, 0x3e, 0x03, 0xce, 0x8b, 0xbe,
  0x50, 0xc8, 0xdf, 0xbc, 0x85, 0xea, 0x86, 0x3e, 0x66, 0x6b, 0x53, 0x3d,
  0x12, 0x9d, 0x52, 0xbe, 0xd2, 0x8c, 0x0b, 0xbf, 0x5c, 0xd4, 0x77, 0x3d,
  0x16, 0xf7, 0xb1, 0xbc, 0xc0, 0x02, 0x9b, 0xbd, 0x5b, 0xc2, 0xff, 0x3d,
  0xb9, 0xd2, 0x09, 0xbd, 0x22, 0xd7, 0x61, 0xbe, 0xa6, 0x6a, 0x79, 0x3d,
  0x7b, 0xf6, 0x04, 0xbb, 0x6a, 0xc3, 0xb8, 0xbd, 0x17, 0x33, 0xd8, 0xbd,
  0x17, 0x55, 0xfb, 0xbd, 0x6b, 0xcb, 0xd6, 0xbe, 0x7e, 0x4b, 0x1d, 0x3e,
  0xed, 0xc7, 0x14, 0xbd, 0x74, 0x00, 0xa4, 0x3d, 0x3e, 0xbf, 0x37, 0xbe,
  0x62, 0xb1, 0xef, 0x3d, 0x5c, 0x73, 0xbd, 0xbe, 0xa2, 0xba, 0x57, 0xbe,
  0xcc, 0xbd, 0x5a, 0x3d, 0xd8, 0x42, 0x3f, 0x3e, 0x99, 0xce, 0x57, 0xbe,
  0x39, 0xf9, 0x0d, 0xbc, 0x9a, 0x00, 0xdc, 0x3c, 0xac, 0x07, 0x7e, 0xbe,
  0x81, 0xbe, 0x4f, 0x3e, 0xe3, 0xc3, 0x49, 0x3d, 0x55, 0x5f, 0x96, 0x3e,
  0x49, 0xf6, 0x28, 0xbd, 0x39, 0x8e, 0x1b, 0x3e, 0x3f, 0x12, 0xb8, 0xbe,
  0xdf, 0x72, 0x68, 0xbd, 0x82, 0xe8, 0x5d, 0x3e, 0xf9, 0x29, 0xa5, 0xbe,
  0x3d, 0x8a, 0x03, 0xbe, 0x6a, 0xf5, 0x39, 0xbe, 0x7b, 0x2b, 0x11, 0x3c,
  0x0e, 0x0e, 0x77, 0x3d, 0x7d, 0x68, 0x5b, 0x3e, 0x65, 0xd5, 0x43, 0x3d,
  0xf8, 0x6a, 0x34, 0xbe, 0xa8, 0x0b, 0x15, 0x3e, 0xe0, 0x7b, 0x7b, 0x3e,
  0x6b, 0x4e, 0x10, 0x3e, 0xa8, 0x76, 0xba, 0x3d, 0x88, 0x07, 0xf3, 0x3d,
  0xa8, 0x32, 0x1f, 0x3c, 0xaf, 0x42, 0x42, 0x3e, 0x47, 0x4d, 0x34, 0x3e,
  0x81, 0x0f, 0xbe, 0x3c, 0xdb, 0x55, 0x41, 0xbe, 0xfe, 0x6e, 0x0f, 0xbe,
  0x23, 0xd7, 0xa7, 0xbe, 0x16, 0x9e, 0x45, 0xbd, 0xe5, 0x92, 0xdf, 0x3e,
  0xb4, 0x3f, 0x65, 0x3c, 0xaa, 0xf8, 0x80, 0xbe, 0xe8, 0x23, 0x5b, 0x3e,
  0xcf, 0x31, 0x79, 0x3c, 0xf2, 0x82, 0xd7, 0x3e, 0x71, 0x8f, 0x4f, 0xbd,
  0x22, 0x7f, 0xdf, 0x3d, 0x12, 0xc0, 0xbc, 0x3d, 0x5f, 0x61, 0xb7, 0x3e,
  0x20, 0xc9, 0x30, 0xbe, 0xaa, 0x7a, 0x94, 0x3d, 0x28, 0x29, 0x1c, 0xbe,
  0x8a, 0xed, 0xa3, 0xbd, 0x7a, 0xd0, 0x69, 0xbe, 0xb0, 0x23, 0x76, 0xbe,
  0xc6, 0xdd, 0x70, 0x3d, 0xec, 0x74, 0xc6, 0x3a, 0xd4, 0xb0, 0x0c, 0xbf,
  0x4d, 0xd9, 0xcc, 0xbd, 0x20, 0x71, 0xf9, 0xbe, 0x0f, 0x6a, 0x02, 0x3f,
  0x99, 0xc6, 0x09, 0xbe, 0x37, 0xb6, 0x14, 0xbe, 0x34, 0xb1, 0xeb, 0x3c,
  0xab, 0xf5, 0x37, 0x3e, 0x4f, 0x44, 0x55, 0x3e, 0xb0, 0xf1, 0x13, 0x3e,
  0x27, 0x31, 0xf9, 0xbe, 0x24, 0xba, 0x91, 0x3e, 0x8a, 0x4a, 0x4f, 0x3e,
  0xcb, 0xe4, 0xb4, 0xbe, 0x2f, 0xc6, 0x35, 0x3e, 0x24, 0xb7, 0xa7, 0x3b,
  0xd7, 0xd9, 0x23, 0xbf, 0xdb, 0x35, 0x3d, 0x3d, 0x6b, 0x32, 0xb6, 0x3e,
  0xc0, 0xe2, 0xad, 0x3e, 0x21, 0xd5, 0x55, 0xbe, 0x17, 0xb9, 0x1b, 0xbf,
  0x5c, 0xe8, 0x9d, 0x3d, 0x2a, 0x92, 0xfe, 0x3d, 0x21, 0x96, 0x3a, 0x3e,
  0xcf, 0x3f, 0x06, 0x3e, 0x1c, 0xb6, 0xe6, 0xbe, 0x10, 0x72, 0xb9, 0xbd,
  0xc0, 0xb9, 0xb0, 0x3c, 0xa3, 0x7d, 0x3f, 0xbe, 0xd5, 0xc8, 0x1b, 0xbd,
  0x22, 0x72, 0x07, 0xbe, 0x0f, 0x5b, 0x8b, 0xbd, 0xf1, 0x24, 0x3b, 0x3d,
  0x3c, 0xe5, 0x2b, 0x3e, 0x33, 0x10, 0x51, 0x3f, 0x25, 0xed, 0x3f, 0xbd,
  0x13, 0x88, 0x5b, 0xbc, 0x9d, 0x16, 0xe5, 0x3c, 0x7a, 0x72, 0x53, 0x3e,
  0x14, 0x62, 0x92, 0xbd, 0x56, 0x85, 0xba, 0xbd, 0xf6, 0x16, 0x10, 0xbe,
  0xdb, 0x5c, 0x04, 0xbd, 0x20, 0x4b, 0xf1, 0xb8, 0xc3, 0xec, 0x52, 0xbe,
  0x2d, 0xca, 0x8d, 0xbc, 0x56, 0xc7, 0x95, 0x3c, 0xea, 0x30, 0xa8, 0xbd,
  0xf9, 0x68, 0x04, 0x3e, 0x52, 0xe2, 0x42, 0x3d, 0x4c, 0x2f, 0xb6, 0x3e,
  0x87, 0xd6, 0x3a, 0xbf, 0x76, 0x8f, 0xfd, 0xbd, 0xbb, 0x99, 0x43, 0xbd,
  0x08, 0xcf, 0xac, 0x3d, 0xbc, 0x74, 0xaf, 0xbd, 0x8e, 0xa7, 0xcb, 0x3d,
  0x45, 0x31, 0xba, 0x3d, 0x35, 0xb0, 0x2e, 0xbe, 0x8d, 0x40, 0x04, 0xbf,
  0xab, 0x39, 0x59, 0xbe, 0xbc, 0xae, 0x65, 0xbe, 0xec, 0x14, 0xf8, 0x3d,
  0x3d, 0xa5, 0x83, 0x3d, 0xe8, 0x0b, 0x12, 0x3e, 0xe4, 0x45, 0x04, 0xbf,
  0x3c, 0x39, 0x02, 0x3e, 0x14, 0x2e, 0x04, 0x3d, 0xd8, 0x1d, 0xf5, 0x3d,
  0xf2, 0x7b, 0x81, 0x3d, 0xe1, 0xd4, 0x36, 0xbe, 0x08, 0x7c, 0x20, 0xbf,
  0xe2, 0xf7, 0x91, 0x3e, 0x66, 0x28, 0x3d, 0x3e, 0x12, 0xaf, 0x8a, 0xbe,
  0xaf, 0xf3, 0xcf, 0xbd, 0x1f, 0x2b, 0x60, 0xbe, 0xe7, 0xee, 0xbc, 0xbd,
  0x25, 0xea, 0x94, 0x3c, 0xa6, 0xe9, 0xc0, 0x3c, 0x46, 0x20, 0x8c, 0x3c,
  0x4b, 0x5c, 0x9d, 0xbe, 0x0f, 0xa8, 0x16, 0x3d, 0x8c, 0xf8, 0xc8, 0xbd,
  0x36, 0x79, 0xe6, 0x3d, 0xa6, 0x9f, 0x0c, 0x3e, 0x8b, 0x67, 0x7f, 0xbe,
  0x16, 0x36, 0x19, 0xbe, 0xdf, 0xb8, 0x35, 0xbe, 0xd9, 0xa1, 0xa1, 0xbe,
  0x53, 0xc4, 0xa9, 0xbe, 0xbb, 0x90, 0xb6, 0x3e, 0xd9, 0x88, 0x24, 0xbe,
  0x0a, 0x12, 0x7d, 0xbe, 0xeb, 0xe1, 0x2e, 0x3d, 0x8c, 0xb8, 0xed, 0x3d,
  0x19, 0xcc, 0xd1, 0xbd, 0x1e, 0x20, 0x37, 0xbe, 0x50, 0x35, 0xb4, 0xbd,
  0x72, 0x8d, 0x04, 0x3e, 0x3c, 0x0c, 0xcb, 0x3e, 0x2e, 0xc5, 0x1c, 0xbd,
  0x66, 0xaf, 0xa2, 0xbd, 0x97, 0x65, 0x3a, 0xbe, 0xf8, 0x2c, 0xb7, 0xbe,
  0xbe, 0xd4, 0x89, 0x3e, 0x7e, 0x88, 0xe6, 0xbe, 0xd0, 0x36, 0x7d, 0xbe,
  0x9c, 0x0f, 0x79, 0xbe, 0x12, 0xc2, 0xeb, 0xbe, 0x01, 0x41, 0x00, 0x3d,
  0x19, 0xb2, 0x8a, 0x3d, 0xed, 0x4b, 0x26, 0xbd, 0x70, 0x5d, 0x6e, 0xbe,
  0xb0, 0xae, 0xad, 0x3c, 0xe4, 0x52, 0x05, 0x3d, 0x5a, 0x77, 0x9e, 0x3d,
  0x9b, 0xd1, 0x2f, 0xbe, 0x22, 0x0a, 0x26, 0xbe, 0x36, 0x90, 0x8b, 0xbe,
  0xd4, 0xcd, 0x8a, 0xbe, 0x5c, 0x0c, 0x87, 0xbd, 0x06, 0x8f, 0x09, 0xbf,
  0x86, 0x45, 0x9c, 0xbe, 0x74, 0x07, 0x21, 0xbe, 0x94, 0x58, 0x36, 0xbe,
  0xc2, 0xdc, 0xd0, 0x3d, 0x68, 0xd3, 0xa3, 0x3d, 0xf7, 0x0b, 0xa1, 0xbd,
  0xf5, 0x51, 0xb0, 0xbe, 0x22, 0x65, 0x2e, 0x3e, 0xe6, 0x35, 0xbd, 0xbd,
  0x16, 0x06, 0xc0, 0x3d, 0x2a, 0x50, 0x26, 0xbe, 0xf7, 0x07, 0xcc, 0xbe,
  0x28, 0x5f, 0xa3, 0xbe, 0xa3, 0x33, 0xcb, 0xbe, 0x3c, 0x4d, 0xd5, 0x3c,
  0xc9, 0x04, 0x8c, 0xbe, 0x0f, 0xc4, 0x35, 0xbe, 0x2e, 0x3b, 0x3a, 0xbe,
  0xf6, 0x5b, 0x4f, 0x3e, 0xce, 0x3a, 0xcd, 0x3d, 0xf4, 0x39, 0x34, 0x3d,
  0x78, 0x64, 0x45, 0x3e, 0x76, 0x14, 0x3b, 0xbe, 0x0d, 0x67, 0x8a, 0x3e,
  0x09, 0xd1, 0x17, 0x3e, 0x5f, 0x11, 0xd7, 0x3d, 0xc5, 0xe7, 0x0d, 0xbe,
  0x2a, 0x24, 0xfc, 0xbe, 0x14, 0xcf, 0x29, 0xbe, 0xcf, 0xbe, 0xe2, 0xbc,
  0x8d, 0x84, 0xb9, 0xbc, 0xde, 0xbc, 0x12, 0xbe, 0xb6, 0xdc, 0xf9, 0x3d,
  0xc1, 0x4b, 0xea, 0x39, 0xa8, 0xfb, 0x7b, 0x3e, 0x75, 0xee, 0xb2, 0xbe,
  0xbc, 0x9f, 0xb8, 0xbe, 0x95, 0x05, 0x8d, 0xbe, 0x25, 0xb9, 0x48, 0xbe,
  0x21, 0x15, 0xa9, 0x3e, 0x2b, 0xfa, 0x18, 0x3e, 0x67, 0x1c, 0xd3, 0xbe,
  0x89, 0x43, 0xa1, 0xbd, 0x80, 0x53, 0xe9, 0xbb, 0x21, 0x44, 0x47, 0xbd,
  0xfd, 0x7b, 0x15, 0x3e, 0xdc, 0x8d, 0x1f, 0xbd, 0xf1, 0x68, 0x85, 0x3b,
  0xb3, 0x94, 0x6d, 0x3d, 0xdb, 0x44, 0xc8, 0x3d, 0x8f, 0xb8, 0xd0, 0x3d,
  0x15, 0xa0, 0x1d, 0xbf, 0xf0, 0xc9, 0x14, 0xbe, 0x9f, 0xcf, 0x2a, 0xbe,
  0xa0, 0xfe, 0x8a, 0xbd, 0x41, 0x84, 0x01, 0x40, 0x0e, 0x3c, 0x0f, 0xbd,
  0xc1, 0xfd, 0x71, 0xbe, 0x3a, 0x70, 0x8f, 0x3e, 0x01, 0x9c, 0x9c, 0x3d,
  0x1d, 0x47, 0xe4, 0x3c, 0x6c, 0x45, 0xfe, 0x3e, 0x59, 0xe9, 0xd7, 0x3d,
  0x17, 0xdc, 0x61, 0x3e, 0x9a, 0x2c, 0x0a, 0x3e, 0xb9, 0xde, 0x00, 0x3e,
  0x4c, 0x9d, 0x27, 0x3e, 0xda, 0xde, 0x36, 0xbf, 0x46, 0x34, 0xa9, 0xbd,
  0x41, 0x51, 0x33, 0xbf, 0x92, 0xee, 0x08, 0xbf, 0x08, 0xd5, 0xa2, 0x3f,
  0x58, 0xbe, 0x20, 0x3e, 0xdd, 0x20, 0x8d, 0xbd, 0xd7, 0xa7, 0xcc, 0x3e,
  0x14, 0xe1, 0x55, 0x3e, 0x0f, 0x0f, 0x02, 0x3e, 0x69, 0xdd, 0xaa, 0x3d,
  0x33, 0x85, 0xc0, 0xbe, 0x8d, 0xb7, 0xbb, 0x3d, 0x35, 0xdb, 0x0c, 0x3e,
  0xe1, 0xfd, 0x5d, 0x3e, 0x8e, 0x03, 0x9a, 0x3e, 0x63, 0xf3, 0x11, 0xbf,
  0x70, 0xaf, 0xca, 0xbd, 0xa4, 0xb4, 0x09, 0xbf, 0xe7, 0x25, 0xb6, 0xbe,
  0x04, 0x6b, 0x78, 0x3f, 0x75, 0xcc, 0xfc, 0x3d, 0x9e, 0xcd, 0x25, 0xbd,
  0xe7, 0x80, 0xe9, 0x3d, 0xad, 0x67, 0x69, 0x3e, 0xed, 0x4e, 0x94, 0x3e,
  0x6e, 0x47, 0x87, 0xbc, 0x7e, 0x26, 0x0d, 0xbf, 0x54, 0xbb, 0x0e, 0x3d,
  0x1c, 0xe3, 0x90, 0x3d, 0x80, 0x88, 0x99, 0xbd, 0x7d, 0x87, 0xe1, 0x3e,
  0x49, 0xf5, 0x00, 0xbf, 0xb3, 0x38, 0x47, 0xbf, 0x92, 0x84, 0xa9, 0xbe,
  0xac, 0x07, 0xeb, 0xbd, 0x77, 0x71, 0x82, 0x3f, 0xf4, 0xce, 0xbf, 0xba,
  0x1d, 0xbc, 0xe1, 0xbe, 0x5d, 0x93, 0xb0, 0x3d, 0x81, 0x2c, 0x13, 0x3d,
  0xfc, 0x4d, 0xa3, 0x3e, 0x10, 0xcc, 0x89, 0x3d, 0x27, 0xd3, 0x84, 0xbe,
  0x24, 0x6b, 0x1e, 0x3d, 0x80, 0xb0, 0xa3, 0x3d, 0x80, 0x95, 0x30, 0xbd,
  0xbc, 0x63, 0x9b, 0x3e, 0xc9, 0x23, 0xa4, 0xbe, 0x89, 0xce, 0xce, 0xbe,
  0x2b, 0x32, 0xbd, 0xbe, 0xa7, 0x88, 0xfc, 0xbe, 0x97, 0x29, 0x25, 0x3f,
  0xdc, 0x03, 0x51, 0x3e, 0x59, 0xfc, 0x88, 0xbe, 0x0d, 0x7a, 0xd4, 0x3c,
  0x37, 0xc3, 0x2c, 0xbd, 0x4b, 0x1b, 0x2d, 0x3d, 0xb4, 0x9f, 0xea, 0x3b,
  0x82, 0x9c, 0xb8, 0xbe, 0x08, 0x2b, 0x92, 0xbc, 0x51, 0x84, 0x7f, 0x3a,
  0xdd, 0x5d, 0xf9, 0xbd, 0xc4, 0x15, 0x64, 0x3e, 0xdb, 0xdd, 0xbb, 0x3d,
  0x8f, 0x40, 0x4b, 0xbe, 0x4c, 0xb2, 0xcc, 0xbe, 0x5f, 0xf9, 0x20, 0xbe,
  0x81, 0xa2, 0xad, 0x3f, 0xfb, 0x39, 0x0a, 0x3e, 0xa1, 0xaa, 0xcd, 0xbe,
  0xd5, 0xda, 0x1c, 0x3e, 0x7e, 0x81, 0x20, 0xbc, 0xd0, 0x77, 0x8b, 0x3d,
  0xc9, 0xe2, 0x08, 0xbd, 0x53, 0xa9, 0xc0, 0x3d, 0xbb, 0x4c, 0xe8, 0xbc,
  0xde, 0x51, 0xe6, 0x3d, 0xb3, 0xb6, 0x83, 0x3e, 0x1d, 0x24, 0x97, 0xbd,
  0xb8, 0xdf, 0x8f, 0x3b, 0xd4, 0x31, 0x12, 0x3e, 0xe4, 0x09, 0x4b, 0x3d,
  0xed, 0x37, 0x1d, 0x3e, 0x61, 0xfa, 0x19, 0x3f, 0xb3, 0x78, 0xeb, 0xbd,
  0x28, 0x0c, 0x84, 0x3e, 0xf9, 0xc9, 0xa3, 0xbd, 0xe9, 0xe7, 0x46, 0x3e,
  0x5a, 0xf0, 0x9d, 0xbd, 0x1f, 0xa4, 0x1f, 0x3e, 0x92, 0x26, 0x98, 0x3d,
  0x23, 0xc9, 0x9a, 0xbd, 0xa2, 0x6f, 0x63, 0xbd, 0xab, 0x64, 0x46, 0x3e,
  0x82, 0x99, 0x11, 0xbe, 0x08, 0x14, 0x2a, 0xbd, 0xb6, 0xaf, 0xd6, 0xbd,
  0x36, 0x0e, 0xd9, 0xbe, 0x8d, 0x50, 0xbd, 0xbd, 0x5b, 0xd3, 0x41, 0x3e,
  0x44, 0x87, 0x71, 0xbe, 0x2c, 0x2d, 0x32, 0x3e, 0x56, 0x98, 0xc3, 0x3d,
  0x4c, 0xad, 0x0d, 0xbe, 0x8d, 0xd5, 0xb7, 0xbb, 0x55, 0x1b, 0x3b, 0xbe,
  0x50, 0x0a, 0xfe, 0xbb, 0x30, 0xe8, 0xa4, 0x3d, 0x1c, 0x61, 0xa6, 0xbd,
  0xd6, 0xac, 0x19, 0xbc, 0x74, 0x6f, 0x6a, 0xbd, 0x65, 0xb9, 0x8f, 0xbd,
  0x26, 0x76, 0x1c, 0xbd, 0x2f, 0x8c, 0x0f, 0xbe, 0xbe, 0x38, 0x95, 0xbe,
  0x7e, 0x3c, 0xa4, 0x3e, 0x83, 0x0a, 0x08, 0xbe, 0x61, 0xb3, 0xee, 0xbd,
  0x3d, 0x7e, 0x23, 0xbe, 0x40, 0x41, 0xc3, 0xbe, 0x99, 0xe1, 0x25, 0xbe,
  0x8e, 0x56, 0x16, 0xbc, 0x00, 0x1c, 0x0a, 0xbe, 0xb2, 0x4a, 0x12, 0x3e,
  0xe0, 0x87, 0x56, 0x3e, 0x46, 0x9e, 0xef, 0xbc, 0xb2, 0xee, 0x9b, 0xbd,
  0x40, 0xf4, 0x00, 0x3c, 0xf1, 0xc6, 0xa6, 0x3c, 0x70, 0xf8, 0xac, 0xbe,
  0x09, 0x3d, 0x9d, 0x3d, 0x12, 0x26, 0x03, 0xbd, 0x90, 0x33, 0x37, 0x3d,
  0x16, 0xa1, 0x20, 0xbe, 0x46, 0x52, 0x80, 0xbe, 0x94, 0xda, 0xfa, 0xbe,
  0xed, 0x71, 0x41, 0xbe, 0x28, 0x59, 0x29, 0xbf, 0xfa, 0xc1, 0xaa, 0x3e,
  0xe5, 0xb7, 0xaa, 0x3d, 0xc0, 0x93, 0xb7, 0xbc, 0xb6, 0x52, 0x11, 0x3a,
  0xb6, 0xb7, 0x28, 0x3e, 0x7a, 0xce, 0xb2, 0xbc, 0xb3, 0x59, 0x97, 0xbd,
  0x94, 0x65, 0x21, 0xbd, 0xad, 0xde, 0x73, 0x3d, 0xa8, 0x34, 0x80, 0x3e,
  0xca, 0x1e, 0x0e, 0x3d, 0x4d, 0x8b, 0x92, 0x3e, 0x9e, 0x2e, 0x65, 0xbe,
  0x3f, 0x0e, 0xd2, 0xbe, 0x57, 0x15, 0x6b, 0xbe, 0xcd, 0x93, 0xe5, 0xbe,
  0x48, 0xbe, 0xd6, 0x3e, 0xdd, 0x2f, 0x9a, 0xbb, 0xc9, 0x4a, 0xfe, 0xbd,
  0x76, 0x9b, 0xe2, 0x3c, 0xd1, 0x6f, 0x32, 0xbd, 0x61, 0xbf, 0xf4, 0x3a,
  0xad, 0x2b, 0x9d, 0x3d, 0x8b, 0xa7, 0x81, 0xbd, 0xd6, 0x9e, 0xd9, 0xbe,
  0xbd, 0x96, 0x59, 0x3e, 0x21, 0x42, 0xaa, 0xbd, 0x19, 0xa4, 0x2a, 0x3f,
  0xbf, 0x12, 0xe9, 0xbd, 0x77, 0xff, 0x9f, 0xbe, 0x5b, 0x9b, 0x21, 0xbe,
  0x5b, 0x7a, 0xb8, 0xbe, 0xf9, 0xd0, 0xda, 0x3e, 0x87, 0xb7, 0x31, 0x3d,
  0xc6, 0xc8, 0x6b, 0xbd, 0x7f, 0xc7, 0x4b, 0x3c, 0xc7, 0x4b, 0x79, 0xbc,
  0x79, 0x34, 0x78, 0x3d, 0x66, 0x41, 0x3d, 0x3b, 0xba, 0xa8, 0x35, 0x3d,
  0xdd, 0x06, 0xf4, 0xbb, 0x00, 0x6d, 0xc6, 0x3c, 0xc8, 0x73, 0xfe, 0x3d,
  0xd7, 0xea, 0x9a, 0x3b, 0xf0, 0x24, 0x40, 0xbe, 0x18, 0x3b, 0x90, 0xbe,
  0x1e, 0x4b, 0xd9, 0x3c, 0xb3, 0x5e, 0xeb, 0x3d, 0x16, 0x87, 0x73, 0xbe,
  0x6a, 0xde, 0x98, 0xbd, 0xfc, 0x71, 0x96, 0x3d, 0x66, 0x44, 0x13, 0xbe,
  0x8f, 0x17, 0xcd, 0x3e, 0x70, 0xc6, 0xe4, 0xbe, 0x2e, 0x48, 0xb7, 0xbe,
  0x9a, 0x25, 0xd0, 0xbe, 0x4a, 0xe4, 0xc2, 0xbe, 0x3b, 0x48, 0xea, 0x3e,
  0xf9, 0x6c, 0x2d, 0xbd, 0xe3, 0xa1, 0x90, 0xbe, 0x13, 0xad, 0xa2, 0xbd,
  0xfd, 0x79, 0xc8, 0x3d, 0x73, 0x12, 0xbc, 0x3d, 0x16, 0xbe, 0xbb, 0x3c,
  0x91, 0xb3, 0x47, 0xbd, 0x2b, 0x95, 0x86, 0xbc, 0x30, 0x75, 0xab, 0xbb,
  0x6f, 0xd7, 0x62, 0xbe, 0x5d, 0x7d, 0x17, 0x3e, 0x97, 0x3b, 0x01, 0xbf,
  0xae, 0xb8, 0x23, 0xbe, 0x28, 0xf7, 0x71, 0xbe, 0x7c, 0x35, 0x85, 0xbe,
  0x85, 0x5e, 0xf8, 0x3f, 0x9f, 0x7c, 0x9a, 0xbd, 0xe3, 0x6c, 0x1e, 0x3e,
  0x13, 0xa2, 0x85, 0x3e, 0x85, 0x2a, 0xf8, 0xba, 0x8b, 0xa0, 0xb4, 0x3c,
  0x11, 0xeb, 0x4c, 0x3e, 0x24, 0xa2, 0x8d, 0x3d, 0xb7, 0xd1, 0xfa, 0x3d,
  0x65, 0x7f, 0x9d, 0x3d, 0xdc, 0x05, 0x48, 0x3d, 0xbc, 0x74, 0x51, 0x3d,
  0xca, 0xb0, 0x12, 0xbf, 0xb6, 0xaa, 0x36, 0xbe, 0x73, 0x5e, 0x34, 0xbf,
  0xcd, 0xb3, 0x2b, 0xbe, 0x40, 0xbf, 0xc0, 0x3f, 0x87, 0x1f, 0xa3, 0x3e,
  0x96, 0x87, 0xb8, 0x3d, 0x86, 0xf2, 0x80, 0x3e, 0x9a, 0x68, 0x13, 0x3e,
  0x31, 0x5a, 0x26, 0x3e, 0xf2, 0x37, 0xd0, 0xbc, 0x33, 0xcb, 0xb5, 0xbb,
  0xa1, 0x07, 0x8d, 0x3d, 0xe1, 0xbc, 0x99, 0x3c, 0x75, 0xa7, 0x62, 0xbc,
  0x78, 0x0b, 0xff, 0x3c, 0xfe, 0x84, 0x39, 0xbf, 0xd8, 0xe5, 0x52, 0xbe,
  0xe0, 0x5f, 0x2f, 0xbf, 0x56, 0xe2, 0x5b, 0xbd, 0xde, 0x44, 0x62, 0x3f,
  0x83, 0x14, 0x35, 0x3e, 0xce, 0x13, 0xe2, 0x3d, 0xe4, 0x9c, 0x2c, 0x3e,
  0xc4, 0xf5, 0x7f, 0x3e, 0x22, 0xe3, 0x5f, 0x3e, 0xfb, 0x32, 0x51, 0x3e,
  0xf2, 0x52, 0x0a, 0xbe, 0x55, 0x6d, 0xf4, 0x3c, 0x5a, 0xe4, 0x24, 0x3c,
  0x33, 0x79, 0x94, 0xbd, 0x71, 0xc9, 0xd3, 0x3e, 0xf0, 0x42, 0x01, 0xbf,
  0x9c, 0x0e, 0xb3, 0xbe, 0x26, 0x79, 0xac, 0xbe, 0x57, 0x77, 0x0c, 0xbe,
  0x46, 0x16, 0x9e, 0x3f, 0x72, 0x3a, 0x55, 0x3e, 0x21, 0xda, 0xad, 0xbe,
  0xe5, 0xe3, 0xca, 0x3d, 0x78, 0x33, 0x8c, 0x3d, 0x1f, 0xdb, 0xbf, 0x3e,
  0xcb, 0x77, 0xe4, 0xbd, 0x6d, 0xd6, 0xff, 0xbe, 0x18, 0x37, 0xc5, 0xbd,
  0xed, 0x4a, 0x09, 0x3e, 0xa5, 0x2b, 0xcb, 0xbb, 0xd0, 0xe4, 0xa0, 0x3e,
  0x51, 0xa4, 0xdc, 0xbe, 0x19, 0x91, 0xb1, 0xbd, 0x54, 0x82, 0x20, 0xbf,
  0x26, 0x5d, 0x22, 0xbe, 0x98, 0x82, 0x41, 0x3f, 0xf4, 0x74, 0xa7, 0x3e,
  0xe2, 0x02, 0x13, 0x3e, 0x9e, 0xfa, 0xb1, 0x3d, 0x8c, 0xd5, 0x92, 0xbd,
  0xef, 0xf5, 0x95, 0x3e, 0xb2, 0x2a, 0x5f, 0xbd, 0x12, 0x8c, 0x39, 0xbe,
  0x88, 0x15, 0x81, 0x3c, 0xf5, 0x54, 0x54, 0xbe, 0x6a, 0x97, 0x5e, 0xbb,
  0xdb, 0x34, 0x82, 0xbe, 0x8e, 0xef, 0x1f, 0xbe, 0x74, 0x05, 0x6a, 0xbe,
  0x24, 0x41, 0x59, 0xbf, 0x37, 0x03, 0xcc, 0xbe, 0x1e, 0xf1, 0x80, 0x3f,
  0x8b, 0xba, 0xf3, 0x3c, 0x08, 0xad, 0xab, 0xbe, 0x9f, 0x60, 0x0a, 0x3e,
  0x49, 0x32, 0x12, 0x3d, 0x1b, 0xdd, 0xe4, 0xbc, 0x62, 0x3e, 0x13, 0xbe,
  0x08, 0xca, 0xcc, 0x3c, 0x05, 0x84, 0x45, 0xbe, 0x81, 0xbb, 0xc1, 0x3d,
  0x37, 0x22, 0x87, 0x3d, 0xc5, 0xff, 0x8a, 0xbd, 0x25, 0x63, 0x6f, 0xbd,
  0x0b, 0xb8, 0x9d, 0x3b, 0x4b, 0x3d, 0x0e, 0x3e, 0x48, 0x82, 0xc8, 0xbd,
  0xb8, 0x6c, 0xae, 0x3e, 0x56, 0x38, 0x4d, 0xbe, 0x30, 0x42, 0xbb, 0xbd,
  0x57, 0x05, 0xbf, 0xbd, 0xd1, 0xc3, 0x85, 0xbd, 0x8d, 0xc6, 0xda, 0xbe,
  0x05, 0x4a, 0xa7, 0x3d, 0xb8, 0x16, 0xb0, 0x3e, 0xe5, 0xc3, 0x1a, 0xbe,
  0x70, 0xc5, 0x96, 0xbe, 0x70, 0xf8, 0xcb, 0x3d, 0xaa, 0xc3, 0x85, 0xbe,
  0x8f, 0x2c, 0xe3, 0xbd, 0x82, 0xe6, 0x6c, 0x3e, 0xda, 0x51, 0x4c, 0x3e,
  0x11, 0xcd, 0xee, 0x3d, 0x9a, 0x99, 0xa3, 0xbd, 0x5f, 0xe7, 0xc8, 0x3d,
  0x56, 0x0e, 0x2f, 0xbe, 0x37, 0x37, 0x7a, 0xbd, 0x0a, 0x4a, 0x83, 0xbd,
  0xba, 0x8a, 0xd5, 0xbe, 0xa8, 0xc5, 0xe5, 0x3d, 0x55, 0x64, 0x71, 0x3e,
  0x46, 0x3d, 0x4f, 0xbc, 0x6c, 0x31, 0xb5, 0xbd, 0x74, 0x0b, 0x30, 0x3e,
  0x77, 0x6a, 0xfb, 0xbd, 0xf8, 0xdb, 0x29, 0xbe, 0xcf, 0xb6, 0xaa, 0x3e,
  0xda, 0x4a, 0x9e, 0x3b, 0x13, 0xa8, 0x7f, 0xbd, 0x48, 0x4e, 0xbd, 0x3c,
  0xa1, 0x78, 0xfb, 0x3d, 0x60, 0x02, 0x61, 0xbd, 0x74, 0xb0, 0xf6, 0xbc,
  0x49, 0xc4, 0x84, 0xbd, 0xf1, 0x1d, 0xb4, 0xbd, 0xc6, 0xa4, 0xd5, 0xbd,
  0x76, 0x5f, 0x68, 0x3b, 0x55, 0x53, 0xe8, 0xbc, 0x72, 0x80, 0x01, 0xbd,
  0xe4, 0x46, 0x30, 0x3e, 0x4e, 0x20, 0x78, 0x3d, 0xdf, 0xd3, 0x50, 0x3d,
  0xfe, 0xd9, 0xa8, 0x3e, 0x7a, 0x4c, 0x26, 0xbe, 0x23, 0xe5, 0x83, 0xbc,
  0xa1, 0xaf, 0x87, 0xbc, 0x7f, 0x44, 0x93, 0x3c, 0xdf, 0x0a, 0xb9, 0x3d,
  0x54, 0x53, 0x8f, 0xbd, 0xf9, 0x5f, 0x50, 0x3c, 0x6f, 0x61, 0x27, 0xbc,
  0xc2, 0x8c, 0xcb, 0xbd, 0x53, 0xd1, 0x99, 0xbd, 0x65, 0xa4, 0x02, 0x3d,
  0x7c, 0xff, 0xc2, 0xbc, 0x88, 0x11, 0xfe, 0x3d, 0xa1, 0xd1, 0x1c, 0x3d,
  0x99, 0x31, 0xd8, 0xbd, 0x41, 0x67, 0x59, 0x3e, 0xa5, 0xfb, 0x08, 0x3e,
  0x9a, 0x03, 0xb2, 0x3e, 0x8d, 0x4a, 0xb3, 0x3d, 0x9b, 0x48, 0x8c, 0x3d,
  0x03, 0x36, 0x2f, 0x3d, 0x57, 0xdd, 0x02, 0xbe, 0x78, 0xf1, 0x22, 0xbe,
  0xc0, 0xcb, 0xfe, 0xbd, 0x8e, 0x77, 0xef, 0xbe, 0xf5, 0xb3, 0xfa, 0xbd,
  0x14, 0xef, 0xa0, 0xbe, 0xb0, 0x8e, 0x1e, 0xbd, 0x25, 0xdc, 0xca, 0x3d,
  0xf7, 0x4a, 0xae, 0x3d, 0x53, 0x9c, 0x81, 0xbd, 0x4d, 0x81, 0x49, 0x3e,
  0x61, 0xf7, 0xf9, 0x3c, 0xc3, 0x24, 0x39, 0x3c, 0xde, 0xfc, 0x60, 0x3d,
  0x7e, 0xe4, 0x59, 0xbd, 0xb6, 0x67, 0xf2, 0x3c, 0x7a, 0x6a, 0x71, 0xbe,
  0xac, 0xd8, 0x87, 0xbe, 0x40, 0x4c, 0xf5, 0xbd, 0xc3, 0x48, 0x05, 0xbe,
  0x4f, 0xda, 0x40, 0xbe, 0x52, 0x8c, 0x5f, 0x3d, 0x9f, 0xea, 0xe7, 0xbd,
  0x92, 0x9a, 0x4d, 0x3d, 0x66, 0xb8, 0xac, 0x3d, 0x8b, 0x07, 0xaf, 0x3d,
  0x4f, 0x74, 0x50, 0x3d, 0xe0, 0xb4, 0x52, 0xbd, 0xfd, 0x8e, 0x67, 0xbe,
  0xfb, 0xe8, 0xd6, 0xbd, 0xc4, 0x57, 0xa8, 0x3c, 0xe5, 0x78, 0xdf, 0xbd,
  0x6a, 0x71, 0x37, 0xbe, 0x3b, 0xb5, 0x01, 0xbd, 0xd0, 0x7b, 0x4c, 0x3c,
  0x91, 0x34, 0x09, 0xbf, 0x58, 0x0b, 0x61, 0xbe, 0x06, 0xab, 0xd2, 0xbe,
  0xfd, 0xfe, 0x3d, 0xbf, 0x9d, 0x01, 0xe7, 0xbd, 0x78, 0xa9, 0xa6, 0xbe,
  0xc9, 0xf4, 0x33, 0xbf, 0x70, 0xcd, 0x19, 0xbe, 0x6c, 0x49, 0x33, 0xbe,
  0x9d, 0x4a, 0x23, 0x3d, 0x41, 0xaa, 0x8e, 0x3c, 0xc5, 0x42, 0xd5, 0xbe,
  0x7c, 0x70, 0x10, 0xbe, 0xf4, 0xd0, 0xcd, 0xbe, 0x57, 0x21, 0xa1, 0xbc,
  0x44, 0x09, 0xe2, 0xbe, 0xd6, 0x7f, 0xb8, 0xbe, 0x20, 0xee, 0xc9, 0xbe,
  0x66, 0x0a, 0xff, 0xbe, 0x37, 0xc9, 0x48, 0x3c, 0xc2, 0x29, 0x07, 0xbd,
  0xd6, 0xcd, 0xc2, 0xbd, 0xa4, 0x68, 0x99, 0xbe, 0x4c, 0x65, 0x9b, 0xbd,
  0xee, 0x35, 0x82, 0xbd, 0xb3, 0xbd, 0x03, 0xbe, 0x43, 0xac, 0xa8, 0xbd,
  0xe8, 0xc1, 0xb2, 0x3d, 0x20, 0x3e, 0x9b, 0xbd, 0xff, 0xd5, 0xe4, 0xbd,
  0x75, 0x84, 0x3c, 0xbd, 0x12, 0xb4, 0x91, 0xbe, 0x7d, 0x51, 0x4f, 0xbe,
  0x05, 0xb0, 0x0f, 0xbe, 0xc2, 0x33, 0x21, 0xbf, 0xa3, 0x98, 0x97, 0xbe,
  0x3f, 0xfc, 0xd6, 0x3c, 0xd6, 0xec, 0x50, 0xbe, 0xb6, 0xe7, 0x8f, 0xbe,
  0xfa, 0xc9, 0xf0, 0xbd, 0x78, 0x7e, 0xf1, 0xbc, 0x45, 0xbb, 0xb0, 0x3d,
  0x2b, 0x15, 0xfa, 0xbd, 0xdb, 0x20, 0x00, 0x3e, 0x92, 0x8a, 0x08, 0xbd,
  0x53, 0xfa, 0xf0, 0xbe, 0x7e, 0x35, 0xa1, 0xbd, 0x67, 0xfc, 0x06, 0xbe,
  0xd8, 0x9b, 0xc1, 0xbe, 0x23, 0x95, 0xba, 0x3e, 0xe7, 0xbd, 0x25, 0xbe,
  0x18, 0x63, 0x8e, 0xbe, 0x8e, 0xbd, 0xba, 0xbc, 0x76, 0x1d, 0xe0, 0x3d,
  0x70, 0x2e, 0xc0, 0xbe, 0x18, 0x47, 0xc2, 0xbe, 0xf1, 0xac, 0x4f, 0xbe,
  0xd3, 0x03, 0x83, 0xbd, 0x02, 0xa9, 0xb9, 0x3e, 0x5d, 0xd8, 0x2e, 0x3d,
  0xce, 0xb1, 0x2f, 0xbe, 0x33, 0x91, 0x42, 0xbf, 0x2f, 0x55, 0xce, 0xbe,
  0x1d, 0xa2, 0x67, 0xbe, 0x02, 0xc3, 0x65, 0xbb, 0x62, 0x96, 0x21, 0x3e,
  0xfa, 0xb3, 0x77, 0x3c, 0x5e, 0xe0, 0x09, 0xbe, 0x71, 0x8f, 0xe7, 0xbb,
  0x0a, 0xfa, 0xed, 0xbd, 0x4f, 0x91, 0x61, 0xbe, 0x19, 0x56, 0xfc, 0x3d,
  0x1e, 0xec, 0xa3, 0xbe, 0xd8, 0xd1, 0x60, 0xbd, 0xab, 0x8a, 0x40, 0x3e,
  0x74, 0x42, 0xe6, 0x3c, 0x69, 0xf4, 0xaa, 0x3e, 0xf6, 0x2b, 0x1a, 0xbd,
  0xd4, 0x76, 0xd1, 0x3d, 0xe7, 0xc8, 0x46, 0xbe, 0xd4, 0x9e, 0x1d, 0x3d,
  0x41, 0x83, 0x5f, 0x3e, 0xe3, 0x4e, 0x69, 0xbd, 0x65, 0x59, 0xc2, 0xbd,
  0x22, 0x1a, 0x2e, 0x3e, 0x40, 0xea, 0x8f, 0xbe, 0x2a, 0x88, 0x3e, 0x3e,
  0x1b, 0xf1, 0xc8, 0x3d, 0x83, 0x40, 0x06, 0xbf, 0xfc, 0x4c, 0x35, 0xbe,
  0xcf, 0x0a, 0x2f, 0xbd, 0x2b, 0xd0, 0x48, 0xbe, 0xe2, 0xd7, 0x14, 0x3e,
  0x5b, 0xd7, 0xaf, 0x3c, 0x09, 0x8b, 0xc5, 0x3d, 0xbf, 0x04, 0x1c, 0xbe,
  0x86, 0xbc, 0x90, 0xbc, 0xab, 0xa8, 0x8b, 0x3e, 0xfb, 0x0a, 0xba, 0xbc,
  0x35, 0x83, 0x9b, 0xbd, 0x42, 0x26, 0xa8, 0x3d, 0x3d, 0xf9, 0xc6, 0xbd,
  0xef, 0xb3, 0x2f, 0xbd, 0x3c, 0x0d, 0xe9, 0xbd, 0xd7, 0x70, 0x1c, 0xbf,
  0x81, 0x0f, 0xcb, 0xbd, 0x66, 0x50, 0x01, 0xbe, 0x9a, 0x59, 0xe6, 0xbd,
  0x0b, 0xa2, 0x7d, 0x3e, 0x77, 0xd8, 0x86, 0x3d, 0x2f, 0xa3, 0xc0, 0x3d,
  0xe0, 0x2f, 0x76, 0x3d, 0xe8, 0x87, 0x1a, 0x3d, 0x69, 0xaa, 0x4d, 0x3d,
  0x59, 0xb1, 0xc3, 0xbd, 0x0b, 0x59, 0xd2, 0x3d, 0x98, 0xf9, 0x06, 0xbc,
  0x07, 0x26, 0xa4, 0x3d, 0xb7, 0x49, 0x9c, 0xbe, 0x2b, 0x44, 0x87, 0xbc,
  0xf2, 0x92, 0xe8, 0xbd, 0xce, 0x44, 0x32, 0x3e, 0xdc, 0xca, 0x94, 0x3e,
  0x05, 0x56, 0x70, 0x3d, 0x9e, 0x5a, 0x29, 0x3c, 0xa6, 0xe8, 0x0b, 0x3d,
  0xb1, 0x0f, 0x75, 0x3d, 0x9a, 0xfc, 0x77, 0x3e, 0xfc, 0xb7, 0x1e, 0x3e,
  0x7f, 0x55, 0x84, 0xbd, 0xd0, 0xc1, 0x85, 0xbd, 0x33, 0x1b, 0xf3, 0xbc,
  0xff, 0xf5, 0x87, 0xbd, 0x24, 0x6b, 0xaa, 0x3c, 0x46, 0x94, 0x35, 0xbf,
  0x28, 0xc1, 0x66, 0xbe, 0x7e, 0x52, 0xf7, 0xbe, 0xdc, 0x2b, 0x66, 0xbe,
  0x55, 0x61, 0x8f, 0x3f, 0xf2, 0xa9, 0x5e, 0x3d, 0xa8, 0x54, 0xc1, 0xbd,
  0x7f, 0xdd, 0x35, 0x3d, 0x80, 0xc5, 0xa0, 0xbd, 0xdc, 0x59, 0x47, 0x3d,
  0x87, 0x7e, 0x36, 0x3d, 0x78, 0xd2, 0x89, 0x3c, 0x29, 0x74, 0x06, 0x3d,
  0x13, 0xc1, 0x15, 0x3e, 0xc4, 0x16, 0x66, 0x3c, 0xdf, 0xe3, 0xbc, 0x3d,
  0x6f, 0x86, 0x15, 0xbf, 0x48, 0x2f, 0x0b, 0xbe, 0x86, 0xe4, 0x12, 0xbf,
  0x42, 0x61, 0x91, 0xbe, 0x12, 0x5b, 0x70, 0x3f, 0x1c, 0x74, 0x80, 0xbc,
  0x1a, 0x65, 0x80, 0x3d, 0xc4, 0xf8, 0x19, 0xbc, 0x27, 0x3a, 0xc9, 0x3d,
  0xa5, 0x9c, 0xb1, 0x3d, 0xb0, 0xf3, 0x0c, 0xbd, 0x92, 0x68, 0x1c, 0xbe,
  0x32, 0xe4, 0x47, 0xbd, 0x3c, 0xe6, 0x08, 0xbe, 0x5c, 0x9b, 0x2c, 0x3c,
  0x97, 0x91, 0x99, 0x3d, 0xda, 0x25, 0x50, 0xbf, 0x85, 0x1f, 0xa8, 0xbe,
  0x87, 0x04, 0xad, 0xbe, 0x35, 0xdc, 0xa3, 0xbe, 0x86, 0xda, 0x7f, 0x3f,
  0x07, 0x05, 0x46, 0x3e, 0x97, 0x43, 0x90, 0xbd, 0x17, 0x0b, 0x4f, 0x3d,
  0x68, 0xab, 0x4f, 0x3b, 0x1d, 0x87, 0x89, 0x3d, 0xb1, 0xff, 0x86, 0x3d,
  0xac, 0xd2, 0x1e, 0x3d, 0x43, 0xcd, 0x02, 0x3e, 0x2c, 0x48, 0x2f, 0x3d,
  0x35, 0x71, 0x23, 0xbb, 0xda, 0x6e, 0x17, 0x3e, 0x7f, 0x36, 0x25, 0xbf,
  0xb0, 0xcb, 0x63, 0xbe, 0x10, 0xa1, 0x13, 0xbd, 0x69, 0x1c, 0xa8, 0xbe,
  0xfc, 0x3a, 0x53, 0x3f, 0xac, 0x17, 0x02, 0x3e, 0x2c, 0x9f, 0xae, 0xbd,
  0x53, 0x8c, 0x86, 0x3d, 0x1f, 0x04, 0xb5, 0x3c, 0x1b, 0x4f, 0x12, 0x3e,
  0x7b, 0x09, 0x6f, 0x3d, 0x15, 0x43, 0x11, 0x3e, 0xa0, 0xb9, 0xd3, 0x3d,
  0xcb, 0x83, 0x6e, 0x3d, 0xd0, 0xe9, 0xe3, 0xbc, 0x16, 0x7b, 0xe7, 0x3d,
  0xce, 0xf5, 0xe8, 0xbe, 0x8d, 0xac, 0x35, 0xbe, 0xf1, 0xbe, 0x8a, 0xbe,
  0x11, 0x2a, 0x99, 0xbe, 0xbb, 0xa2, 0x3b, 0x3f, 0x47, 0x7a, 0xaa, 0x3d,
  0x18, 0xbf, 0x9d, 0x3d, 0x76, 0x2a, 0x2c, 0xba, 0x64, 0xc9, 0x1f, 0x3c,
  0xaf, 0x5e, 0xef, 0x3d, 0x73, 0xd8, 0x97, 0x3d, 0x29, 0x63, 0x39, 0x3e,
  0x26, 0xf9, 0x92, 0xbc, 0xc2, 0x48, 0xba, 0x3c, 0x00, 0x4f, 0x76, 0x3a,
  0x9a, 0x41, 0xe8, 0x3c, 0x01, 0x8f, 0x90, 0xbd, 0xeb, 0xc6, 0xbd, 0xbd,
  0x41, 0x51, 0x11, 0xbd, 0x3f, 0x0d, 0xeb, 0xbc, 0x4f, 0x73, 0x87, 0x3f,
  0x8a, 0x9f, 0xfb, 0x3b, 0x94, 0x9d, 0xe4, 0xbd, 0x4b, 0x92, 0x61, 0x3d,
  0xf8, 0x13, 0x2c, 0x3d, 0xdb, 0xde, 0x13, 0x3d, 0xff, 0x50, 0x19, 0xbd,
  0xe3, 0xa7, 0x1f, 0xbe, 0x78, 0xb4, 0x24, 0x3c, 0x1d, 0xf5, 0xfc, 0xbd,
  0x0b, 0x7a, 0xa9, 0xbd, 0x27, 0xbe, 0x4b, 0x3c, 0x0d, 0x58, 0x41, 0xbe,
  0xb2, 0xde, 0xd7, 0xbc, 0x8f, 0x4c, 0x0e, 0x3d, 0xe1, 0xa3, 0x69, 0x3d,
  0x40, 0x6f, 0x52, 0x3c, 0xfc, 0xb4, 0x0b, 0xbe, 0x9b, 0x74, 0x37, 0xbe,
  0x44, 0xc0, 0x58, 0xbe, 0x7c, 0xa7, 0x32, 0xbe, 0x61, 0x62, 0x48, 0xbe,
  0xb7, 0x2b, 0x6b, 0xbe, 0x01, 0x54, 0x12, 0x3e, 0x09, 0x1f, 0x80, 0xbc,
  0xd0, 0x63, 0xa0, 0xbe, 0xe5, 0x0c, 0x84, 0xbe, 0xc8, 0xf3, 0xd6, 0xbc,
  0xe4, 0x8c, 0x76, 0xbd, 0x17, 0xbf, 0x39, 0xbc, 0xb4, 0x8f, 0x7a, 0xbe,
  0x8d, 0x7a, 0x10, 0x3d, 0xd8, 0x50, 0x65, 0xbe, 0xdd, 0xca, 0x0c, 0xbe,
  0xce, 0x36, 0x2e, 0x3d, 0xd1, 0x4b, 0xad, 0x3d, 0x2c, 0xb0, 0x22, 0xbd,
  0x6b, 0x22, 0x60, 0xbe, 0xb6, 0xd4, 0xb1, 0xbd, 0x98, 0x2e, 0x6e, 0xbe,
  0xd3, 0x93, 0x59, 0xbe, 0x47, 0x97, 0x15, 0xbd, 0x3f, 0x19, 0x59, 0xbe,
  0xdb, 0xb7, 0x37, 0xbe, 0x17, 0xf8, 0xa3, 0x3d, 0x4b, 0xdf, 0x0f, 0xbe,
  0xa6, 0x83, 0x74, 0x3c, 0xce, 0x41, 0x15, 0xbd, 0xeb, 0x29, 0x12, 0x3e,
  0xae, 0x07, 0x9e, 0xbc, 0xa3, 0xce, 0x0b, 0x3d, 0x90, 0x9a, 0x89, 0xbd,
  0xbe, 0xc4, 0x80, 0xbd, 0x6a, 0x70, 0x83, 0xbe, 0x66, 0x1c, 0xa3, 0x3c,
  0xe6, 0x4e, 0x6b, 0xbe, 0x38, 0xd9, 0x2c, 0xbe, 0x25, 0x26, 0x9b, 0xbe,
  0xa7, 0xea, 0xa9, 0x3c, 0x29, 0x4f, 0x14, 0xbe, 0xcf, 0xba, 0xb6, 0xbd,
  0x24, 0x92, 0x0c, 0xbe, 0xd6, 0x94, 0x0d, 0xbe, 0x33, 0x36, 0xc9, 0x3d,
  0xb1, 0x92, 0xad, 0x3d, 0xb8, 0x58, 0x6d, 0xbc, 0xa8, 0x79, 0x44, 0x3e,
  0xec, 0x26, 0x35, 0xbc, 0xfc, 0x8e, 0x73, 0xbe, 0xe1, 0x48, 0x25, 0x3d,
  0xab, 0xa7, 0x95, 0xbe, 0x26, 0x7f, 0xab, 0x3d, 0xab, 0x85, 0x9e, 0xbd,
  0xd3, 0x4d, 0x69, 0xbe, 0x40, 0xcf, 0x1c, 0x3b, 0xf1, 0x0d, 0x14, 0xbe,
  0x8e, 0x18, 0x30, 0xbe, 0x8a, 0xf6, 0xae, 0x3c, 0xf3, 0xbc, 0x6e, 0xbe,
  0xf1, 0x0d, 0x22, 0xbe, 0xb7, 0x7b, 0xb8, 0x3d, 0x20, 0xc6, 0xec, 0x3d,
  0xd8, 0xad, 0x80, 0xbd, 0xfc, 0xd9, 0xe1, 0xbb, 0x0f, 0xd9, 0x25, 0xbe,
  0x6a, 0xf6, 0x1b, 0xbe, 0xcf, 0x91, 0x13, 0x3d, 0x4c, 0xa6, 0xd8, 0xbd,
  0xfa, 0x67, 0x6b, 0xbe, 0x17, 0xa8, 0x37, 0xbe, 0xec, 0xf8, 0x1b, 0xbe,
  0x40, 0x99, 0x17, 0xbe, 0x74, 0xa1, 0x41, 0xbe, 0x82, 0x39, 0xd5, 0x3d,
  0x7d, 0xbe, 0x40, 0x3d, 0x88, 0x84, 0x57, 0xbe, 0xd2, 0x95, 0x5b, 0x3d,
  0xba, 0x8e, 0x19, 0xbe, 0x4b, 0xde, 0x3f, 0xbd, 0x07, 0x8e, 0x95, 0x3c,
  0x5c, 0xb2, 0x23, 0x3c, 0x32, 0x99, 0xee, 0xbd, 0x42, 0x52, 0x0e, 0xbc,
  0x3a, 0xca, 0x06, 0xbd, 0x09, 0xbf, 0x66, 0xbd, 0xad, 0xd3, 0xb2, 0xbd,
  0x95, 0x01, 0x17, 0xbd, 0xe4, 0xeb, 0xa1, 0xbe, 0xe2, 0x7c, 0x27, 0xbe,
  0x39, 0x2b, 0x7d, 0xbe, 0xfa, 0x53, 0xfd, 0xbd, 0x97, 0xff, 0x69, 0xbd,
  0x6e, 0xb1, 0xbf, 0xbd, 0x0c, 0x48, 0x06, 0xbe, 0x13, 0x05, 0x93, 0xbd,
  0x03, 0x3e, 0x35, 0xbe, 0x94, 0xd3, 0x70, 0xbe, 0x83, 0x17, 0xa4, 0xbe,
  0x46, 0xfe, 0xff, 0xff, 0x10, 0x00, 0x00, 0x00, 0x05, 0x00, 0x00, 0x00,
  0x14, 0x00, 0x00, 0x00, 0x2c, 0x00, 0x00, 0x00, 0x02, 0x00, 0x00, 0x00,
  0x10, 0x00, 0x00, 0x00, 0x70, 0x00, 0x00, 0x00, 0x17, 0x00, 0x00, 0x00,
  0x73, 0x65, 0x71, 0x75, 0x65, 0x6e, 0x74, 0x69, 0x61, 0x6c, 0x2f, 0x64,
  0x65, 0x6e, 0x73, 0x65, 0x2f, 0x4d, 0x61, 0x74, 0x4d, 0x75, 0x6c, 0x00,
  0x34, 0xfe, 0xff, 0xff, 0x2a, 0xff, 0xff, 0xff, 0x04, 0x00, 0x00, 0x00,
  0x08, 0x00, 0x00, 0x00, 0xff, 0xff, 0xff, 0xff, 0x70, 0x00, 0x00, 0x00,
  0x00, 0x00, 0x0e, 0x00, 0x18, 0x00, 0x08, 0x00, 0x07, 0x00, 0x0c, 0x00,
  0x10, 0x00, 0x14, 0x00, 0x0e, 0x00, 0x00, 0x00, 0x00, 0x00, 0x00, 0x02,
  0x10, 0x00, 0x00, 0x00, 0x04, 0x00, 0x00, 0x00, 0x10, 0x00, 0x00, 0x00,
  0x2c, 0x00, 0x00, 0x00, 0x01, 0x00, 0x00, 0x00, 0x02, 0x00, 0x00, 0x00,
  0x18, 0x00, 0x00, 0x00, 0x73, 0x65, 0x71, 0x75, 0x65, 0x6e, 0x74, 0x69,
  0x61, 0x6c, 0x2f, 0x66, 0x6c, 0x61, 0x74, 0x74, 0x65, 0x6e, 0x2f, 0x43,
  0x6f, 0x6e, 0x73, 0x74, 0x00, 0x00, 0x00, 0x00, 0x9c, 0xfe, 0xff, 0xff,
  0x92, 0xff, 0xff, 0xff, 0x04, 0x00, 0x00, 0x00, 0x10, 0x00, 0x00, 0x00,
  0xbc, 0x3d, 0x7b, 0xc0, 0xc2, 0x29, 0xb7, 0xc0, 0xb2, 0xcd, 0xef, 0x3f,
  0x5d, 0x88, 0x5f, 0x3f, 0x0a, 0xff, 0xff, 0xff, 0x10, 0x00, 0x00, 0x00,
  0x03, 0x00, 0x00, 0x00, 0x10, 0x00, 0x00, 0x00, 0x3c, 0x00, 0x00, 0x00,
  0x01, 0x00, 0x00, 0x00, 0x04, 0x00, 0x00, 0x00, 0x29, 0x00, 0x00, 0x00,
  0x73, 0x65, 0x71, 0x75, 0x65, 0x6e, 0x74, 0x69, 0x61, 0x6c, 0x2f, 0x64,
  0x65, 0x6e, 0x73, 0x65, 0x5f, 0x31, 0x2f, 0x42, 0x69, 0x61, 0x73, 0x41,
  0x64, 0x64, 0x2f, 0x52, 0x65, 0x61, 0x64, 0x56, 0x61, 0x72, 0x69, 0x61,
  0x62, 0x6c, 0x65, 0x4f, 0x70, 0x00, 0x00, 0x00, 0x60, 0xff, 0xff, 0xff,
  0x00, 0x00, 0x06, 0x00, 0x08, 0x00, 0x04, 0x00, 0x06, 0x00, 0x00, 0x00,
  0x04, 0x00, 0x00, 0x00, 0x40, 0x00, 0x00, 0x00, 0xa5, 0x54, 0x7d, 0xbf,
  0x10, 0xec, 0xcd, 0xbe, 0x20, 0x63, 0xea, 0xbd, 0xec, 0xc1, 0xeb, 0x3f,
  0xd9, 0x6d, 0xcd, 0xbe, 0xf8, 0xa9, 0x00, 0xbf, 0x3e, 0x6c, 0x1b, 0x3f,
  0x25, 0xe0, 0x50, 0xbf, 0xbd, 0x57, 0xf4, 0x3e, 0xb5, 0x55, 0xc1, 0x3f,
  0xae, 0xbf, 0x1c, 0x40, 0x34, 0x64, 0xfc, 0xbe, 0x1f, 0x67, 0xcf, 0x3f,
  0x05, 0x08, 0x9c, 0xbf, 0xf3, 0x7c, 0xa5, 0xbf, 0x95, 0x30, 0xf2, 0xbe,
  0xae, 0xff, 0xff, 0xff, 0x10, 0x00, 0x00, 0x00, 0x02, 0x00, 0x00, 0x00,
  0x10, 0x00, 0x00, 0x00, 0x3c, 0x00, 0x00, 0x00, 0x01, 0x00, 0x00, 0x00,
  0x10, 0x00, 0x00, 0x00, 0x27, 0x00, 0x00, 0x00, 0x73, 0x65, 0x71, 0x75,
  0x65, 0x6e, 0x74, 0x69, 0x61, 0x6c, 0x2f, 0x64, 0x65, 0x6e, 0x73, 0x65,
  0x2f, 0x42, 0x69, 0x61, 0x73, 0x41, 0x64, 0x64, 0x2f, 0x52, 0x65, 0x61,
  0x64, 0x56, 0x61, 0x72, 0x69, 0x61, 0x62, 0x6c, 0x65, 0x4f, 0x70, 0x00,
  0x04, 0x00, 0x06, 0x00, 0x04, 0x00, 0x00, 0x00, 0x00, 0x00, 0x0e, 0x00,
  0x14, 0x00, 0x04, 0x00, 0x00, 0x00, 0x08, 0x00, 0x0c, 0x00, 0x10, 0x00,
  0x0e, 0x00, 0x00, 0x00, 0x10, 0x00, 0x00, 0x00, 0x01, 0x00, 0x00, 0x00,
  0x1c, 0x00, 0x00, 0x00, 0x2c, 0x00, 0x00, 0x00, 0x04, 0x00, 0x00, 0x00,
  0x01, 0x00, 0x00, 0x00, 0x40, 0x00, 0x00, 0x00, 0x03, 0x00, 0x00, 0x00,
  0x01, 0x00, 0x00, 0x00, 0x0c, 0x00, 0x00, 0x00, 0x63, 0x6f, 0x6e, 0x76,
  0x32, 0x64, 0x5f, 0x69, 0x6e, 0x70, 0x75, 0x74, 0x00, 0x00, 0x00, 0x00,
  0xfc, 0xff, 0xff, 0xff, 0x04, 0x00, 0x04, 0x00, 0x04, 0x00, 0x00, 0x00


 

};


unsigned int model_tflite_len = 12384;// Fill the int in `src/model.cc` here
