#include "magic_wand_model_data.h"


// We need to keep the data array aligned on some architectures.

#ifdef __has_attribute

#define HAVE_ATTRIBUTE(x) __has_attribute(x)

#else

#define HAVE_ATTRIBUTE(x) 0

#endif

#if HAVE_ATTRIBUTE(aligned) || (defined(__GNUC__) && !defined(__clang__))

#define DATA_ALIGN_ATTRIBUTE __attribute__((aligned(4)))

#else

#define DATA_ALIGN_ATTRIBUTE

#endif


const unsigned char g_magic_wand_model_data[] DATA_ALIGN_ATTRIBUTE = {

  // Paste the data of the char array in `src/model.cc` here
  

  0x08, 0x00, 0x00, 0x00, 0x54, 0x46, 0x4c, 0x33, 0x62, 0xff, 0xff, 0xff,
  0x03, 0x00, 0x00, 0x00, 0x10, 0x00, 0x00, 0x00, 0x24, 0x00, 0x00, 0x00,
  0x78, 0x00, 0x00, 0x00, 0x24, 0x00, 0x00, 0x00, 0x05, 0x00, 0x00, 0x00,
  0x78, 0x05, 0x00, 0x00, 0xb0, 0x04, 0x00, 0x00, 0xe0, 0x02, 0x00, 0x00,
  0x60, 0x02, 0x00, 0x00, 0x54, 0x01, 0x00, 0x00, 0x01, 0x00, 0x00, 0x00,
  0x78, 0x00, 0x00, 0x00, 0x13, 0x00, 0x00, 0x00, 0x18, 0x30, 0x00, 0x00,
  0x14, 0x30, 0x00, 0x00, 0x20, 0x2f, 0x00, 0x00, 0xa8, 0x2e, 0x00, 0x00,
  0x3c, 0x2e, 0x00, 0x00, 0xec, 0x11, 0x00, 0x00, 0x98, 0x10, 0x00, 0x00,
  0xbc, 0x0e, 0x00, 0x00, 0x60, 0x06, 0x00, 0x00, 0xfc, 0x05, 0x00, 0x00,
  0x78, 0x05, 0x00, 0x00, 0xec, 0x2f, 0x00, 0x00, 0xe8, 0x2f, 0x00, 0x00,
  0xe4, 0x2f, 0x00, 0x00, 0xe0, 0x2f, 0x00, 0x00, 0xdc, 0x2f, 0x00, 0x00,
  0xd8, 0x2f, 0x00, 0x00, 0xd4, 0x2f, 0x00, 0x00, 0xd0, 0x2f, 0x00, 0x00,
  0x0f, 0x00, 0x00, 0x00, 0x4d, 0x4c, 0x49, 0x52, 0x20, 0x43, 0x6f, 0x6e,
  0x76, 0x65, 0x72, 0x74, 0x65, 0x64, 0x2e, 0x00, 0x00, 0x00, 0x0e, 0x00,
  0x18, 0x00, 0x04, 0x00, 0x08, 0x00, 0x0c, 0x00, 0x10, 0x00, 0x14, 0x00,
  0x0e, 0x00, 0x00, 0x00, 0x14, 0x00, 0x00, 0x00, 0x5c, 0x00, 0x00, 0x00,
  0x60, 0x00, 0x00, 0x00, 0x64, 0x00, 0x00, 0x00, 0x84, 0x00, 0x00, 0x00,
  0x12, 0x00, 0x00, 0x00, 0x48, 0x2f, 0x00, 0x00, 0xe4, 0x2e, 0x00, 0x00,
  0x3c, 0x2e, 0x00, 0x00, 0xd8, 0x2d, 0x00, 0x00, 0x70, 0x2d, 0x00, 0x00,
  0x1c, 0x11, 0x00, 0x00, 0xc0, 0x0f, 0x00, 0x00, 0xe4, 0x0d, 0x00, 0x00,
  0xa0, 0x05, 0x00, 0x00, 0x3c, 0x05, 0x00, 0x00, 0xb0, 0x04, 0x00, 0x00,
  0xe8, 0x03, 0x00, 0x00, 0x38, 0x03, 0x00, 0x00, 0xa4, 0x02, 0x00, 0x00,
  0x10, 0x02, 0x00, 0x00, 0x90, 0x01, 0x00, 0x00, 0xfc, 0x00, 0x00, 0x00,
  0x80, 0x00, 0x00, 0x00, 0x01, 0x00, 0x00, 0x00, 0x00, 0x00, 0x00, 0x00,
  0x01, 0x00, 0x00, 0x00, 0x11, 0x00, 0x00, 0x00, 0x08, 0x00, 0x00, 0x00,
  0x1c, 0x04, 0x00, 0x00, 0x58, 0x03, 0x00, 0x00, 0xc8, 0x02, 0x00, 0x00,
  0x24, 0x02, 0x00, 0x00, 0xac, 0x01, 0x00, 0x00, 0x10, 0x01, 0x00, 0x00,
  0x94, 0x00, 0x00, 0x00, 0x10, 0x00, 0x00, 0x00, 0x04, 0x00, 0x00, 0x00,
  0x6d, 0x61, 0x69, 0x6e, 0x00, 0x00, 0x00, 0x00, 0x8e, 0xff, 0xff, 0xff,
  0x00, 0x00, 0x00, 0x09, 0x04, 0x00, 0x00, 0x00, 0x1c, 0x00, 0x00, 0x00,
  0x10, 0x00, 0x00, 0x00, 0x04, 0x00, 0x00, 0x00, 0x0a, 0xd2, 0xff, 0xff,
  0x00, 0x00, 0x80, 0x3f, 0x01, 0x00, 0x00, 0x00, 0x11, 0x00, 0x00, 0x00,
  0x01, 0x00, 0x00, 0x00, 0x10, 0x00, 0x00, 0x00, 0xf6, 0xfb, 0xff, 0xff,
  0x00, 0x00, 0x00, 0x19, 0x01, 0x00, 0x00, 0x00, 0x8a, 0xd1, 0xff, 0xff,
  0x10, 0x00, 0x00, 0x00, 0x12, 0x00, 0x00, 0x00, 0x14, 0x00, 0x00, 0x00,
  0x20, 0x00, 0x00, 0x00, 0x02, 0x00, 0x00, 0x00, 0x01, 0x00, 0x00, 0x00,
  0x04, 0x00, 0x00, 0x00, 0x08, 0x00, 0x00, 0x00, 0x49, 0x64, 0x65, 0x6e,
  0x74, 0x69, 0x74, 0x79, 0x00, 0x00, 0x00, 0x00, 0xc4, 0xd1, 0xff, 0xff,
  0x00, 0x00, 0x0e, 0x00, 0x18, 0x00, 0x08, 0x00, 0x0c, 0x00, 0x10, 0x00,
  0x07, 0x00, 0x14, 0x00, 0x0e, 0x00, 0x00, 0x00, 0x00, 0x00, 0x00, 0x08,
  0x03, 0x00, 0x00, 0x00, 0x18, 0x00, 0x00, 0x00, 0x0c, 0x00, 0x00, 0x00,
  0x04, 0x00, 0x00, 0x00, 0x98, 0xd1, 0xff, 0xff, 0x01, 0x00, 0x00, 0x00,
  0x10, 0x00, 0x00, 0x00, 0x03, 0x00, 0x00, 0x00, 0x0f, 0x00, 0x00, 0x00,
  0x05, 0x00, 0x00, 0x00, 0x02, 0x00, 0x00, 0x00, 0x02, 0xd2, 0xff, 0xff,
  0x10, 0x00, 0x00, 0x00, 0x11, 0x00, 0x00, 0x00, 0x14, 0x00, 0x00, 0x00,
  0x30, 0x00, 0x00, 0x00, 0x02, 0x00, 0x00, 0x00, 0x01, 0x00, 0x00, 0x00,
  0x04, 0x00, 0x00, 0x00, 0x1a, 0x00, 0x00, 0x00, 0x73, 0x65, 0x71, 0x75,
  0x65, 0x6e, 0x74, 0x69, 0x61, 0x6c, 0x2f, 0x64, 0x65, 0x6e, 0x73, 0x65,
  0x5f, 0x31, 0x2f, 0x42, 0x69, 0x61, 0x73, 0x41, 0x64, 0x64, 0x00, 0x00,
  0xf4, 0xd1, 0xff, 0xff, 0xd6, 0xfd, 0xff, 0xff, 0x00, 0x00, 0x00, 0x08,
  0x03, 0x00, 0x00, 0x00, 0x24, 0x00, 0x00, 0x00, 0x18, 0x00, 0x00, 0x00,
  0x0c, 0x00, 0x00, 0x00, 0x00, 0x00, 0x06, 0x00, 0x08, 0x00, 0x07, 0x00,
  0x06, 0x00, 0x00, 0x00, 0x00, 0x00, 0x00, 0x01, 0x01, 0x00, 0x00, 0x00,
  0x0f, 0x00, 0x00, 0x00, 0x03, 0x00, 0x00, 0x00, 0x0e, 0x00, 0x00, 0x00,
  0x04, 0x00, 0x00, 0x00, 0x01, 0x00, 0x00, 0x00, 0xfe, 0xfc, 0xff, 0xff,
  0x00, 0x00, 0x00, 0x09, 0x01, 0x00, 0x00, 0x00, 0x92, 0xd2, 0xff, 0xff,
  0x10, 0x00, 0x00, 0x00, 0x10, 0x00, 0x00, 0x00, 0x14, 0x00, 0x00, 0x00,
  0x2c, 0x00, 0x00, 0x00, 0x02, 0x00, 0x00, 0x00, 0x01, 0x00, 0x00, 0x00,
  0x10, 0x00, 0x00, 0x00, 0x15, 0x00, 0x00, 0x00, 0x73, 0x65, 0x71, 0x75,
  0x65, 0x6e, 0x74, 0x69, 0x61, 0x6c, 0x2f, 0x64, 0x65, 0x6e, 0x73, 0x65,
  0x2f, 0x52, 0x65, 0x6c, 0x75, 0x00, 0x00, 0x00, 0xd8, 0xd2, 0xff, 0xff,
  0x00, 0x00, 0x0a, 0x00, 0x10, 0x00, 0x04, 0x00, 0x08, 0x00, 0x0c, 0x00,
  0x0a, 0x00, 0x00, 0x00, 0x02, 0x00, 0x00, 0x00, 0x10, 0x00, 0x00, 0x00,
  0x04, 0x00, 0x00, 0x00, 0x01, 0x00, 0x00, 0x00, 0x0e, 0x00, 0x00, 0x00,
  0x02, 0x00, 0x00, 0x00, 0x0d, 0x00, 0x00, 0x00, 0x03, 0x00, 0x00, 0x00,
  0x7a, 0xfd, 0xff, 0xff, 0x00, 0x00, 0x00, 0x16, 0x01, 0x00, 0x00, 0x00,
  0x0e, 0xd3, 0xff, 0xff, 0x10, 0x00, 0x00, 0x00, 0x0f, 0x00, 0x00, 0x00,
  0x14, 0x00, 0x00, 0x00, 0x30, 0x00, 0x00, 0x00, 0x02, 0x00, 0x00, 0x00,
  0x01, 0x00, 0x00, 0x00, 0x70, 0x00, 0x00, 0x00, 0x1a, 0x00, 0x00, 0x00,
  0x73, 0x65, 0x71, 0x75, 0x65, 0x6e, 0x74, 0x69, 0x61, 0x6c, 0x2f, 0x66,
  0x6c, 0x61, 0x74, 0x74, 0x65, 0x6e, 0x2f, 0x52, 0x65, 0x73, 0x68, 0x61,
  0x70, 0x65, 0x00, 0x00, 0x00, 0xd3, 0xff, 0xff, 0xe2, 0xfe, 0xff, 0xff,
  0x00, 0x00, 0x00, 0x05, 0x01, 0x00, 0x00, 0x00, 0x38, 0x00, 0x00, 0x00,
  0x2c, 0x00, 0x00, 0x00, 0x14, 0x00, 0x00, 0x00, 0x00, 0x00, 0x0e, 0x00,
  0x14, 0x00, 0x00, 0x00, 0x10, 0x00, 0x0c, 0x00, 0x08, 0x00, 0x04, 0x00,
  0x0e, 0x00, 0x00, 0x00, 0x03, 0x00, 0x00, 0x00, 0x01, 0x00, 0x00, 0x00,
  0x03, 0x00, 0x00, 0x00, 0x01, 0x00, 0x00, 0x00, 0x01, 0x00, 0x00, 0x00,
  0x0d, 0x00, 0x00, 0x00, 0x01, 0x00, 0x00, 0x00, 0x0c, 0x00, 0x00, 0x00,
  0x9e, 0xd3, 0xff, 0xff, 0x10, 0x00, 0x00, 0x00, 0x0e, 0x00, 0x00, 0x00,
  0x1c, 0x00, 0x00, 0x00, 0x40, 0x00, 0x00, 0x00, 0x04, 0x00, 0x00, 0x00,
  0x01, 0x00, 0x00, 0x00, 0x07, 0x00, 0x00, 0x00, 0x01, 0x00, 0x00, 0x00,
  0x10, 0x00, 0x00, 0x00, 0x22, 0x00, 0x00, 0x00, 0x73, 0x65, 0x71, 0x75,
  0x65, 0x6e, 0x74, 0x69, 0x61, 0x6c, 0x2f, 0x6d, 0x61, 0x78, 0x5f, 0x70,
  0x6f, 0x6f, 0x6c, 0x69, 0x6e, 0x67, 0x32, 0x64, 0x5f, 0x31, 0x2f, 0x4d,
  0x61, 0x78, 0x50, 0x6f, 0x6f, 0x6c, 0x00, 0x00, 0xa0, 0xd3, 0xff, 0xff,
  0xc2, 0xfe, 0xff, 0xff, 0x00, 0x00, 0x00, 0x01, 0x24, 0x00, 0x00, 0x00,
  0x18, 0x00, 0x00, 0x00, 0x04, 0x00, 0x00, 0x00, 0xb4, 0xfe, 0xff, 0xff,
  0x01, 0x00, 0x00, 0x00, 0x01, 0x00, 0x00, 0x00, 0x00, 0x00, 0x00, 0x01,
  0x01, 0x00, 0x00, 0x00, 0x0c, 0x00, 0x00, 0x00, 0x03, 0x00, 0x00, 0x00,
  0x0b, 0x00, 0x00, 0x00, 0x07, 0x00, 0x00, 0x00, 0x09, 0x00, 0x00, 0x00,
  0x2e, 0xd4, 0xff, 0xff, 0x10, 0x00, 0x00, 0x00, 0x0d, 0x00, 0x00, 0x00,
  0x1c, 0x00, 0x00, 0x00, 0x2c, 0x00, 0x00, 0x00, 0x04, 0x00, 0x00, 0x00,
  0x01, 0x00, 0x00, 0x00, 0x15, 0x00, 0x00, 0x00, 0x01, 0x00, 0x00, 0x00,
  0x10, 0x00, 0x00, 0x00, 0x0c, 0x00, 0x00, 0x00, 0x74, 0x66, 0x6c, 0x2e,
  0x63, 0x6f, 0x6e, 0x76, 0x5f, 0x32, 0x64, 0x31, 0x00, 0x00, 0x00, 0x00,
  0x74, 0xd4, 0xff, 0xff, 0x00, 0x00, 0x0e, 0x00, 0x1a, 0x00, 0x08, 0x00,
  0x0c, 0x00, 0x10, 0x00, 0x07, 0x00, 0x14, 0x00, 0x0e, 0x00, 0x00, 0x00,
  0x00, 0x00, 0x00, 0x05, 0x01, 0x00, 0x00, 0x00, 0x3c, 0x00, 0x00, 0x00,
  0x30, 0x00, 0x00, 0x00, 0x14, 0x00, 0x00, 0x00, 0x00, 0x00, 0x0e, 0x00,
  0x18, 0x00, 0x17, 0x00, 0x10, 0x00, 0x0c, 0x00, 0x08, 0x00, 0x04, 0x00,
  0x0e, 0x00, 0x00, 0x00, 0x03, 0x00, 0x00, 0x00, 0x03, 0x00, 0x00, 0x00,
  0x03, 0x00, 0x00, 0x00, 0x03, 0x00, 0x00, 0x00, 0x00, 0x00, 0x00, 0x01,
  0x01, 0x00, 0x00, 0x00, 0x0b, 0x00, 0x00, 0x00, 0x01, 0x00, 0x00, 0x00,
  0x0a, 0x00, 0x00, 0x00, 0x46, 0xff, 0xff, 0xff, 0x00, 0x00, 0x00, 0x11,
  0x01, 0x00, 0x00, 0x00, 0xda, 0xd4, 0xff, 0xff, 0x10, 0x00, 0x00, 0x00,
  0x0c, 0x00, 0x00, 0x00, 0x1c, 0x00, 0x00, 0x00, 0x40, 0x00, 0x00, 0x00,
  0x04, 0x00, 0x00, 0x00, 0x01, 0x00, 0x00, 0x00, 0x15, 0x00, 0x00, 0x00,
  0x01, 0x00, 0x00, 0x00, 0x08, 0x00, 0x00, 0x00, 0x20, 0x00, 0x00, 0x00,
  0x73, 0x65, 0x71, 0x75, 0x65, 0x6e, 0x74, 0x69, 0x61, 0x6c, 0x2f, 0x6d,
  0x61, 0x78, 0x5f, 0x70, 0x6f, 0x6f, 0x6c, 0x69, 0x6e, 0x67, 0x32, 0x64,
  0x2f, 0x4d, 0x61, 0x78, 0x50, 0x6f, 0x6f, 0x6c, 0x00, 0x00, 0x00, 0x00,
  0x34, 0xd5, 0xff, 0xff, 0x00, 0x00, 0x0e, 0x00, 0x14, 0x00, 0x00, 0x00,
  0x08, 0x00, 0x0c, 0x00, 0x07, 0x00, 0x10, 0x00, 0x0e, 0x00, 0x00, 0x00,
  0x00, 0x00, 0x00, 0x01, 0x30, 0x00, 0x00, 0x00, 0x24, 0x00, 0x00, 0x00,
  0x10, 0x00, 0x00, 0x00, 0x0c, 0x00, 0x10, 0x00, 0x00, 0x00, 0x04, 0x00,
  0x08, 0x00, 0x0f, 0x00, 0x0c, 0x00, 0x00, 0x00, 0x01, 0x00, 0x00, 0x00,
  0x01, 0x00, 0x00, 0x00, 0x00, 0x00, 0x00, 0x01, 0x01, 0x00, 0x00, 0x00,
  0x0a, 0x00, 0x00, 0x00, 0x03, 0x00, 0x00, 0x00, 0x00, 0x00, 0x00, 0x00,
  0x06, 0x00, 0x00, 0x00, 0x08, 0x00, 0x00, 0x00, 0x00, 0x00, 0x0a, 0x00,
  0x0c, 0x00, 0x07, 0x00, 0x00, 0x00, 0x08, 0x00, 0x0a, 0x00, 0x00, 0x00,
  0x00, 0x00, 0x00, 0x03, 0x01, 0x00, 0x00, 0x00, 0x9e, 0xd5, 0xff, 0xff,
  0x10, 0x00, 0x00, 0x00, 0x0b, 0x00, 0x00, 0x00, 0x1c, 0x00, 0x00, 0x00,
  0x28, 0x00, 0x00, 0x00, 0x04, 0x00, 0x00, 0x00, 0x01, 0x00, 0x00, 0x00,
  0x40, 0x00, 0x00, 0x00, 0x03, 0x00, 0x00, 0x00, 0x08, 0x00, 0x00, 0x00,
  0x0b, 0x00, 0x00, 0x00, 0x74, 0x66, 0x6c, 0x2e, 0x63, 0x6f, 0x6e, 0x76,
  0x5f, 0x32, 0x64, 0x00, 0x88, 0xd5, 0xff, 0xff, 0x7e, 0xd6, 0xff, 0xff,
  0x04, 0x00, 0x00, 0x00, 0x40, 0x00, 0x00, 0x00, 0x5b, 0xb2, 0x84, 0x3f,
  0x1e, 0x0a, 0x1d, 0xbd, 0xb2, 0x6f, 0x34, 0xbe, 0x96, 0x2e, 0x46, 0xbf,
  0x91, 0x42, 0x6f, 0xbf, 0x55, 0xef, 0x90, 0x3e, 0xa5, 0x8a, 0x25, 0xbd,
  0xc8, 0xfe, 0x0b, 0xbe, 0xb0, 0x38, 0xe3, 0xbd, 0x75, 0xe3, 0xb6, 0xbc,
  0x2f, 0xd0, 0x56, 0x3e, 0x02, 0x38, 0x4e, 0xbf, 0x51, 0xc6, 0x28, 0x3e,
  0x87, 0xb9, 0x5a, 0xbf, 0x08, 0xe3, 0xce, 0x3d, 0x15, 0x45, 0xbc, 0x3e,
  0x26, 0xd6, 0xff, 0xff, 0x10, 0x00, 0x00, 0x00, 0x0a, 0x00, 0x00, 0x00,
  0x10, 0x00, 0x00, 0x00, 0x20, 0x00, 0x00, 0x00, 0x01, 0x00, 0x00, 0x00,
  0x10, 0x00, 0x00, 0x00, 0x0d, 0x00, 0x00, 0x00, 0x73, 0x74, 0x64, 0x2e,
  0x63, 0x6f, 0x6e, 0x73, 0x74, 0x61, 0x6e, 0x74, 0x31, 0x00, 0x00, 0x00,
  0x08, 0xd6, 0xff, 0xff, 0xfe, 0xd6, 0xff, 0xff, 0x04, 0x00, 0x00, 0x00,
  0x20, 0x00, 0x00, 0x00, 0xb7, 0x42, 0x99, 0xbf, 0x77, 0x56, 0xc2, 0x3e,
  0x25, 0x51, 0x1d, 0x3e, 0x89, 0x15, 0xac, 0xbf, 0xa1, 0x36, 0xb9, 0xbd,
  0x86, 0x44, 0xac, 0xbf, 0x66, 0x69, 0x78, 0xbd, 0x0d, 0xfa, 0x06, 0x3f,
  0x86, 0xd6, 0xff, 0xff, 0x10, 0x00, 0x00, 0x00, 0x09, 0x00, 0x00, 0x00,
  0x10, 0x00, 0x00, 0x00, 0x20, 0x00, 0x00, 0x00, 0x01, 0x00, 0x00, 0x00,
  0x08, 0x00, 0x00, 0x00, 0x0c, 0x00, 0x00, 0x00, 0x73, 0x74, 0x64, 0x2e,
  0x63, 0x6f, 0x6e, 0x73, 0x74, 0x61, 0x6e, 0x74, 0x00, 0x00, 0x00, 0x00,
  0x68, 0xd6, 0xff, 0xff, 0x5e, 0xd7, 0xff, 0xff, 0x04, 0x00, 0x00, 0x00,
  0x00, 0x08, 0x00, 0x00, 0x8b, 0x9b, 0x29, 0xbf, 0xf2, 0x28, 0x92, 0xbe,
  0x05, 0xea, 0xc7, 0xbe, 0x3e, 0xe3, 0x04, 0xbf, 0x17, 0x8e, 0xfd, 0xbe,
  0xec, 0x88, 0xd2, 0xbe, 0x7a, 0x89, 0xdb, 0xbe, 0x49, 0xa6, 0x8e, 0xbe,
  0x5c, 0xec, 0x81, 0xbc, 0x5f, 0x5c, 0xc1, 0x3e, 0xc0, 0x48, 0xc2, 0x3e,
  0x8d, 0x66, 0x54, 0x3e, 0x09, 0x1b, 0x98, 0x3e, 0xcb, 0xd2, 0xed, 0xbc,
  0x06, 0xd8, 0x0f, 0xbe, 0xe4, 0xb6, 0x2c, 0x3e, 0x44, 0xf5, 0xa9, 0xbd,
  0xab, 0xcb, 0x9e, 0x3d, 0xf0, 0x7e, 0x10, 0xbe, 0x65, 0xfc, 0x1b, 0xbf,
  0x26, 0x67, 0x54, 0xbe, 0xd6, 0xba, 0x97, 0xbc, 0xd0, 0xa2, 0x93, 0xbd,
  0xf7, 0xbd, 0xac, 0x3d, 0x92, 0x70, 0xf0, 0x39, 0xe1, 0x30, 0x22, 0x3e,
  0x6a, 0xfa, 0x8c, 0x3c, 0x8c, 0x3a, 0xb3, 0xbe, 0x41, 0xcc, 0x80, 0xbd,
  0xda, 0x30, 0x64, 0x3d, 0xa1, 0xd3, 0xbb, 0x3d, 0x68, 0x5b, 0x31, 0x3e,
  0xe4, 0xd1, 0x02, 0x3e, 0x68, 0x4f, 0x07, 0x3e, 0x2d, 0xe3, 0x18, 0x3e,
  0xf1, 0xff, 0x6c, 0xbe, 0x7b, 0x25, 0x91, 0x3e, 0x70, 0x7c, 0x6c, 0x3d,
  0xd1, 0x29, 0x27, 0x3e, 0xfd, 0xc0, 0x0c, 0xbe, 0xab, 0xde, 0x87, 0x3e,
  0x9e, 0x81, 0x0c, 0xbd, 0x25, 0x44, 0xf9, 0x3d, 0x0b, 0xb8, 0xf9, 0xbb,
  0x63, 0xec, 0x45, 0x3e, 0x90, 0x8b, 0xcc, 0x3d, 0xe0, 0x99, 0x1d, 0xbe,
  0x6f, 0xa9, 0xc0, 0x3d, 0x1d, 0x97, 0x1d, 0xbe, 0x56, 0x72, 0xe3, 0xbe,
  0xf4, 0x87, 0x0e, 0xbf, 0x5c, 0xd0, 0x53, 0xbe, 0x55, 0xab, 0xb1, 0xbe,
  0xc2, 0xaa, 0x9c, 0x3b, 0xd1, 0x8e, 0x9d, 0xbe, 0x69, 0xdc, 0x04, 0xbe,
  0xfd, 0x28, 0x7d, 0xbd, 0x7e, 0x0c, 0xb4, 0xbe, 0xd6, 0x02, 0x2d, 0xbf,
  0xe9, 0x9f, 0xf1, 0xbe, 0x35, 0x30, 0xa7, 0xbe, 0x4b, 0x82, 0xb2, 0x3c,
  0xcb, 0x5c, 0xe4, 0xbe, 0x3f, 0x90, 0x95, 0xbe, 0x5e, 0x51, 0xa5, 0xbe,
  0x99, 0x9f, 0x86, 0x3e, 0x6e, 0x5e, 0x1a, 0x3b, 0x3e, 0xae, 0x54, 0x3e,
  0x39, 0x23, 0x41, 0xbd, 0x16, 0x89, 0x44, 0xbd, 0x8c, 0x91, 0xdb, 0xbd,
  0x02, 0x44, 0x9d, 0x3e, 0x67, 0xf9, 0x9d, 0xbe, 0x02, 0x05, 0xed, 0xbd,
  0x41, 0xe5, 0x50, 0x3e, 0xb6, 0xe1, 0x01, 0xbd, 0xa5, 0xb9, 0x4f, 0x3e,
  0x7e, 0x50, 0x0a, 0xbe, 0xda, 0x5a, 0x44, 0xbd, 0xaf, 0xd6, 0x87, 0xbe,
  0x65, 0xbf, 0x92, 0xbe, 0xf2, 0x35, 0xdd, 0xbc, 0xca, 0xca, 0xd9, 0xbd,
  0x45, 0xbb, 0x92, 0x3e, 0xb4, 0xd8, 0xe2, 0x3d, 0x76, 0x5a, 0x3a, 0xbd,
  0xfc, 0x70, 0xeb, 0x3c, 0xf7, 0x45, 0x42, 0x3e, 0x28, 0x9c, 0x5c, 0xbe,
  0x89, 0xef, 0x1c, 0x3e, 0xa4, 0x19, 0xd4, 0x3d, 0xf6, 0x7e, 0x93, 0x3e,
  0x7f, 0x22, 0x69, 0xbe, 0xe0, 0x31, 0x2a, 0xbe, 0x77, 0x9c, 0x68, 0xbe,
  0xee, 0x13, 0xb0, 0x3e, 0x09, 0x54, 0x20, 0xbe, 0x39, 0x89, 0xcd, 0xbe,
  0x64, 0xf7, 0x8d, 0xbe, 0xec, 0xe6, 0xa5, 0xbd, 0x7c, 0x04, 0x23, 0xbf,
  0x50, 0xba, 0x83, 0xbe, 0xb2, 0x8f, 0xdc, 0xbe, 0x8b, 0x68, 0xeb, 0xbe,
  0x57, 0x62, 0x13, 0xbc, 0xe0, 0x0f, 0x83, 0xbf, 0x17, 0x9d, 0x42, 0xbf,
  0x1e, 0xc2, 0x6f, 0xbb, 0x7b, 0xa7, 0x29, 0xbf, 0x2a, 0xab, 0x78, 0x3c,
  0xb8, 0xe8, 0x29, 0x3e, 0xdd, 0xba, 0x16, 0xbf, 0xb9, 0x7d, 0x24, 0xbd,
  0x21, 0x6d, 0xe9, 0xbd, 0x9c, 0x76, 0xb2, 0x3c, 0x12, 0x15, 0x2e, 0x3f,
  0xbd, 0x86, 0x46, 0xbb, 0x67, 0x72, 0x1e, 0x3e, 0x55, 0xff, 0xc2, 0xbb,
  0xcd, 0x1b, 0x09, 0x3e, 0x69, 0xd2, 0x4e, 0xbd, 0xc9, 0xb3, 0x45, 0x3e,
  0x56, 0xce, 0x13, 0x3e, 0x8e, 0xd8, 0xf2, 0x3e, 0x12, 0x50, 0xe8, 0x3d,
  0x48, 0x28, 0x27, 0x3b, 0x6c, 0xae, 0x81, 0x3e, 0xff, 0xd7, 0x93, 0xbd,
  0x67, 0x77, 0x87, 0xbd, 0xb4, 0x15, 0xac, 0xbe, 0x57, 0x35, 0x27, 0xbe,
  0xe1, 0x86, 0x2d, 0x3e, 0x7f, 0x32, 0xa6, 0xbe, 0xab, 0x7d, 0x91, 0xbb,
  0x79, 0x47, 0xb5, 0xbe, 0x76, 0x7d, 0xa8, 0xbe, 0xb0, 0x11, 0x4e, 0xbd,
  0xeb, 0xc8, 0x8e, 0xbe, 0xc8, 0x72, 0x13, 0xbf, 0x50, 0xe0, 0xd5, 0x3c,
  0xab, 0xdb, 0xdc, 0xbe, 0x95, 0x4a, 0x39, 0xbe, 0xe7, 0xb4, 0x97, 0xbe,
  0xd1, 0x09, 0x29, 0xbf, 0xad, 0xef, 0x07, 0x3a, 0xab, 0xf3, 0x50, 0x3e,
  0x2c, 0x7b, 0x32, 0xbe, 0xec, 0x97, 0xe5, 0x3e, 0xe9, 0xdc, 0x6b, 0x3e,
  0x28, 0x57, 0x17, 0xbe, 0xda, 0xe1, 0x1c, 0x3e, 0x29, 0x78, 0xe5, 0xbe,
  0x14, 0x07, 0xb6, 0xbd, 0x0b, 0x8e, 0xeb, 0x3e, 0xc6, 0x74, 0x1f, 0x3f,
  0x49, 0x88, 0xe6, 0x3e, 0x72, 0x39, 0xa9, 0xbd, 0x71, 0xe1, 0xba, 0x3e,
  0xf0, 0x26, 0xba, 0x3e, 0x75, 0x7a, 0x03, 0xbe, 0xb0, 0x75, 0x94, 0xbe,
  0x5e, 0x9a, 0x0a, 0xbe, 0xd9, 0xa0, 0x32, 0x3e, 0xfd, 0xfb, 0x1b, 0x3c,
  0x39, 0xf1, 0x79, 0x3e, 0x83, 0x8b, 0xe8, 0xbd, 0xcc, 0xee, 0x19, 0xbe,
  0x39, 0xf9, 0xd7, 0x3e, 0x88, 0x41, 0xb0, 0xbe, 0xfd, 0xbe, 0x4d, 0x3e,
  0xf4, 0x5b, 0x37, 0x3e, 0x22, 0x4f, 0x62, 0x3e, 0xeb, 0x07, 0xa4, 0x3c,
  0x28, 0x28, 0xe0, 0xbc, 0x23, 0x92, 0xe0, 0xbd, 0x88, 0x58, 0xb0, 0x3e,
  0xbe, 0x63, 0x92, 0xbe, 0x50, 0xc7, 0x98, 0x3d, 0x93, 0x47, 0x9b, 0xbd,
  0x17, 0xdd, 0x38, 0xbd, 0xe3, 0xa5, 0xfd, 0x3c, 0xf0, 0xdc, 0x8e, 0x3d,
  0x33, 0x90, 0x5c, 0xbe, 0x90, 0xdb, 0x98, 0xbe, 0xfd, 0x5a, 0xa1, 0xbe,
  0x86, 0xdb, 0x13, 0x3e, 0x30, 0x3b, 0x49, 0x3e, 0x9f, 0x2a, 0x93, 0x3e,
  0x62, 0x3c, 0x7e, 0xbe, 0x63, 0x76, 0x57, 0x3c, 0x1a, 0x29, 0xfb, 0x3b,
  0x90, 0xd0, 0x26, 0x3e, 0xdf, 0xd3, 0x90, 0xbd, 0xc3, 0x57, 0x82, 0x3e,
  0xca, 0xe0, 0x13, 0xbe, 0x50, 0xad, 0x50, 0xbe, 0xa3, 0x37, 0xc9, 0x3c,
  0x01, 0xe8, 0xed, 0x3a, 0xff, 0x90, 0x32, 0xbe, 0xfa, 0x7f, 0xe7, 0xbd,
  0xf9, 0x78, 0x8f, 0xbd, 0x47, 0x29, 0xfe, 0x3d, 0x0a, 0x7b, 0x17, 0xbe,
  0xbd, 0x87, 0xce, 0x3e, 0xdb, 0xb2, 0x2a, 0x3e, 0x49, 0x3d, 0x45, 0x3d,
  0xbe, 0x93, 0xac, 0x3d, 0x45, 0x21, 0x41, 0x3e, 0xfc, 0xb4, 0xea, 0xbd,
  0xa8, 0x05, 0x99, 0x3e, 0x99, 0xe3, 0xde, 0xbc, 0x47, 0x99, 0x89, 0xbe,
  0x37, 0xf5, 0x85, 0x3e, 0xc7, 0xf9, 0x3e, 0xbd, 0x90, 0x92, 0x50, 0x3e,
  0xce, 0x72, 0x49, 0x3d, 0x40, 0x09, 0x94, 0xbd, 0x4c, 0xde, 0xab, 0xbd,
  0x3e, 0x09, 0xbb, 0xbd, 0xa6, 0xdd, 0x6c, 0xbe, 0xc6, 0x0b, 0xcd, 0xbe,
  0x6d, 0xaf, 0x87, 0xbe, 0xfc, 0x61, 0xc3, 0xbe, 0x3e, 0x23, 0x1b, 0xbd,
  0xd4, 0x83, 0x0d, 0x3e, 0x57, 0x6c, 0xfa, 0xbc, 0xf0, 0x71, 0x85, 0xbe,
  0x4a, 0x8f, 0xa7, 0x3d, 0x1e, 0xdf, 0x7e, 0xbe, 0x63, 0x21, 0x05, 0xbe,
  0x8e, 0x9f, 0x0b, 0x3e, 0x36, 0x80, 0x82, 0x3d, 0xab, 0xeb, 0x82, 0xbe,
  0x6c, 0x0e, 0x3f, 0xbe, 0xb5, 0x27, 0x06, 0xbe, 0x92, 0x9d, 0x07, 0x3c,
  0xa8, 0x43, 0x18, 0x3e, 0x4d, 0xdd, 0x82, 0x3d, 0x38, 0x7d, 0x1a, 0x3e,
  0x02, 0xc4, 0x7a, 0x3d, 0x31, 0xb2, 0x47, 0xbe, 0x6c, 0xe0, 0x4b, 0xbe,
  0xec, 0xb1, 0x0c, 0xbe, 0xad, 0x13, 0x8c, 0x3d, 0x1f, 0x2a, 0x6d, 0x3e,
  0xf0, 0xcf, 0x25, 0xbe, 0x7b, 0xbc, 0x93, 0x3d, 0xec, 0x7a, 0x99, 0xbd,
  0xe4, 0xe0, 0x2b, 0xbe, 0x27, 0x06, 0x1a, 0xbe, 0x51, 0x95, 0xcc, 0x3d,
  0x43, 0xd6, 0xa2, 0xbc, 0x0b, 0x58, 0xd6, 0xbd, 0xfb, 0x1f, 0x1f, 0x3d,
  0x6e, 0x91, 0xe8, 0xbd, 0x84, 0xfd, 0x80, 0xbe, 0xbb, 0xd4, 0x8a, 0x3e,
  0xf1, 0xb2, 0x86, 0xbd, 0xce, 0xce, 0x66, 0x3e, 0x1c, 0x05, 0x70, 0x3e,
  0x7f, 0x52, 0x63, 0x3e, 0xbd, 0x41, 0x46, 0x3d, 0x03, 0x12, 0xa1, 0xbd,
  0x7c, 0xcf, 0xa7, 0xbe, 0xec, 0xfd, 0x9b, 0x3e, 0x80, 0xcc, 0x2f, 0x3e,
  0x45, 0xf9, 0x67, 0xbd, 0x95, 0xab, 0x91, 0xbc, 0xf5, 0xaf, 0x10, 0xbe,
  0xf7, 0x81, 0xd3, 0x3e, 0xe9, 0xb8, 0x56, 0xbd, 0x1f, 0x58, 0x71, 0xbc,
  0x73, 0xa7, 0x04, 0x3e, 0x13, 0xba, 0xd3, 0xbd, 0x23, 0xd8, 0x6f, 0xbe,
  0x57, 0x21, 0x8f, 0x3b, 0x5e, 0x96, 0xbe, 0xbd, 0x68, 0x19, 0xce, 0x3d,
  0x47, 0x0f, 0x0d, 0xbe, 0x76, 0xec, 0x7a, 0xbe, 0xf6, 0x27, 0x32, 0x3e,
  0xe9, 0xf2, 0xc9, 0xbb, 0xd5, 0x3f, 0x47, 0x3d, 0x00, 0x07, 0xf3, 0xbd,
  0x12, 0xdc, 0x8d, 0xbe, 0x85, 0x9e, 0x08, 0x3e, 0x8f, 0x43, 0x1c, 0xbe,
  0x7d, 0x89, 0xa1, 0xbe, 0xa1, 0x10, 0x94, 0x3d, 0xce, 0x9f, 0x71, 0x3e,
  0x47, 0x67, 0x02, 0x3e, 0x70, 0xd5, 0xdf, 0xbd, 0xa7, 0x70, 0xed, 0x3c,
  0xbe, 0x00, 0x63, 0xbe, 0xce, 0xa2, 0x23, 0xbc, 0xd0, 0x18, 0x8a, 0xbe,
  0x7b, 0x9e, 0xfc, 0xbb, 0x71, 0x07, 0xda, 0x3d, 0x31, 0xdc, 0x09, 0xbe,
  0xc7, 0x18, 0xac, 0x3e, 0x6e, 0xad, 0xf6, 0xbd, 0xb4, 0x0a, 0x95, 0xbd,
  0xaf, 0x99, 0x8f, 0xbe, 0xae, 0xbf, 0x1b, 0x3e, 0xcb, 0x67, 0x94, 0xbd,
  0x54, 0xfc, 0x96, 0x3d, 0x09, 0x53, 0xb6, 0xbc, 0xca, 0x7a, 0x17, 0xbd,
  0xa1, 0x58, 0xf2, 0x3c, 0x12, 0xca, 0x5b, 0xbe, 0xda, 0xdf, 0x6a, 0xbe,
  0x83, 0x37, 0x59, 0x3d, 0x7e, 0x1a, 0xdf, 0xbc, 0xf2, 0x62, 0x08, 0xbe,
  0x96, 0xf6, 0xdf, 0xbb, 0x04, 0x3c, 0x8b, 0xbd, 0x68, 0x20, 0xac, 0xbc,
  0x31, 0x7f, 0x87, 0xbe, 0x70, 0x7e, 0xb2, 0xbd, 0xa3, 0xae, 0x3e, 0x3c,
  0x9e, 0x1b, 0x85, 0xbc, 0x6d, 0x42, 0x1e, 0x3d, 0xbc, 0xa9, 0x4a, 0x3e,
  0x18, 0x94, 0x58, 0xbe, 0xd6, 0xaf, 0x1e, 0xbf, 0x0e, 0xe0, 0x8b, 0xbd,
  0x78, 0xc2, 0x41, 0xbc, 0x32, 0x51, 0x5f, 0x3e, 0x5d, 0x71, 0x4a, 0x3e,
  0xeb, 0x54, 0xe6, 0x3d, 0xbf, 0xf6, 0xb5, 0x3e, 0x43, 0x2d, 0xab, 0x3d,
  0x22, 0x79, 0x03, 0xbf, 0xa3, 0xd3, 0xae, 0xbd, 0x74, 0x8a, 0x00, 0xbe,
  0x14, 0x35, 0xad, 0x3d, 0x73, 0xf6, 0x17, 0x3a, 0x0e, 0x0b, 0xa6, 0xbe,
  0x92, 0x60, 0xb3, 0xbe, 0x55, 0x58, 0x15, 0x3e, 0x85, 0x10, 0xa9, 0xbe,
  0x0c, 0xc6, 0x80, 0xbe, 0x70, 0x4f, 0xc2, 0xbd, 0xf2, 0xee, 0xe5, 0xbd,
  0xb6, 0xa1, 0x85, 0xbd, 0x21, 0x5a, 0x83, 0xbe, 0x68, 0x77, 0x2e, 0x3d,
  0x1b, 0x2d, 0x8f, 0xbb, 0x41, 0x21, 0x9a, 0xbe, 0xca, 0x17, 0xda, 0xbe,
  0x3d, 0xc2, 0x11, 0xbe, 0xb9, 0xcc, 0xa3, 0x3d, 0xde, 0x93, 0x2d, 0xbe,
  0x99, 0xe8, 0xc3, 0xbe, 0xcd, 0x68, 0x6e, 0x3d, 0xbd, 0xaa, 0x31, 0x3e,
  0xd2, 0x00, 0x88, 0x3d, 0xc3, 0x42, 0xa9, 0x3e, 0xae, 0x61, 0xa5, 0x3d,
  0x8f, 0x95, 0x81, 0x3e, 0x8e, 0x62, 0xec, 0xbd, 0xe3, 0x0b, 0x00, 0xbf,
  0xa3, 0xb8, 0x3f, 0xbf, 0xf6, 0x61, 0x14, 0x3e, 0x1f, 0xd2, 0x82, 0xbe,
  0x5c, 0xbe, 0x00, 0xbe, 0x6d, 0x2c, 0x1b, 0xbf, 0xdc, 0x1f, 0xc7, 0xbe,
  0xb0, 0xc3, 0x79, 0xbd, 0x4b, 0x41, 0x23, 0xbc, 0xfc, 0xb1, 0x77, 0xbe,
  0x40, 0xd1, 0x2d, 0x3f, 0xbc, 0x6c, 0xcf, 0x3d, 0x66, 0x05, 0x1f, 0xbe,
  0x5f, 0x01, 0x82, 0xbe, 0x71, 0xd6, 0xdb, 0xbe, 0x97, 0x4b, 0x80, 0x3e,
  0x94, 0xd6, 0x90, 0x3e, 0xe2, 0x68, 0xd1, 0x3e, 0xe5, 0x57, 0xfd, 0x3d,
  0xa9, 0xb9, 0x61, 0x3e, 0x2e, 0x31, 0x57, 0xbd, 0x55, 0x65, 0xbc, 0x3d,
  0x59, 0xf6, 0x24, 0xbe, 0x54, 0xed, 0xde, 0x3d, 0x1e, 0xe5, 0x92, 0xbe,
  0xc2, 0x76, 0x65, 0x3e, 0xa5, 0xf9, 0xef, 0xbe, 0x36, 0x66, 0x12, 0xbf,
  0xcd, 0x95, 0xb4, 0xbc, 0xab, 0xe5, 0xa0, 0xbe, 0xe9, 0xbb, 0x8c, 0x3e,
  0xd5, 0x49, 0xe2, 0x3d, 0x78, 0x76, 0x17, 0xbf, 0xb7, 0x96, 0x9d, 0xbc,
  0xee, 0xe2, 0x17, 0x3e, 0xbb, 0xd0, 0x42, 0xbe, 0x97, 0xc7, 0x86, 0xbd,
  0xb5, 0xfb, 0x9c, 0xbe, 0xcb, 0x97, 0x37, 0x3e, 0xb5, 0xa3, 0x82, 0xbe,
  0xde, 0x4e, 0x8e, 0xbe, 0x7a, 0x62, 0xd0, 0x3c, 0x1e, 0xa5, 0x1e, 0xbe,
  0xa7, 0xca, 0x92, 0xbe, 0xb2, 0x56, 0xbf, 0xbe, 0x60, 0x54, 0x10, 0xbd,
  0xe8, 0x6e, 0xe7, 0xbe, 0x77, 0xbf, 0x64, 0xbe, 0x3c, 0xb9, 0x10, 0x3e,
  0xa5, 0x95, 0xc4, 0xbe, 0x4b, 0xb9, 0xa2, 0x3d, 0xc9, 0x8c, 0x59, 0xbe,
  0xa7, 0xc8, 0x62, 0xbe, 0x2d, 0x37, 0x1d, 0xbe, 0x4a, 0xa6, 0x8c, 0xbe,
  0x5e, 0x98, 0x0e, 0xbe, 0xc1, 0x24, 0x21, 0xbe, 0x08, 0x77, 0x23, 0x3e,
  0x7d, 0xc3, 0x3b, 0x3e, 0x80, 0x1b, 0xc4, 0xbe, 0x96, 0x31, 0xbd, 0xbd,
  0x06, 0xd6, 0xf7, 0x3e, 0x79, 0x1f, 0x64, 0xbe, 0x39, 0xd4, 0xee, 0xbd,
  0xab, 0x81, 0x82, 0xbe, 0x81, 0xba, 0x49, 0x3e, 0x95, 0xe1, 0x09, 0x3e,
  0x8d, 0x03, 0x63, 0xbe, 0x27, 0x55, 0x73, 0x3e, 0x46, 0x18, 0x36, 0x3e,
  0x2a, 0x0a, 0xd7, 0x3b, 0xf0, 0xa4, 0xf7, 0xbd, 0x25, 0x35, 0x8f, 0xbe,
  0x02, 0x70, 0xd7, 0xbe, 0x22, 0x2d, 0x5d, 0x3f, 0xe8, 0xfe, 0xa7, 0x3d,
  0xfe, 0xed, 0x42, 0x3c, 0xe0, 0xec, 0x29, 0xbf, 0x47, 0x2b, 0xc3, 0xbe,
  0x52, 0x9d, 0x0a, 0x3e, 0x98, 0xda, 0xd2, 0x3e, 0xe4, 0x89, 0x16, 0xbe,
  0x88, 0x6e, 0x04, 0x3f, 0xe6, 0x4c, 0xa4, 0x3c, 0x80, 0x6f, 0x17, 0xbe,
  0x1a, 0x31, 0x56, 0xbe, 0x18, 0xd5, 0x46, 0xbe, 0xc5, 0x13, 0x6e, 0x3e,
  0x74, 0x52, 0x87, 0xbe, 0xc4, 0xcf, 0xc5, 0xbe, 0x1c, 0x76, 0x93, 0x3e,
  0x36, 0xcb, 0x8e, 0xbe, 0x71, 0x58, 0xe1, 0xbd, 0x94, 0x75, 0x03, 0x3e,
  0xa4, 0x42, 0xcd, 0xbe, 0xbf, 0xde, 0x67, 0xbd, 0x56, 0xe9, 0x04, 0xbe,
  0xd5, 0xb1, 0x17, 0x3e, 0xa0, 0xf1, 0x18, 0xbe, 0x65, 0xe7, 0x69, 0xbe,
  0x48, 0x52, 0xc4, 0x3d, 0x58, 0x9c, 0xc3, 0x3e, 0xd1, 0xcd, 0xa9, 0xbe,
  0x44, 0x22, 0xda, 0xbc, 0x73, 0x31, 0xae, 0xbd, 0xc6, 0xb2, 0xee, 0xbd,
  0x8e, 0x5a, 0x63, 0xbe, 0x7c, 0x7e, 0xde, 0xbd, 0xbf, 0x9e, 0xbc, 0x3d,
  0xf9, 0xe5, 0xde, 0xbd, 0x1d, 0xdd, 0x61, 0xbe, 0x46, 0x61, 0x26, 0x3e,
  0x3d, 0x14, 0x5a, 0xbe, 0x9f, 0x5a, 0x1b, 0xbe, 0x13, 0xd8, 0xf2, 0xbe,
  0x00, 0xc1, 0x1f, 0xbe, 0x84, 0xec, 0x67, 0xbe, 0x5b, 0x1c, 0x97, 0x3d,
  0x45, 0x40, 0x0e, 0xbe, 0x74, 0xde, 0x39, 0x3c, 0x13, 0x3c, 0x6e, 0xbe,
  0x8a, 0xb6, 0x90, 0xbd, 0x34, 0xa4, 0xec, 0xbd, 0x9b, 0xf6, 0xb9, 0xbd,
  0x96, 0x86, 0x5a, 0xbe, 0xed, 0xe5, 0xf5, 0xbd, 0x8c, 0x28, 0x92, 0x3e,
  0x38, 0x3a, 0x4c, 0xbe, 0x80, 0xcc, 0xbf, 0xbd, 0x31, 0x3e, 0x69, 0xbe,
  0x65, 0x00, 0xa3, 0x3e, 0x79, 0x7f, 0x29, 0x3e, 0x23, 0x83, 0xa6, 0xbd,
  0x06, 0xf1, 0xaf, 0xbd, 0x4a, 0xfe, 0x28, 0x3e, 0xd9, 0xdf, 0x81, 0x3c,
  0xcd, 0x6b, 0x5a, 0xbd, 0x81, 0xd8, 0x8f, 0x3a, 0x92, 0x92, 0x0c, 0xbe,
  0x07, 0xfb, 0x7f, 0xbe, 0xd2, 0x20, 0x8a, 0xbd, 0x39, 0x6c, 0x07, 0x3b,
  0xec, 0x4f, 0x38, 0x3e, 0x78, 0xe3, 0xf0, 0xbb, 0xcf, 0xe8, 0xff, 0x3d,
  0x85, 0x17, 0x64, 0x3d, 0xd9, 0x4b, 0x9f, 0x3d, 0x52, 0x8d, 0xd7, 0xbd,
  0x34, 0xb7, 0x44, 0xbd, 0x21, 0x56, 0x74, 0xbc, 0x0c, 0x2a, 0x46, 0xbd,
  0xc6, 0xde, 0xff, 0xff, 0x10, 0x00, 0x00, 0x00, 0x08, 0x00, 0x00, 0x00,
  0x1c, 0x00, 0x00, 0x00, 0x38, 0x00, 0x00, 0x00, 0x04, 0x00, 0x00, 0x00,
  0x10, 0x00, 0x00, 0x00, 0x04, 0x00, 0x00, 0x00, 0x01, 0x00, 0x00, 0x00,
  0x08, 0x00, 0x00, 0x00, 0x1a, 0x00, 0x00, 0x00, 0x73, 0x65, 0x71, 0x75,
  0x65, 0x6e, 0x74, 0x69, 0x61, 0x6c, 0x2f, 0x63, 0x6f, 0x6e, 0x76, 0x32,
  0x64, 0x5f, 0x31, 0x2f, 0x43, 0x6f, 0x6e, 0x76, 0x32, 0x44, 0x00, 0x00,
  0xc0, 0xde, 0xff, 0xff, 0xb6, 0xdf, 0xff, 0xff, 0x04, 0x00, 0x00, 0x00,
  0x80, 0x01, 0x00, 0x00, 0xfa, 0x9b, 0xa2, 0xbd, 0x2b, 0x74, 0x91, 0xbb,
  0xdb, 0x24, 0xb1, 0x3a, 0xd7, 0x1c, 0x8a, 0xbd, 0x3b, 0xcc, 0x03, 0x3e,
  0x3d, 0x24, 0xd2, 0x3a, 0xc0, 0xfa, 0x39, 0xbd, 0xa0, 0xb3, 0x20, 0x3e,
  0x72, 0x1b, 0xe1, 0x3c, 0x63, 0xbc, 0x7f, 0xbd, 0x54, 0x79, 0xbe, 0x3d,
  0xd1, 0x31, 0x63, 0x3d, 0x20, 0xdc, 0x84, 0xbe, 0xd9, 0xde, 0x97, 0x3e,
  0x74, 0x6d, 0x20, 0xbf, 0xa5, 0x39, 0xef, 0xbc, 0x84, 0x5d, 0x82, 0xbe,
  0x12, 0xee, 0xd3, 0xbe, 0xeb, 0x66, 0xa4, 0xbe, 0x06, 0x88, 0xd0, 0xbd,
  0xdd, 0xb9, 0x17, 0xbe, 0x5b, 0x7c, 0xfe, 0xbd, 0xbb, 0xdf, 0x23, 0x3c,
  0x98, 0x06, 0x4c, 0xbe, 0x84, 0x56, 0xd7, 0x3e, 0xc7, 0x39, 0x60, 0x3d,
  0xd1, 0x74, 0x23, 0xbf, 0xf8, 0x5b, 0x46, 0xbe, 0x25, 0x05, 0x62, 0xbe,
  0xd4, 0x62, 0xc8, 0xbe, 0xab, 0x28, 0x99, 0x3e, 0x68, 0x94, 0xf8, 0xbc,
  0x10, 0x68, 0x32, 0xbe, 0x5d, 0x84, 0xaf, 0x3e, 0xc2, 0x31, 0xc3, 0xbd,
  0x50, 0x07, 0x3a, 0x3e, 0xda, 0x5d, 0xc2, 0x3e, 0x48, 0x62, 0xcf, 0xbe,
  0x7d, 0x5a, 0xa8, 0x3e, 0xc2, 0xcd, 0xd4, 0x3d, 0xda, 0x95, 0x1a, 0x3e,
  0x52, 0xe1, 0x03, 0xbe, 0xc5, 0x90, 0xa2, 0x3c, 0xd1, 0x1f, 0xee, 0x3c,
  0xa5, 0x1f, 0xfd, 0xbc, 0xa2, 0xa5, 0xf5, 0xbe, 0x29, 0x48, 0x29, 0x3e,
  0x0e, 0x50, 0x8f, 0xbe, 0xd7, 0x20, 0x0c, 0xbc, 0x6f, 0x60, 0x62, 0xbe,
  0x42, 0xbf, 0x7b, 0xbe, 0x7d, 0x29, 0xe3, 0xbe, 0xfe, 0x1b, 0xe5, 0x3d,
  0x64, 0x56, 0xe4, 0xbd, 0x31, 0xaf, 0xca, 0xbc, 0x1f, 0x4b, 0x2d, 0x3c,
  0xcc, 0x03, 0x32, 0xbe, 0xe2, 0xb2, 0xe5, 0xbd, 0x62, 0xa1, 0xcd, 0x3d,
  0xc7, 0x27, 0xed, 0xbd, 0x2e, 0x8d, 0x2b, 0xbe, 0xa2, 0xc5, 0x9e, 0xbd,
  0xf1, 0xe1, 0x43, 0x3e, 0x23, 0x9f, 0x00, 0xbf, 0xea, 0x03, 0xbe, 0x3d,
  0x74, 0xd3, 0xd3, 0xbc, 0xed, 0x18, 0xeb, 0xbe, 0xf4, 0x79, 0x6e, 0x3d,
  0x9f, 0x08, 0x7a, 0xbe, 0xb3, 0x43, 0x72, 0x3b, 0xe3, 0xa2, 0xf1, 0xbd,
  0x97, 0x65, 0x0c, 0xbc, 0x50, 0x45, 0xe0, 0xbd, 0x83, 0xe1, 0x6d, 0x3d,
  0x7d, 0xd8, 0x7a, 0xbe, 0x89, 0x15, 0x5d, 0x3a, 0xdf, 0x46, 0x2d, 0x3e,
  0x85, 0x24, 0x2d, 0xbe, 0xc0, 0xcf, 0x0e, 0xbd, 0xe9, 0x83, 0x90, 0xbe,
  0x1e, 0xfa, 0x0d, 0xbe, 0x44, 0xfa, 0xa4, 0xbc, 0xbb, 0xd6, 0xd7, 0xbe,
  0x0e, 0x4c, 0x10, 0xbd, 0xe4, 0x14, 0xc7, 0x3d, 0xbb, 0x5d, 0xa6, 0xbd,
  0x41, 0xf8, 0x77, 0xbe, 0x0d, 0xc3, 0xfa, 0x3e, 0x55, 0x70, 0x2a, 0xbe,
  0xee, 0xd1, 0x7c, 0xbe, 0xf2, 0x08, 0x00, 0xbe, 0xb8, 0x8e, 0x5a, 0x3d,
  0x69, 0xe4, 0x48, 0x3e, 0x00, 0x15, 0xa8, 0x3e, 0xc7, 0x75, 0xdd, 0xbd,
  0x93, 0x2c, 0x17, 0xbe, 0x9e, 0xe0, 0xff, 0xff, 0x10, 0x00, 0x00, 0x00,
  0x07, 0x00, 0x00, 0x00, 0x1c, 0x00, 0x00, 0x00, 0x38, 0x00, 0x00, 0x00,
  0x04, 0x00, 0x00, 0x00, 0x08, 0x00, 0x00, 0x00, 0x04, 0x00, 0x00, 0x00,
  0x03, 0x00, 0x00, 0x00, 0x01, 0x00, 0x00, 0x00, 0x18, 0x00, 0x00, 0x00,
  0x73, 0x65, 0x71, 0x75, 0x65, 0x6e, 0x74, 0x69, 0x61, 0x6c, 0x2f, 0x63,
  0x6f, 0x6e, 0x76, 0x32, 0x64, 0x2f, 0x43, 0x6f, 0x6e, 0x76, 0x32, 0x44,
  0x00, 0x00, 0x00, 0x00, 0x98, 0xe0, 0xff, 0xff, 0x8e, 0xe1, 0xff, 0xff,
  0x04, 0x00, 0x00, 0x00, 0x00, 0x01, 0x00, 0x00, 0xd5, 0x64, 0xd1, 0xbe,
  0x07, 0x9d, 0x18, 0x3e, 0xbe, 0xba, 0x4f, 0x3e, 0x2f, 0xb8, 0x0d, 0xbe,
  0x5e, 0x17, 0x4f, 0xbe, 0xc3, 0x17, 0x80, 0xbe, 0x07, 0x8b, 0x94, 0x3d,
  0x7e, 0x8f, 0x8c, 0x3d, 0xe6, 0x4e, 0xd2, 0x3e, 0xbb, 0x20, 0x25, 0xbe,
  0xad, 0x58, 0xe7, 0xbe, 0x25, 0x3a, 0xe5, 0xbe, 0x0c, 0xe0, 0xc7, 0x3e,
  0xa5, 0x39, 0xbe, 0x3e, 0x9c, 0x1e, 0x0d, 0x3e, 0x52, 0xef, 0x9f, 0xbc,
  0xbf, 0xa3, 0xd6, 0x3e, 0x21, 0x05, 0x23, 0x3e, 0x0b, 0xa3, 0x1c, 0x3d,
  0xd8, 0x3a, 0xbf, 0xbe, 0x91, 0xd5, 0xcc, 0x3e, 0x58, 0xf7, 0x62, 0xbe,
  0x9b, 0x7b, 0xce, 0x3e, 0x33, 0x60, 0xe2, 0x3e, 0xcd, 0x19, 0xc3, 0x3e,
  0x8b, 0x5e, 0x88, 0x3e, 0xa2, 0x0c, 0xfa, 0xbe, 0xd1, 0xa5, 0xa3, 0x3e,
  0xf6, 0x6a, 0x02, 0xbf, 0xee, 0xab, 0xc7, 0x3e, 0xff, 0x1e, 0xfb, 0xbc,
  0xa8, 0xb9, 0x4f, 0x3e, 0x52, 0x21, 0xa8, 0x3e, 0x28, 0x55, 0x0a, 0x3e,
  0xcf, 0xd1, 0xa7, 0x3e, 0xee, 0x4d, 0x8e, 0xbe, 0xb3, 0xf1, 0x73, 0x3d,
  0xba, 0x16, 0x81, 0xbe, 0x1c, 0xf6, 0x79, 0xbd, 0xaa, 0x93, 0x93, 0x3c,
  0xc1, 0x70, 0xbe, 0x3c, 0x8d, 0x05, 0xcc, 0x3e, 0x63, 0x3c, 0xc0, 0xbd,
  0xda, 0x26, 0x95, 0xbe, 0x1e, 0x0a, 0x9e, 0x3e, 0xd4, 0x28, 0xa6, 0x3e,
  0x6c, 0xd2, 0x22, 0xbf, 0x00, 0x78, 0x09, 0xbf, 0xaa, 0xa8, 0x14, 0xbe,
  0x6b, 0x54, 0x46, 0x3e, 0x1d, 0x51, 0x11, 0x3e, 0xc0, 0x5d, 0x7e, 0x3e,
  0x8c, 0xd4, 0xfc, 0x3c, 0x08, 0xb5, 0x40, 0xbe, 0x27, 0x81, 0xb7, 0xbe,
  0x20, 0xcb, 0xac, 0xbe, 0x31, 0x05, 0xaa, 0x3e, 0x3a, 0x77, 0x8c, 0x3e,
  0x58, 0x8f, 0xcc, 0x3e, 0x38, 0xe9, 0xf2, 0x3d, 0x32, 0xdd, 0x3f, 0xbc,
  0x37, 0x91, 0xdb, 0x3e, 0xa9, 0x42, 0x3a, 0x3e, 0x02, 0xc4, 0x87, 0xbd,
  0xf6, 0xe1, 0xff, 0xff, 0x10, 0x00, 0x00, 0x00, 0x06, 0x00, 0x00, 0x00,
  0x14, 0x00, 0x00, 0x00, 0x30, 0x00, 0x00, 0x00, 0x02, 0x00, 0x00, 0x00,
  0x04, 0x00, 0x00, 0x00, 0x10, 0x00, 0x00, 0x00, 0x19, 0x00, 0x00, 0x00,
  0x73, 0x65, 0x71, 0x75, 0x65, 0x6e, 0x74, 0x69, 0x61, 0x6c, 0x2f, 0x64,
  0x65, 0x6e, 0x73, 0x65, 0x5f, 0x31, 0x2f, 0x4d, 0x61, 0x74, 0x4d, 0x75,
  0x6c, 0x00, 0x00, 0x00, 0xe8, 0xe1, 0xff, 0xff, 0xde, 0xe2, 0xff, 0xff,
  0x04, 0x00, 0x00, 0x00, 0x00, 0x1c, 0x00, 0x00, 0x83, 0x87, 0x9f, 0xbe,
  0x80, 0x20, 0xeb, 0xbd, 0x06, 0x31, 0x87, 0x3d, 0x6c, 0xd8, 0x89, 0xbb,
  0xe3, 0x49, 0x39, 0xbe, 0xf3, 0x2a, 0x50, 0xbc, 0x9f, 0x36, 0x4a, 0xbe,
  0xc8, 0x99, 0x3d, 0xbe, 0x5d, 0x66, 0x07, 0xbe, 0xf8, 0x01, 0xda, 0x3d,
  0x6e, 0x11, 0x29, 0xbe, 0xee, 0x55, 0x2d, 0x3d, 0xa7, 0xc0, 0x33, 0x3d,
  0x11, 0x1e, 0x0f, 0xbe, 0x93, 0x13, 0x00, 0xbe, 0x61, 0xb2, 0x41, 0xbc,
  0x7a, 0x83, 0xa6, 0x3b, 0xe3, 0x05, 0x1d, 0x3d, 0xd9, 0xd9, 0x0b, 0x3e,
  0x91, 0xb3, 0x17, 0xbd, 0xf4, 0x58, 0x8a, 0x3c, 0x35, 0x70, 0xbc, 0xbd,
  0x7e, 0xea, 0x09, 0xbe, 0xe7, 0xd4, 0xb1, 0xbd, 0x91, 0xd1, 0xd8, 0xbd,
  0xf3, 0x82, 0xd7, 0xbc, 0x6f, 0x28, 0x2a, 0x3c, 0x96, 0x5b, 0x4a, 0xbd,
  0xef, 0x3a, 0x10, 0xbd, 0x21, 0x76, 0x25, 0xbd, 0xbd, 0xd4, 0x48, 0x3d,
  0x0a, 0x30, 0x41, 0xbe, 0x85, 0xf2, 0x32, 0xbe, 0x53, 0xcb, 0x56, 0xbe,
  0xc7, 0xa0, 0xd1, 0xbd, 0x09, 0x7b, 0x0e, 0x3d, 0x0e, 0x56, 0x52, 0x3d,
  0xb4, 0xda, 0xf9, 0xbd, 0x14, 0x85, 0x83, 0xbd, 0x60, 0x0d, 0xc1, 0xbd,
  0x73, 0xf3, 0x80, 0xbe, 0xe2, 0xe7, 0xa4, 0xbd, 0x86, 0xcf, 0xbe, 0xbd,
  0xb7, 0x73, 0x77, 0xbd, 0xad, 0x44, 0xe2, 0x3d, 0xe8, 0x69, 0xd6, 0xbd,
  0x2c, 0x41, 0x71, 0x3d, 0x3a, 0x08, 0x61, 0x3d, 0xd4, 0xd6, 0xd2, 0xbd,
  0x47, 0xf8, 0x8f, 0xbe, 0x64, 0xb0, 0x52, 0xbd, 0x8d, 0x29, 0xe0, 0xbb,
  0xd5, 0xba, 0x61, 0x3c, 0x21, 0x6b, 0xbe, 0xbd, 0x2f, 0xf7, 0xff, 0x3c,
  0xe1, 0x32, 0x2c, 0x3e, 0xca, 0x8b, 0xa5, 0xbe, 0x7c, 0xcf, 0x1f, 0xbd,
  0xda, 0x70, 0x88, 0x3d, 0x21, 0x85, 0x4a, 0xbe, 0x6c, 0x70, 0x89, 0xbc,
  0x2f, 0x8d, 0x02, 0xbe, 0x63, 0x55, 0x9b, 0xbe, 0xb6, 0x4a, 0x00, 0x3e,
  0xc7, 0xcb, 0xe3, 0x3d, 0xac, 0x83, 0x63, 0xbe, 0x44, 0x32, 0x7e, 0xbc,
  0x5d, 0x6b, 0xf1, 0x3d, 0xfa, 0x76, 0x51, 0xbe, 0x04, 0x73, 0x51, 0xbe,
  0x6a, 0x02, 0x98, 0xbe, 0x82, 0x66, 0x41, 0xbe, 0x38, 0xcd, 0x9d, 0xbc,
  0x86, 0x61, 0x74, 0xbe, 0x08, 0xb1, 0x4a, 0xba, 0x13, 0x06, 0x68, 0x3d,
  0x89, 0x24, 0xec, 0xbd, 0x9f, 0xa1, 0x45, 0x3c, 0xcc, 0x44, 0x00, 0xbe,
  0x78, 0x13, 0x43, 0xbd, 0x4c, 0x37, 0xb9, 0x3d, 0x5b, 0x26, 0x62, 0x3c,
  0x78, 0x9d, 0xca, 0x3d, 0xfd, 0x99, 0x40, 0x3e, 0xb6, 0x9f, 0x13, 0xbe,
  0x7c, 0x44, 0x1d, 0x3e, 0x7d, 0xa2, 0x87, 0xbe, 0x28, 0x7b, 0x7c, 0xbe,
  0x6e, 0xb3, 0xa5, 0x3d, 0xd9, 0x4f, 0x63, 0xbe, 0xe7, 0xde, 0x46, 0xbd,
  0xd5, 0x18, 0xa1, 0x3d, 0x82, 0x53, 0xf0, 0x3d, 0x14, 0x8d, 0x67, 0x3d,
  0x04, 0xd4, 0x96, 0x3c, 0x88, 0xd9, 0xf3, 0x3d, 0xbe, 0x6c, 0xc7, 0xbd,
  0xac, 0x62, 0x49, 0xbe, 0x65, 0x3a, 0x4f, 0x3d, 0x05, 0x14, 0x62, 0xbe,
  0x90, 0x96, 0xfa, 0xbc, 0xd1, 0x3a, 0x4e, 0xbe, 0xd1, 0x88, 0xec, 0xbc,
  0x64, 0xd4, 0x0c, 0x3e, 0x13, 0xeb, 0x83, 0xbe, 0x3f, 0x6d, 0x3a, 0xbd,
  0xba, 0x0a, 0x20, 0xbd, 0x9f, 0xfe, 0x2b, 0xbe, 0xc3, 0x2f, 0x23, 0x3e,
  0x29, 0x74, 0x5e, 0xbe, 0xae, 0x16, 0x4c, 0x3d, 0xdc, 0x54, 0x61, 0xbe,
  0x81, 0x73, 0x0a, 0x3f, 0x26, 0x95, 0xfd, 0xbc, 0x6d, 0x11, 0x3f, 0x3e,
  0x46, 0xfb, 0x22, 0xbf, 0xa0, 0x13, 0x93, 0xbe, 0xe2, 0x5d, 0xc0, 0x3e,
  0xd0, 0xc1, 0x22, 0x3e, 0xe4, 0xc8, 0xa9, 0x3c, 0x0b, 0x60, 0x67, 0xbc,
  0xf5, 0x4e, 0xb5, 0x3e, 0xd9, 0x0c, 0x50, 0x3f, 0xfb, 0x8c, 0xc2, 0xbe,
  0x4f, 0x55, 0xe7, 0xbd, 0xaa, 0xc4, 0xd3, 0xbe, 0x70, 0x73, 0x4c, 0x3c,
  0xed, 0x0e, 0x9c, 0x3e, 0x8c, 0x08, 0x35, 0xbe, 0x82, 0x22, 0x3e, 0xbd,
  0x7d, 0x4a, 0x9b, 0x3d, 0xda, 0x80, 0x15, 0xbe, 0xb0, 0x03, 0xe1, 0xbe,
  0x21, 0x47, 0xa0, 0x3e, 0x20, 0x1c, 0xb8, 0x3d, 0x37, 0x2e, 0xaf, 0x3c,
  0x5b, 0xc3, 0x2e, 0xbc, 0x18, 0xeb, 0x33, 0xbe, 0xcb, 0x34, 0xb2, 0x3e,
  0xe8, 0x1b, 0xb3, 0xbc, 0x74, 0x8b, 0x9c, 0x3c, 0x0d, 0x64, 0xcd, 0xbd,
  0x16, 0xb6, 0xdb, 0xbd, 0x6c, 0x4b, 0x1c, 0x3e, 0x2f, 0x1e, 0x9b, 0x3c,
  0x63, 0x6f, 0x7c, 0xbc, 0xaa, 0x33, 0xca, 0x3e, 0x11, 0x4a, 0x6e, 0xbe,
  0x7f, 0x1a, 0x16, 0xbe, 0x00, 0xd3, 0xda, 0x3d, 0xc4, 0x4a, 0x12, 0xbd,
  0xb3, 0xee, 0x3c, 0x3e, 0x06, 0xc4, 0x71, 0xbc, 0xc8, 0x6b, 0xb5, 0x3d,
  0x81, 0x31, 0xfc, 0x3e, 0x90, 0xd8, 0xe0, 0xbb, 0x42, 0x71, 0x82, 0x3d,
  0x36, 0xbe, 0x6b, 0xbe, 0xd4, 0x92, 0x42, 0xbd, 0xd7, 0x2d, 0xa0, 0x3d,
  0xb4, 0x81, 0xb7, 0x3c, 0xaa, 0x4b, 0x87, 0xbd, 0x9f, 0x8c, 0xa7, 0x3e,
  0x3f, 0x84, 0x17, 0xbe, 0x7b, 0x59, 0x6f, 0xbe, 0xb1, 0xfd, 0x4e, 0x3e,
  0xba, 0x97, 0xd0, 0x3d, 0xa0, 0xc5, 0x4d, 0x3e, 0xaa, 0x68, 0xa6, 0x3d,
  0x52, 0xeb, 0x62, 0x3e, 0xc9, 0xca, 0x09, 0x3e, 0xdb, 0xdc, 0x47, 0xbe,
  0x8d, 0xaf, 0xca, 0x3d, 0x65, 0x45, 0x37, 0xbe, 0x01, 0x38, 0xd7, 0x3d,
  0x34, 0x53, 0x41, 0x3e, 0x34, 0xcf, 0x96, 0xbd, 0xa7, 0x16, 0x27, 0x3d,
  0xa7, 0xc0, 0x8c, 0x3e, 0x5f, 0xf9, 0x41, 0xbe, 0xad, 0x60, 0xc6, 0xbe,
  0x2c, 0xf2, 0x2e, 0x3e, 0x8a, 0x6c, 0x99, 0xbd, 0x62, 0x65, 0x04, 0x3e,
  0x23, 0x3d, 0xd3, 0x3c, 0xa6, 0xfc, 0xd5, 0x3d, 0x23, 0xb9, 0x23, 0x3d,
  0x1c, 0x4b, 0x32, 0xbe, 0x48, 0x77, 0x55, 0x3e, 0x8a, 0x0e, 0x40, 0xbe,
  0x26, 0x35, 0x13, 0x3e, 0x1b, 0x65, 0xc8, 0x3d, 0x39, 0xdf, 0x02, 0xbe,
  0x71, 0xf5, 0x9b, 0xbd, 0x71, 0xb7, 0x0e, 0x3e, 0x60, 0x88, 0x86, 0xbe,
  0x18, 0x5c, 0xf5, 0xbe, 0xa5, 0xdb, 0x7d, 0x3e, 0x23, 0x37, 0xfb, 0x3d,
  0x2c, 0xf0, 0xe2, 0x3c, 0x0e, 0xbf, 0x95, 0x3c, 0x15, 0x7b, 0x7b, 0xbc,
  0x08, 0xdf, 0x07, 0x3e, 0xdd, 0x78, 0x61, 0xbe, 0x07, 0x00, 0x00, 0x3e,
  0x70, 0xcd, 0x7c, 0xbe, 0x46, 0x57, 0x90, 0x3d, 0xa0, 0x41, 0x1c, 0x3e,
  0xc9, 0xe3, 0x9e, 0x3e, 0xa9, 0xb0, 0xc5, 0x3c, 0xb7, 0xc2, 0x9a, 0x3e,
  0x34, 0x1e, 0x8a, 0xbd, 0x03, 0x19, 0xb2, 0xbe, 0x1b, 0x38, 0x7e, 0x3d,
  0x26, 0xff, 0x4d, 0x3d, 0xa7, 0xb7, 0x30, 0x3e, 0x72, 0x46, 0x33, 0xbd,
  0x9c, 0x6d, 0x99, 0x3e, 0xc0, 0x7c, 0x0b, 0x3f, 0xdd, 0xac, 0x02, 0xbe,
  0xa8, 0x0e, 0xa4, 0x3e, 0xe2, 0xb8, 0xa2, 0xbd, 0x0f, 0xb4, 0xad, 0xbe,
  0x38, 0x60, 0xd5, 0x3e, 0x98, 0xfa, 0x24, 0xbe, 0x37, 0x4d, 0x7b, 0xbd,
  0x7c, 0xae, 0xe0, 0x3c, 0x8a, 0x0f, 0x71, 0xbe, 0xdd, 0xc4, 0x46, 0x3d,
  0xd6, 0xd5, 0x54, 0xbe, 0x5c, 0xe9, 0xe3, 0x3c, 0x69, 0x38, 0xb9, 0x3d,
  0x60, 0x8a, 0x64, 0x37, 0x73, 0x74, 0x5f, 0x3d, 0xff, 0xda, 0x03, 0x3d,
  0xa0, 0xb4, 0xb3, 0xbb, 0xbb, 0x62, 0x13, 0xbe, 0x9c, 0x23, 0x0e, 0xbe,
  0xc3, 0x22, 0x19, 0xbe, 0xea, 0xaa, 0x06, 0xbd, 0xa6, 0x12, 0x82, 0x3d,
  0x83, 0xee, 0x83, 0xbe, 0x23, 0x4c, 0x11, 0x3e, 0x1c, 0x90, 0x71, 0x3d,
  0x35, 0xf4, 0x82, 0xbe, 0x37, 0xe8, 0x3c, 0x3e, 0x22, 0x22, 0x0f, 0xbd,
  0x2d, 0x22, 0x78, 0xbd, 0x11, 0x8d, 0x3f, 0xbe, 0x80, 0x7c, 0x82, 0x3d,
  0x19, 0x11, 0xf9, 0xbc, 0x83, 0x5f, 0x10, 0x3c, 0x03, 0xcd, 0x8f, 0x3d,
  0x20, 0x84, 0xd6, 0xbd, 0x53, 0x84, 0x68, 0xbe, 0xd3, 0x39, 0x22, 0x3d,
  0xa2, 0x70, 0x0a, 0xbd, 0x7d, 0xd1, 0x4e, 0xbe, 0xaf, 0xfc, 0x33, 0x3d,
  0xf8, 0x8d, 0x80, 0x3c, 0x50, 0xf8, 0x21, 0x3d, 0x49, 0x7a, 0x29, 0x3e,
  0x80, 0x94, 0x44, 0x3d, 0x43, 0x72, 0x13, 0x3e, 0x37, 0x98, 0xa3, 0xbe,
  0x47, 0xc9, 0x09, 0xbe, 0xba, 0xa0, 0xf3, 0xbd, 0x36, 0x36, 0x23, 0x3e,
  0x2c, 0x1e, 0x26, 0x3e, 0x9a, 0x69, 0x1d, 0xbd, 0x4f, 0xbd, 0x20, 0xbe,
  0xad, 0x84, 0xcd, 0x3d, 0x36, 0x72, 0xbb, 0x3d, 0x08, 0xc9, 0x5f, 0xbe,
  0x69, 0xc8, 0x3b, 0x3e, 0x60, 0x82, 0x17, 0x3e, 0x36, 0x4f, 0x21, 0xbe,
  0x17, 0xcb, 0x8f, 0xbe, 0x9d, 0xa1, 0x6b, 0xbe, 0xcf, 0x11, 0x51, 0xbe,
  0x79, 0xb4, 0xbd, 0x3d, 0xd5, 0x17, 0xbb, 0xbd, 0x61, 0xd1, 0x40, 0x3d,
  0xd4, 0xfb, 0x6c, 0x3d, 0xa1, 0xb6, 0xbf, 0x3d, 0x34, 0x3d, 0xc2, 0xbd,
  0x3a, 0xf2, 0x35, 0xbd, 0x5b, 0x39, 0xd4, 0xbd, 0x12, 0xc8, 0xe9, 0x3c,
  0xde, 0x79, 0x41, 0xbe, 0x79, 0x81, 0x71, 0xbe, 0x26, 0x01, 0xe1, 0xbd,
  0x1a, 0x38, 0x71, 0xbc, 0x55, 0xa3, 0x5b, 0xbe, 0xea, 0x4a, 0xb4, 0xbd,
  0x21, 0x63, 0x38, 0x3c, 0x0a, 0xa3, 0x87, 0xbe, 0xbc, 0xfc, 0x2f, 0xbd,
  0xf2, 0xd8, 0xe5, 0x3d, 0x8b, 0xb4, 0x6f, 0xbd, 0x85, 0x93, 0x58, 0xbe,
  0x89, 0x41, 0xf5, 0xbd, 0x5b, 0x95, 0xfc, 0x3d, 0x50, 0x9e, 0x30, 0xbe,
  0x08, 0xd3, 0x1b, 0x3d, 0x39, 0xfc, 0x9c, 0xbd, 0xbb, 0x78, 0x17, 0x3e,
  0x2e, 0x8d, 0x8e, 0x3d, 0x3c, 0x58, 0xd5, 0xbc, 0x14, 0x9e, 0x4d, 0xbe,
  0x5e, 0x14, 0x84, 0xbe, 0x53, 0x0f, 0x9c, 0xbd, 0x76, 0x1d, 0xe8, 0xbd,
  0xa4, 0x74, 0x34, 0xbe, 0xe0, 0xb8, 0xae, 0xbd, 0xac, 0xf6, 0x69, 0xbe,
  0x69, 0x5f, 0x4b, 0x3c, 0x14, 0x4d, 0x8f, 0x3d, 0xe2, 0xb1, 0x10, 0xbe,
  0x1f, 0x1f, 0x40, 0x3e, 0x5d, 0x30, 0xb8, 0x3d, 0xc3, 0xb4, 0xce, 0xbd,
  0x26, 0xa0, 0x13, 0x3e, 0x5f, 0x64, 0xdd, 0x3b, 0x7c, 0x2c, 0xf0, 0x3d,
  0x50, 0xa3, 0x6d, 0xbe, 0x17, 0x0c, 0x40, 0xbe, 0xea, 0xae, 0xed, 0xbd,
  0xaa, 0x35, 0xc5, 0xbd, 0x2d, 0x72, 0x26, 0xbe, 0x03, 0xbd, 0x82, 0x3d,
  0x26, 0x02, 0x49, 0x3d, 0x6c, 0xbe, 0x3d, 0xbe, 0x4c, 0x6e, 0x03, 0xbe,
  0xee, 0x77, 0xfd, 0x3d, 0x68, 0x30, 0x8c, 0xbc, 0xcc, 0xc0, 0x3f, 0x3e,
  0xd9, 0x6c, 0xe1, 0xbd, 0xa2, 0xe7, 0x9f, 0x3e, 0x46, 0x9d, 0xa5, 0xbe,
  0x4d, 0xa2, 0x0a, 0xbe, 0x85, 0xcf, 0xb3, 0x3e, 0xb5, 0x9f, 0xb8, 0xbc,
  0xaa, 0x18, 0x3c, 0x3e, 0x62, 0x64, 0x96, 0xbe, 0x75, 0x91, 0x8c, 0x3e,
  0x36, 0x0b, 0x8d, 0xbc, 0x9d, 0xaa, 0x3e, 0xbe, 0x6d, 0x57, 0xb3, 0xbd,
  0x80, 0x1a, 0xed, 0xbc, 0x6e, 0xc7, 0xf8, 0xbd, 0x85, 0x35, 0xde, 0x3d,
  0x23, 0x6a, 0xb9, 0xbe, 0x8d, 0xf2, 0x43, 0xbe, 0x12, 0x7d, 0x5f, 0x3e,
  0x71, 0x6c, 0x55, 0x3c, 0x63, 0xfb, 0xac, 0xbc, 0x4d, 0x04, 0x86, 0x3e,
  0x83, 0xce, 0x21, 0x3e, 0xac, 0xd0, 0x62, 0x3d, 0x15, 0xf1, 0x5a, 0xbe,
  0x6a, 0xdb, 0xe0, 0x3d, 0x98, 0xdf, 0x11, 0x3e, 0x9e, 0x9e, 0xdf, 0x3d,
  0x29, 0xd4, 0x03, 0xbe, 0x94, 0xed, 0x34, 0x3e, 0x06, 0x94, 0x39, 0x3c,
  0xc3, 0x13, 0x93, 0xbd, 0x69, 0x4d, 0x39, 0xbe, 0xfc, 0xda, 0x5e, 0xbd,
  0x44, 0xcb, 0xfd, 0x3e, 0x76, 0xd9, 0xc2, 0xbc, 0xc3, 0x7a, 0x31, 0xbe,
  0x94, 0x0e, 0xd8, 0x3d, 0xca, 0x7b, 0x3b, 0x3e, 0xea, 0xef, 0x11, 0x3e,
  0x14, 0x16, 0x25, 0xbe, 0x06, 0x4d, 0xf7, 0xbd, 0x7a, 0x27, 0x6e, 0x3d,
  0x28, 0xb5, 0xf4, 0xbd, 0x1b, 0xd0, 0x15, 0xbe, 0xc6, 0x6f, 0xef, 0x3c,
  0x49, 0x80, 0xed, 0x3d, 0x6c, 0x26, 0xeb, 0xbc, 0x17, 0xac, 0xcf, 0xbe,
  0x5a, 0x33, 0x6c, 0xbe, 0x05, 0xca, 0x45, 0x3e, 0xb6, 0xe7, 0x95, 0xbd,
  0xd0, 0x8f, 0xfe, 0x3d, 0x17, 0x53, 0x76, 0x3e, 0x1e, 0xa7, 0x8a, 0x3e,
  0x04, 0x70, 0x63, 0xbe, 0x40, 0xfa, 0xaa, 0xbc, 0x35, 0x44, 0xd4, 0xbd,
  0x5a, 0xfe, 0xb6, 0xbe, 0xfb, 0x7b, 0x17, 0xbc, 0xb0, 0x67, 0x02, 0xbe,
  0xa5, 0xc6, 0xca, 0x3d, 0xfa, 0x72, 0x8e, 0x3d, 0x5f, 0x45, 0x65, 0xbe,
  0x61, 0x94, 0x08, 0xbe, 0x48, 0x58, 0x6c, 0x3d, 0xcf, 0x6b, 0xe5, 0x3e,
  0x6b, 0x97, 0xa4, 0x3d, 0x17, 0xd5, 0xd7, 0xbd, 0xfb, 0x01, 0x55, 0x3e,
  0x99, 0x8d, 0x12, 0x3d, 0xda, 0xef, 0x72, 0xbe, 0x4d, 0xdd, 0x89, 0xbe,
  0xa0, 0x6d, 0x6b, 0x3e, 0x91, 0xcb, 0xbd, 0xbe, 0xd1, 0x54, 0x0e, 0x3d,
  0xf4, 0xa6, 0x76, 0xbe, 0xa0, 0xc3, 0x1b, 0x3b, 0x5c, 0xb2, 0x36, 0x3e,
  0xf0, 0x02, 0x74, 0xbe, 0xf9, 0xb3, 0xba, 0xbe, 0x29, 0x92, 0x8a, 0xbe,
  0x98, 0xdc, 0x83, 0x3e, 0x8c, 0x61, 0xcc, 0x3c, 0x0c, 0x9a, 0x01, 0xbd,
  0x08, 0x4e, 0xd9, 0x3d, 0x3d, 0x62, 0x94, 0x3e, 0x82, 0x9b, 0x84, 0x3d,
  0xc3, 0x1b, 0x20, 0xbe, 0x70, 0xeb, 0x36, 0x3c, 0x76, 0xe0, 0x21, 0xbe,
  0xdc, 0xe1, 0xac, 0x3b, 0x29, 0x81, 0xe7, 0xbd, 0xd9, 0xb1, 0xcd, 0x3c,
  0x88, 0xf8, 0x89, 0xbe, 0xe2, 0x76, 0xd7, 0xbd, 0x4a, 0xfc, 0x2d, 0x3e,
  0xbb, 0xfe, 0x45, 0xbd, 0x11, 0x07, 0xc0, 0xbc, 0x06, 0xc0, 0xb1, 0xbb,
  0xab, 0x89, 0x9c, 0x3d, 0x7d, 0x04, 0x9e, 0x3e, 0xa3, 0xd0, 0xbf, 0xbd,
  0x4e, 0x87, 0xd0, 0x3d, 0xba, 0x43, 0x5e, 0xbe, 0x27, 0x80, 0xe0, 0xbc,
  0x98, 0xd0, 0x15, 0xbe, 0x26, 0x19, 0x8b, 0xbd, 0x39, 0x3b, 0x5a, 0xbd,
  0xe8, 0x4c, 0xbc, 0x3d, 0xf3, 0x9d, 0xc9, 0xbd, 0xfe, 0x9f, 0xb2, 0x3a,
  0x57, 0x7a, 0xaa, 0x3c, 0x0d, 0xe6, 0x2e, 0xbe, 0x6e, 0x5d, 0x4d, 0xbe,
  0x0a, 0x6c, 0x62, 0xbd, 0x62, 0x40, 0xbe, 0x3d, 0x9d, 0xc5, 0x98, 0xbd,
  0x4b, 0x7e, 0x82, 0xbe, 0xc7, 0xf1, 0x53, 0xbd, 0x9d, 0xbf, 0x08, 0xbd,
  0xa6, 0xab, 0x59, 0x3d, 0x95, 0x2b, 0x46, 0xbe, 0xeb, 0xea, 0x69, 0xbd,
  0xc7, 0x24, 0x8d, 0xbe, 0x43, 0x73, 0x04, 0xbe, 0x99, 0x6e, 0x01, 0xbe,
  0xf4, 0xe4, 0x51, 0xbe, 0x42, 0x69, 0x43, 0xbe, 0x09, 0x0d, 0x24, 0xbe,
  0x47, 0xab, 0x69, 0x3d, 0x00, 0x3e, 0x3a, 0xbe, 0xa0, 0x7c, 0x3a, 0xbe,
  0x38, 0x90, 0x04, 0x3d, 0xe5, 0x16, 0xc4, 0x3c, 0x8c, 0x9d, 0x2d, 0x3c,
  0xc5, 0x8d, 0x1c, 0xbe, 0x6d, 0xd4, 0x19, 0xbd, 0x61, 0x13, 0x34, 0xbe,
  0x1d, 0x15, 0x7f, 0xbd, 0x6f, 0x21, 0x07, 0x3e, 0xce, 0x53, 0xe0, 0xbd,
  0x28, 0xf5, 0xe3, 0xbd, 0x99, 0x12, 0x9e, 0x3d, 0x8d, 0xd1, 0xd2, 0x3c,
  0x7f, 0x0a, 0x73, 0xbe, 0xea, 0x36, 0xb1, 0x3d, 0xe7, 0x04, 0x0d, 0xbe,
  0x1b, 0xfb, 0x63, 0x3d, 0x0e, 0xe4, 0x10, 0xbe, 0x08, 0xed, 0x24, 0xbe,
  0xfc, 0x43, 0x8e, 0xbc, 0x57, 0x76, 0x2c, 0xbe, 0x0d, 0xcf, 0xb6, 0x3d,
  0x64, 0x3e, 0x3d, 0xbe, 0xd2, 0xbe, 0x96, 0x3d, 0x96, 0x64, 0x2b, 0xbd,
  0x94, 0x5a, 0x0f, 0xbe, 0xdb, 0x1e, 0x1e, 0xbe, 0xc9, 0x3c, 0x78, 0xbd,
  0x6e, 0x15, 0x6e, 0xbe, 0x7d, 0x18, 0x4c, 0x3d, 0x6e, 0x90, 0xa8, 0x3d,
  0xe7, 0x1a, 0x58, 0xbe, 0xc9, 0xbc, 0x62, 0xbd, 0x0e, 0x4c, 0x41, 0xbe,
  0xff, 0x67, 0x79, 0xbe, 0x36, 0x7f, 0x56, 0xbe, 0xa7, 0xd4, 0x63, 0xbd,
  0xa4, 0xf1, 0x4f, 0xbe, 0xd6, 0x33, 0x4e, 0x3e, 0x3e, 0x28, 0x63, 0xbd,
  0x98, 0x31, 0x44, 0x3d, 0xb4, 0xe9, 0xd3, 0x3d, 0x79, 0x16, 0x7e, 0xbe,
  0x14, 0xb9, 0x27, 0xbe, 0xcb, 0xe2, 0xe9, 0x3c, 0x3f, 0xf1, 0xe1, 0x3d,
  0xcd, 0x19, 0x19, 0x3e, 0x75, 0x9d, 0x27, 0xbe, 0x2a, 0xce, 0xe5, 0xbd,
  0x9b, 0xba, 0x17, 0xbe, 0x6d, 0xf6, 0x88, 0xbe, 0x61, 0x14, 0x22, 0xbe,
  0x10, 0xa2, 0xb8, 0xbe, 0xb6, 0xe3, 0x35, 0xbe, 0x39, 0x59, 0xf0, 0xbd,
  0xbc, 0x5b, 0xb8, 0x3d, 0xad, 0x01, 0x3b, 0xbe, 0x57, 0x4f, 0xcc, 0x3d,
  0xe5, 0xdf, 0x83, 0xbe, 0xfc, 0xcf, 0xe7, 0x3b, 0x82, 0xfe, 0x96, 0x3d,
  0xf3, 0xfd, 0xda, 0x3d, 0xcd, 0x5d, 0x1e, 0xbe, 0x2a, 0xb0, 0x5f, 0xbe,
  0x4a, 0x9b, 0xaa, 0xbd, 0x30, 0x6e, 0x4e, 0xbd, 0x3a, 0xa7, 0x99, 0xbe,
  0xc8, 0xfe, 0xd2, 0xbd, 0xc2, 0x49, 0x7a, 0xbe, 0x6b, 0x9a, 0x76, 0x3d,
  0xb1, 0x1a, 0x83, 0xbc, 0xd4, 0x6e, 0x97, 0x3d, 0x53, 0x0c, 0x13, 0xbe,
  0x4c, 0xf0, 0xbf, 0xbd, 0x81, 0xb1, 0xa4, 0xbd, 0x4e, 0xf9, 0x57, 0xbe,
  0x17, 0x93, 0xb0, 0x3d, 0x42, 0xcf, 0x83, 0xbe, 0x20, 0x5f, 0x91, 0x3d,
  0x7a, 0x66, 0x2d, 0xbe, 0x5f, 0x7f, 0xa4, 0x3d, 0x7f, 0xc1, 0x3e, 0xbe,
  0x6c, 0x1a, 0x74, 0xbe, 0x2f, 0xe9, 0x27, 0x3d, 0x39, 0xe6, 0x81, 0xbd,
  0x20, 0x2f, 0x79, 0xbd, 0x32, 0x13, 0x47, 0x3c, 0x7a, 0x24, 0x55, 0xbe,
  0x78, 0xfb, 0x0c, 0x3d, 0xf0, 0x41, 0x58, 0x3d, 0xb0, 0xa2, 0x88, 0x3d,
  0xea, 0x43, 0xbb, 0x3c, 0xb0, 0x1f, 0x87, 0x3e, 0xbb, 0xec, 0x4e, 0xbc,
  0x66, 0x4c, 0x04, 0xbe, 0x30, 0xd9, 0x00, 0xbf, 0x30, 0xf5, 0x29, 0xbe,
  0x19, 0x62, 0xbc, 0x3e, 0xf9, 0x97, 0x7b, 0x3d, 0xc4, 0x1a, 0xfa, 0xbd,
  0x31, 0x24, 0x13, 0x3d, 0x86, 0xba, 0x3c, 0x3f, 0x11, 0xab, 0xc7, 0x3e,
  0x67, 0x21, 0xd4, 0xbe, 0x4f, 0xa9, 0x27, 0x3e, 0x78, 0xb8, 0x15, 0xbf,
  0xfa, 0x86, 0xab, 0x3d, 0xba, 0x31, 0x1c, 0x3f, 0xc4, 0x13, 0xbd, 0xbe,
  0x0e, 0xdc, 0x81, 0xbc, 0x57, 0x99, 0x4f, 0x3d, 0xab, 0xc4, 0x3b, 0xbe,
  0xee, 0x11, 0xfd, 0xbd, 0x07, 0xb2, 0x22, 0x3c, 0xaa, 0x2c, 0x11, 0x3d,
  0x0a, 0xfc, 0x6e, 0xbd, 0x55, 0x03, 0x11, 0x3d, 0x03, 0x32, 0x89, 0xbe,
  0x13, 0x2c, 0xc5, 0x3e, 0x93, 0x40, 0x24, 0xbe, 0x58, 0x02, 0xc4, 0x3e,
  0x94, 0xb1, 0x22, 0xbe, 0x9a, 0xbd, 0x1a, 0x3d, 0x5b, 0xa1, 0x16, 0x3e,
  0x9a, 0x2c, 0x3b, 0xbe, 0x52, 0xed, 0xb2, 0xbd, 0xb1, 0x4b, 0xad, 0x3d,
  0x45, 0x86, 0x9d, 0xbe, 0x78, 0x79, 0x30, 0xbe, 0xc1, 0x18, 0x31, 0xbd,
  0x6e, 0xa0, 0x03, 0xbc, 0xa4, 0x8e, 0x10, 0x3d, 0x8a, 0x99, 0x35, 0x3d,
  0xb9, 0x36, 0x33, 0xbe, 0xda, 0x2f, 0xa6, 0x3e, 0xd8, 0x41, 0xeb, 0xbd,
  0x57, 0x0e, 0x93, 0x3e, 0x6a, 0x0c, 0xa4, 0xbe, 0x44, 0x99, 0x96, 0x3d,
  0xaa, 0x3a, 0x01, 0x3e, 0x02, 0x6a, 0x70, 0xbe, 0xf9, 0x1b, 0xcc, 0x3c,
  0x0b, 0x80, 0x22, 0x3e, 0x27, 0x0e, 0x66, 0xbe, 0x11, 0xb3, 0x43, 0xbe,
  0xe1, 0x79, 0xfd, 0x3d, 0x97, 0x55, 0x00, 0xba, 0x74, 0x6a, 0xa6, 0x3d,
  0x30, 0x7e, 0x8b, 0x3c, 0xf9, 0x1a, 0xdd, 0x3c, 0x60, 0x7e, 0x96, 0xbe,
  0xac, 0xb7, 0x6f, 0xbe, 0x59, 0x19, 0xae, 0x3e, 0x74, 0x60, 0x98, 0xbe,
  0x65, 0x51, 0xf0, 0x3d, 0x12, 0x57, 0xc3, 0xbd, 0xe5, 0x91, 0x78, 0xbe,
  0xbc, 0x54, 0xe8, 0x3d, 0xb3, 0x84, 0xc2, 0x3e, 0xcb, 0xd1, 0xc9, 0xbe,
  0x55, 0x12, 0x01, 0xbe, 0xa7, 0xbf, 0x27, 0xbc, 0xe8, 0x77, 0x2d, 0xbe,
  0xce, 0xea, 0x9d, 0x3e, 0xed, 0x27, 0x90, 0x3c, 0x54, 0xee, 0x54, 0xbd,
  0xec, 0x10, 0xe0, 0xbd, 0x48, 0xb4, 0xce, 0xbe, 0x04, 0x84, 0xf0, 0x3d,
  0xbe, 0x92, 0xc5, 0xbe, 0xb5, 0xe7, 0x9c, 0x3d, 0x4a, 0x5b, 0x13, 0x3e,
  0x9e, 0x90, 0xd3, 0xbd, 0x19, 0x10, 0xb3, 0x3c, 0x26, 0xb4, 0xb3, 0x3e,
  0xf4, 0x21, 0xef, 0xbe, 0xf4, 0x9b, 0x86, 0xbe, 0xb6, 0x06, 0xa4, 0x3c,
  0x60, 0x26, 0x65, 0x3e, 0x7c, 0x45, 0x99, 0xbd, 0x81, 0x06, 0x0c, 0x3d,
  0x5d, 0x8e, 0xb3, 0xbd, 0x24, 0xab, 0xaf, 0x3c, 0x7d, 0x25, 0x68, 0xbe,
  0x40, 0x08, 0x82, 0x3e, 0x42, 0x55, 0xac, 0xbe, 0xae, 0x36, 0x0c, 0x3e,
  0x17, 0xa6, 0xc9, 0x3e, 0x8b, 0xc4, 0x96, 0x3e, 0xb4, 0xff, 0x73, 0x3d,
  0xcf, 0x59, 0xd3, 0x3e, 0xda, 0xa2, 0x80, 0xbe, 0x21, 0xd7, 0x97, 0xbd,
  0xd6, 0xa9, 0x4a, 0x3e, 0xfd, 0x85, 0x8c, 0x3e, 0x73, 0xab, 0x0c, 0x3e,
  0x20, 0xf6, 0x60, 0x3c, 0xdc, 0x06, 0x97, 0x3d, 0x27, 0xfe, 0x73, 0x3e,
  0x88, 0x3b, 0xb0, 0xbe, 0xe2, 0xbf, 0xb3, 0x3e, 0x17, 0x1f, 0x3f, 0xbd,
  0x27, 0xaf, 0x82, 0xbe, 0xfa, 0x29, 0x1c, 0x3e, 0x41, 0x85, 0x88, 0xbe,
  0x67, 0x25, 0x8c, 0x3d, 0x7d, 0x1a, 0x1d, 0x3d, 0xa0, 0xce, 0x10, 0xbe,
  0xbb, 0x49, 0x29, 0xbe, 0x25, 0x80, 0xae, 0x3d, 0x23, 0x0f, 0x9d, 0xbe,
  0xdb, 0xed, 0x43, 0x3d, 0xdc, 0x2f, 0x93, 0xbe, 0x5b, 0xdc, 0x38, 0x3c,
  0x9e, 0xb1, 0xaa, 0x3d, 0x1d, 0xdd, 0xf1, 0xbb, 0x39, 0x60, 0x16, 0x3e,
  0xb4, 0xa9, 0x03, 0x3e, 0x53, 0x86, 0x99, 0xbe, 0x46, 0x63, 0x35, 0xbe,
  0x5f, 0xaa, 0x98, 0xbe, 0xab, 0xdd, 0x6b, 0xbe, 0x78, 0xfe, 0x21, 0xbd,
  0x9e, 0x13, 0x6b, 0x3d, 0x35, 0x89, 0x68, 0xbe, 0x42, 0x57, 0x86, 0x3d,
  0x49, 0xad, 0x99, 0xbe, 0xa0, 0x08, 0x61, 0xbe, 0x70, 0xa1, 0x7b, 0xbe,
  0xed, 0x7c, 0xf5, 0x3d, 0x1e, 0x56, 0xe7, 0xbd, 0x0a, 0xa8, 0xf0, 0x3d,
  0x0d, 0x96, 0xb7, 0x3c, 0x89, 0x41, 0x5e, 0xbd, 0xc4, 0xa4, 0x6c, 0xbe,
  0x72, 0xc5, 0x6e, 0x3d, 0x7e, 0x56, 0x91, 0x3d, 0x89, 0x61, 0xe1, 0x3d,
  0x93, 0x7b, 0x00, 0xbe, 0x89, 0xb9, 0x54, 0xbe, 0xd2, 0x01, 0xf4, 0x3d,
  0x61, 0xd0, 0xb5, 0xbb, 0xfe, 0x82, 0xf8, 0xbc, 0x6d, 0xff, 0x4c, 0xbe,
  0x24, 0x7c, 0x86, 0x3c, 0xe6, 0xac, 0x83, 0xbe, 0xdb, 0x43, 0xa2, 0x3b,
  0x73, 0x48, 0x88, 0xbd, 0xfc, 0xa0, 0xe4, 0xbd, 0x4a, 0xe0, 0x44, 0xbe,
  0xdf, 0xa7, 0x13, 0xbc, 0x5a, 0xd8, 0x42, 0xbe, 0xed, 0x94, 0x5d, 0xbe,
  0x4a, 0x89, 0x4f, 0xbe, 0x52, 0x51, 0x13, 0xbc, 0xae, 0xd4, 0x20, 0x3e,
  0xf6, 0x82, 0x2d, 0x3c, 0x1d, 0x9f, 0x58, 0xbc, 0x14, 0x8c, 0xa4, 0xbc,
  0x21, 0x81, 0x9e, 0x3d, 0xf2, 0x8a, 0x98, 0xbd, 0x94, 0xbf, 0x1f, 0xbd,
  0x82, 0x4d, 0x81, 0xbc, 0xbc, 0x45, 0x32, 0xbe, 0x5a, 0xd8, 0xf3, 0xbd,
  0x74, 0x03, 0x07, 0xbd, 0x98, 0x8c, 0x5e, 0xbe, 0x73, 0x93, 0x2c, 0x3e,
  0x70, 0x1f, 0x34, 0xbe, 0x0f, 0xea, 0x44, 0xbe, 0x3d, 0xf0, 0xdc, 0x3d,
  0x73, 0xdf, 0x34, 0x3d, 0x6c, 0xd3, 0x10, 0x3d, 0xf6, 0x7e, 0x34, 0x3d,
  0xb1, 0xd0, 0xa4, 0x3d, 0xf1, 0x7c, 0x07, 0x3e, 0x62, 0x29, 0xea, 0xbc,
  0x1a, 0x33, 0x8c, 0x3d, 0x0a, 0x18, 0xb6, 0xbd, 0x66, 0xea, 0xb4, 0xbd,
  0x29, 0x37, 0x23, 0x3d, 0xad, 0xc2, 0x8a, 0xbd, 0xc0, 0x41, 0x88, 0xbd,
  0x9c, 0x26, 0xb0, 0xbd, 0x06, 0xc0, 0x28, 0x3c, 0x4a, 0x49, 0x0b, 0xbe,
  0x26, 0x29, 0x16, 0x3e, 0x89, 0x73, 0x48, 0xbe, 0x6f, 0x9b, 0x06, 0x3d,
  0xcc, 0x21, 0x33, 0xbe, 0x9f, 0x83, 0xb4, 0xbd, 0xd2, 0xa0, 0xa7, 0xbc,
  0xd6, 0x24, 0x97, 0xbe, 0xc8, 0x05, 0xdf, 0xbd, 0x86, 0x06, 0x0e, 0x3e,
  0x6a, 0xbe, 0x01, 0xbe, 0x53, 0xac, 0x1f, 0x3e, 0x88, 0xad, 0x25, 0x3e,
  0x15, 0xcc, 0x9b, 0x3d, 0xf2, 0x8d, 0xe1, 0xbd, 0xde, 0xdc, 0x80, 0xbe,
  0xdb, 0xa6, 0x5e, 0xbd, 0x8b, 0xf7, 0x63, 0xbe, 0xe9, 0x81, 0x70, 0xbc,
  0xda, 0x2c, 0x76, 0xbd, 0x6f, 0x4c, 0xfa, 0xbd, 0xe1, 0x2c, 0x8c, 0xbd,
  0xaf, 0x5f, 0x50, 0xbe, 0xf2, 0x03, 0x3f, 0xbe, 0x59, 0x21, 0x54, 0xbe,
  0xe5, 0xde, 0x86, 0x3c, 0xc7, 0x4a, 0xaf, 0x3d, 0x9c, 0xd2, 0x8c, 0x3d,
  0x4a, 0x3d, 0x92, 0xbe, 0x7e, 0x10, 0x83, 0xbe, 0x15, 0x82, 0x00, 0xbe,
  0xc0, 0x08, 0x89, 0xbe, 0xec, 0xa6, 0x1b, 0xbd, 0xaa, 0x27, 0x49, 0x3e,
  0xdf, 0xeb, 0x65, 0xbd, 0x75, 0x45, 0x46, 0xbd, 0x07, 0x21, 0xa3, 0x3c,
  0x4e, 0x85, 0x2b, 0xbe, 0x01, 0xe6, 0x90, 0x3d, 0xdf, 0xa4, 0x34, 0x3d,
  0xca, 0x40, 0x63, 0xbd, 0x08, 0x02, 0x38, 0x3d, 0xa1, 0x4e, 0xdb, 0xbd,
  0xd7, 0x4d, 0x85, 0xbe, 0xfb, 0xcc, 0xb9, 0x3d, 0x45, 0x32, 0xdd, 0xbd,
  0x51, 0xfe, 0xfd, 0xbc, 0xe6, 0x46, 0xc8, 0xbd, 0x17, 0xa7, 0xf8, 0xbd,
  0x87, 0xae, 0x0b, 0x3e, 0x72, 0x17, 0xb3, 0xbc, 0x08, 0x97, 0x05, 0xbe,
  0x48, 0x72, 0xa5, 0xbd, 0xff, 0xc3, 0xce, 0xbd, 0xb0, 0x92, 0xb9, 0x3d,
  0x76, 0x4f, 0xa5, 0xbe, 0xfb, 0x51, 0x8f, 0x3d, 0x27, 0x61, 0x92, 0xbc,
  0x98, 0xd2, 0x5d, 0xbe, 0x89, 0xde, 0x50, 0xbd, 0x3c, 0xe9, 0x01, 0x3d,
  0x09, 0x70, 0x81, 0xbc, 0x31, 0x9a, 0x11, 0xbe, 0x08, 0xba, 0xbf, 0x3d,
  0x82, 0xa1, 0xae, 0x3d, 0xdf, 0x88, 0x09, 0xbe, 0x6d, 0xb6, 0x45, 0x3d,
  0xe7, 0x1b, 0x13, 0xbe, 0x47, 0xd7, 0x44, 0xbd, 0x2d, 0x65, 0xee, 0xbd,
  0x24, 0xf6, 0x5b, 0xbd, 0x17, 0x2a, 0xcc, 0xbd, 0x23, 0x62, 0xc4, 0x3d,
  0x64, 0x62, 0xb3, 0x3c, 0x8b, 0x51, 0x84, 0x3c, 0xd2, 0xa7, 0x90, 0xbc,
  0x46, 0x3d, 0x2d, 0xbe, 0x6b, 0x99, 0x6e, 0xbe, 0x97, 0xb0, 0x81, 0xbe,
  0x9a, 0xfd, 0x0e, 0x3e, 0x97, 0xb1, 0x28, 0xbe, 0xbe, 0x63, 0xe9, 0xbd,
  0xbb, 0x5d, 0xee, 0x3d, 0x73, 0x30, 0xb1, 0xbd, 0xea, 0x36, 0x6a, 0xbe,
  0x5c, 0x91, 0x9d, 0x3d, 0x6f, 0xf5, 0x68, 0xbe, 0xfa, 0x03, 0x0e, 0xbe,
  0xdd, 0xeb, 0xd0, 0xbd, 0x21, 0xaa, 0xf3, 0xbd, 0xfb, 0xd4, 0x82, 0xbe,
  0xc6, 0xcb, 0x7a, 0xbe, 0x13, 0x05, 0x03, 0x3e, 0x8c, 0x89, 0x9f, 0x3d,
  0xd9, 0x74, 0xeb, 0x3b, 0xda, 0xdb, 0x75, 0xbe, 0x4d, 0x45, 0xa9, 0xbd,
  0x60, 0xdf, 0x76, 0xbe, 0xaa, 0xf4, 0x92, 0x3d, 0xb3, 0xdb, 0xb0, 0x3d,
  0x42, 0xf4, 0xef, 0xbd, 0xb3, 0x7b, 0x72, 0xbe, 0xff, 0xf6, 0x1a, 0xbe,
  0x5f, 0x75, 0x92, 0xbe, 0xa7, 0xa5, 0x03, 0xbe, 0x1d, 0xe1, 0xbc, 0x3d,
  0xdc, 0x08, 0x16, 0x3d, 0xfe, 0x58, 0x15, 0xbd, 0x53, 0xd9, 0xad, 0x3c,
  0x35, 0x2d, 0x3d, 0x3d, 0x86, 0xf4, 0xb1, 0xbd, 0xc1, 0xe3, 0xf9, 0xbd,
  0xc6, 0xd6, 0x7e, 0xbe, 0x21, 0xc7, 0xfd, 0x3d, 0xd2, 0xbd, 0x8f, 0x3b,
  0x18, 0xd5, 0x17, 0x3e, 0xa4, 0x9d, 0x54, 0xbe, 0xde, 0x6a, 0xfe, 0xbd,
  0xce, 0x74, 0x0b, 0x3e, 0xe3, 0x2d, 0x28, 0xbe, 0x7f, 0xb6, 0x16, 0xbe,
  0x50, 0x2c, 0x33, 0xbe, 0x93, 0x9f, 0xcf, 0x3c, 0x4e, 0x06, 0xe9, 0xbd,
  0x97, 0xfe, 0x73, 0xbe, 0x37, 0xf5, 0x03, 0x3d, 0x15, 0xde, 0x7b, 0x3c,
  0xa3, 0xf5, 0x13, 0x3e, 0xd2, 0xbc, 0x9c, 0xbe, 0xbf, 0xce, 0x14, 0xbe,
  0x8c, 0x94, 0x06, 0x3e, 0xad, 0x84, 0x6e, 0xbe, 0x2d, 0x46, 0xa9, 0xbd,
  0xe1, 0x46, 0x80, 0xbe, 0x2c, 0xcb, 0x39, 0xbe, 0xca, 0x33, 0x47, 0xbe,
  0xf0, 0x12, 0x78, 0x3a, 0x8a, 0xe2, 0x13, 0x3c, 0x49, 0xde, 0x85, 0xbe,
  0x13, 0xe4, 0x65, 0xbd, 0xe4, 0xe9, 0x82, 0xbe, 0x7a, 0xdd, 0x53, 0xbe,
  0xea, 0x0f, 0xa0, 0x3d, 0xbf, 0x96, 0xe6, 0xbd, 0x68, 0xaa, 0x03, 0x3d,
  0xcc, 0x2c, 0x3a, 0x3e, 0x1a, 0x07, 0x0f, 0xbc, 0x92, 0xf6, 0x4e, 0xbe,
  0x0d, 0x46, 0x9c, 0xbd, 0xd3, 0x6c, 0xb9, 0xbd, 0x8e, 0xf0, 0xe1, 0x3d,
  0x17, 0xeb, 0x05, 0xbb, 0x95, 0x7c, 0xf8, 0xbd, 0x89, 0x8d, 0x03, 0x3e,
  0x8e, 0x4d, 0xb8, 0xbc, 0x35, 0x3b, 0x35, 0xbe, 0x26, 0x32, 0xb6, 0x3d,
  0x10, 0xea, 0xbd, 0xbc, 0xdf, 0xe2, 0x07, 0x3e, 0x5b, 0xbc, 0x85, 0xbe,
  0x40, 0x65, 0xd5, 0xbd, 0xea, 0xc4, 0x59, 0xbe, 0x8d, 0x1e, 0xf7, 0x3d,
  0xd1, 0x7f, 0xf6, 0xba, 0x3a, 0x74, 0x4b, 0xbe, 0x1b, 0x29, 0xe1, 0x3d,
  0x22, 0xa9, 0x22, 0xbc, 0xd7, 0x07, 0x1f, 0xbe, 0xf4, 0xf0, 0x06, 0xbe,
  0xf2, 0x47, 0x0d, 0x3e, 0xfe, 0x02, 0x06, 0xbe, 0x9a, 0x96, 0x2c, 0xbe,
  0x6e, 0xb5, 0x69, 0xbd, 0xf5, 0xc7, 0x29, 0xbe, 0x9a, 0x8e, 0x2d, 0xbd,
  0x67, 0xd8, 0xf8, 0xbd, 0x95, 0x26, 0xb6, 0xbb, 0x25, 0xbe, 0x28, 0x3e,
  0x7c, 0x78, 0xbd, 0xbd, 0x7c, 0xcb, 0xb7, 0xbd, 0x1b, 0x56, 0x4e, 0xbe,
  0xe9, 0x4e, 0x89, 0x3d, 0xf6, 0x83, 0x2e, 0xbe, 0x81, 0x43, 0x24, 0xbe,
  0xa6, 0xe0, 0xe3, 0xbc, 0x34, 0x5c, 0x83, 0xbe, 0x11, 0x14, 0x23, 0xbe,
  0x6b, 0xe0, 0x30, 0xbe, 0xb8, 0x68, 0x94, 0xbd, 0xc0, 0xba, 0x40, 0x3d,
  0xfe, 0xb9, 0xbd, 0x3d, 0x11, 0xf5, 0x2d, 0x3d, 0x62, 0x4f, 0x38, 0xbe,
  0xd7, 0xb4, 0xb7, 0x3d, 0xd4, 0x78, 0x10, 0xbe, 0x94, 0xfb, 0x9b, 0x3d,
  0x3e, 0x09, 0x40, 0xbe, 0x7e, 0x2c, 0x85, 0xbd, 0x51, 0x5d, 0xf1, 0x3d,
  0x0e, 0x42, 0x2d, 0xbe, 0x46, 0x69, 0x32, 0xbe, 0x89, 0x8d, 0x1d, 0xbe,
  0xce, 0x38, 0xd4, 0x3c, 0xea, 0xfe, 0x8c, 0xbd, 0x58, 0x0f, 0xc8, 0xbd,
  0x4f, 0x25, 0x5e, 0xbe, 0xb4, 0x9a, 0x39, 0xbe, 0x66, 0x84, 0x6c, 0xbe,
  0x12, 0x47, 0x3f, 0xbe, 0xb8, 0x57, 0xc4, 0x3d, 0x03, 0xe6, 0xcf, 0x3d,
  0x5a, 0xd8, 0xf4, 0xbd, 0xec, 0x9f, 0xee, 0x3c, 0x90, 0x4c, 0xba, 0x3b,
  0xe2, 0x03, 0x6a, 0xbd, 0x15, 0x26, 0xa5, 0xbe, 0x29, 0xca, 0x02, 0xbd,
  0xa5, 0x67, 0x11, 0xbe, 0x02, 0x10, 0xdf, 0xbd, 0xdb, 0x82, 0xd5, 0xbd,
  0xe5, 0x08, 0x06, 0x3e, 0x15, 0xa8, 0x93, 0x3c, 0xbd, 0xa4, 0x71, 0xbe,
  0xd9, 0x82, 0x5b, 0x3d, 0xbd, 0x21, 0x98, 0x3d, 0xe1, 0x4b, 0x9f, 0x3d,
  0xc1, 0x43, 0x31, 0xbe, 0x5a, 0xec, 0xd6, 0xbd, 0x22, 0xb4, 0xd4, 0x3c,
  0xd6, 0x4b, 0x00, 0xbc, 0x2c, 0xab, 0x9e, 0x3d, 0x30, 0x0d, 0x39, 0xbe,
  0x1c, 0x21, 0x51, 0xbe, 0x96, 0x64, 0xb8, 0x3c, 0x6a, 0x2e, 0x2b, 0xbe,
  0x59, 0x8f, 0x41, 0xbe, 0x93, 0x48, 0x63, 0xbe, 0xa2, 0xb5, 0x39, 0xbd,
  0x12, 0xb2, 0xb4, 0x3c, 0x3d, 0x8b, 0x37, 0xbe, 0x6c, 0xf9, 0x24, 0x3d,
  0xf6, 0x0c, 0x85, 0x3d, 0x32, 0x56, 0x16, 0xbe, 0x1b, 0x8b, 0x6b, 0xbe,
  0x80, 0xcb, 0x85, 0xbe, 0xa9, 0x60, 0x77, 0xbe, 0x43, 0xe2, 0x8d, 0xbd,
  0xf8, 0x4e, 0x8f, 0xbd, 0x60, 0xad, 0x06, 0xbe, 0xa7, 0x75, 0x15, 0x3e,
  0x57, 0x6f, 0xb8, 0xbd, 0x6e, 0xd5, 0xcb, 0x3d, 0x0d, 0xd5, 0x3f, 0x3c,
  0x32, 0x55, 0x9b, 0x3d, 0x62, 0x4b, 0xe2, 0xbd, 0x3c, 0xb0, 0xa0, 0xbd,
  0x4f, 0x76, 0x9c, 0x3d, 0x86, 0xb4, 0xcf, 0x3d, 0x32, 0xa2, 0x05, 0xbd,
  0x96, 0x91, 0x14, 0xbe, 0xc9, 0x9f, 0x42, 0xbd, 0x5a, 0x83, 0x89, 0xbe,
  0x03, 0x95, 0x7c, 0xbe, 0xa7, 0xb5, 0xbd, 0xbe, 0x1a, 0x8d, 0xad, 0x3c,
  0x1c, 0x95, 0x1f, 0xbe, 0x7b, 0x65, 0x90, 0x3d, 0xb2, 0x49, 0x06, 0x3c,
  0x86, 0x8d, 0x7e, 0x3d, 0xe4, 0x40, 0x23, 0x3d, 0x2b, 0xe9, 0x8d, 0xbd,
  0x7b, 0x56, 0xc8, 0xbc, 0xab, 0x9e, 0x73, 0xbe, 0x7c, 0x4e, 0x15, 0xbe,
  0x8b, 0x74, 0xfc, 0x3d, 0x12, 0x1a, 0xd1, 0xbd, 0x53, 0x0e, 0x80, 0xbe,
  0xe5, 0xcd, 0x69, 0xbe, 0x1b, 0xd9, 0x93, 0xbd, 0xcb, 0x7c, 0xbb, 0xbd,
  0x87, 0x68, 0x33, 0xbe, 0x64, 0xd5, 0x5e, 0xbe, 0xf8, 0x31, 0x69, 0xbe,
  0x85, 0xfd, 0x1a, 0xbe, 0x84, 0xc7, 0x0b, 0xbe, 0x51, 0x10, 0x3d, 0x3c,
  0x46, 0xbb, 0x06, 0x3d, 0x5b, 0xa3, 0xc1, 0x3b, 0xd5, 0x39, 0xda, 0x3d,
  0xd8, 0x6d, 0xa3, 0xbd, 0x94, 0xba, 0xe9, 0xbd, 0x08, 0x80, 0x66, 0x3d,
  0x42, 0xe1, 0x39, 0xbd, 0x72, 0xb6, 0x64, 0x3d, 0x5b, 0x19, 0x45, 0xbe,
  0x49, 0x28, 0x9e, 0xbe, 0x95, 0xea, 0x6e, 0xbe, 0x09, 0x28, 0x4a, 0x3d,
  0x74, 0x88, 0x0b, 0x3d, 0xed, 0xf9, 0xc3, 0x3d, 0xd3, 0x5f, 0x02, 0x3e,
  0xd2, 0xb1, 0x07, 0xbe, 0xea, 0x15, 0xac, 0x3d, 0xbd, 0x7f, 0x3e, 0xbe,
  0x64, 0xcb, 0x5e, 0xbd, 0x71, 0x46, 0xe9, 0xbd, 0xdc, 0x6d, 0xa5, 0x3d,
  0xf6, 0x4d, 0x99, 0xbd, 0xb4, 0xfc, 0x8a, 0xbd, 0x6a, 0x12, 0xa9, 0x3d,
  0x2f, 0xba, 0xc7, 0xbc, 0x72, 0xef, 0x5a, 0xbd, 0xde, 0x93, 0x70, 0x3c,
  0x86, 0xfd, 0x6a, 0xbd, 0xb3, 0x11, 0x5e, 0xbe, 0xf9, 0xf2, 0x12, 0xbe,
  0x0d, 0x5a, 0xc3, 0xbd, 0xe8, 0x93, 0x08, 0xbe, 0x1a, 0x68, 0x61, 0xbd,
  0x3b, 0x2d, 0x42, 0xbe, 0x46, 0x56, 0xf8, 0xbd, 0x18, 0xc5, 0x7f, 0x3d,
  0xc7, 0x55, 0x4b, 0x3d, 0x0a, 0x41, 0x0c, 0xbe, 0xc3, 0x38, 0x93, 0x3d,
  0xed, 0x77, 0x86, 0xbe, 0x8d, 0x42, 0xc7, 0x3d, 0x89, 0x2e, 0x5f, 0xbd,
  0xc6, 0xe4, 0x9a, 0xbd, 0x1f, 0x6e, 0xc8, 0xbd, 0x0b, 0x62, 0xc8, 0x3c,
  0x4c, 0x0c, 0x03, 0x3e, 0xbd, 0x3f, 0xaa, 0x3d, 0x44, 0xc5, 0x58, 0x3d,
  0xe9, 0x4b, 0x35, 0x3d, 0x97, 0x6b, 0x19, 0xbe, 0xc7, 0x99, 0x7a, 0xbd,
  0xfa, 0x43, 0x9a, 0xbc, 0x0e, 0xe0, 0x42, 0x3d, 0x99, 0x71, 0x39, 0xbe,
  0xfc, 0x2a, 0x1f, 0xbd, 0x03, 0x41, 0x4b, 0xbe, 0xa1, 0x5e, 0xdc, 0xbd,
  0xd6, 0x6f, 0x32, 0xbe, 0x35, 0x30, 0xa8, 0xbc, 0x84, 0xc7, 0x00, 0xbe,
  0xad, 0x79, 0x64, 0xbe, 0x69, 0x95, 0x07, 0xbe, 0x4b, 0xec, 0x12, 0x3e,
  0x31, 0xd2, 0xc6, 0xbd, 0x4b, 0x4f, 0x04, 0x3e, 0xbe, 0x13, 0xe4, 0xbd,
  0xd2, 0x82, 0xb0, 0xbd, 0x5b, 0x90, 0x5a, 0x3e, 0x7a, 0x3e, 0x8a, 0xbc,
  0x05, 0x96, 0xbe, 0x3d, 0xa1, 0x23, 0x61, 0xbc, 0xf8, 0x7a, 0xe4, 0xbc,
  0x3e, 0xaf, 0x8d, 0x3a, 0xaa, 0x4e, 0xb8, 0x3c, 0x0c, 0x8a, 0x6f, 0xbe,
  0x62, 0xa6, 0x29, 0xbe, 0x0a, 0x44, 0xbc, 0xbd, 0x31, 0xa2, 0xd5, 0xbd,
  0x50, 0x9c, 0x00, 0xbe, 0x98, 0xa7, 0x44, 0xbd, 0x6a, 0x35, 0x80, 0xbe,
  0x82, 0xd7, 0x2a, 0xbe, 0x34, 0x76, 0xa0, 0xbb, 0xa4, 0x21, 0x25, 0x3e,
  0x5f, 0x05, 0x30, 0xbe, 0x9a, 0xe9, 0x29, 0xbe, 0x75, 0xa1, 0x0b, 0x3e,
  0xaf, 0xc0, 0xdb, 0xbb, 0x61, 0xa9, 0x12, 0xbe, 0xf2, 0x06, 0x6d, 0xbc,
  0x2c, 0xd9, 0x07, 0xbe, 0x3c, 0xeb, 0xba, 0xbd, 0xc7, 0xc6, 0x68, 0x3d,
  0x3f, 0xac, 0x40, 0xbe, 0x65, 0x7a, 0x0c, 0xbe, 0x65, 0x76, 0x85, 0xbe,
  0x6e, 0xac, 0xe3, 0x3c, 0x29, 0x61, 0xb4, 0xbd, 0xc3, 0x0e, 0x1f, 0x3d,
  0x9c, 0x08, 0xaa, 0x3d, 0x3f, 0xa8, 0x79, 0xbe, 0xeb, 0xca, 0x68, 0xbe,
  0x9f, 0xf6, 0x2a, 0xbe, 0xed, 0x21, 0xf1, 0xbd, 0xa4, 0x24, 0x31, 0xbc,
  0x8c, 0x8a, 0x04, 0xbe, 0x2f, 0x5b, 0x52, 0x3c, 0xf3, 0x52, 0xb9, 0x3d,
  0x13, 0xe6, 0xdf, 0xbd, 0xb9, 0xdb, 0xd2, 0xbd, 0x1c, 0x6b, 0x47, 0x3e,
  0xe9, 0xb5, 0xd4, 0xbd, 0xb0, 0x6d, 0x02, 0xbe, 0x8c, 0xbe, 0x49, 0x3e,
  0xf7, 0x6f, 0x79, 0xbe, 0x1f, 0xdf, 0x1c, 0xbe, 0x84, 0xd5, 0x72, 0xbd,
  0x08, 0x6c, 0x2f, 0x3c, 0x7b, 0xa6, 0x44, 0x3e, 0x28, 0x6c, 0x51, 0x3d,
  0x18, 0x5d, 0x45, 0xbe, 0x8f, 0xb7, 0xe3, 0xbc, 0xda, 0x92, 0x2d, 0x3e,
  0x89, 0x92, 0x82, 0xbe, 0xc5, 0x69, 0x3b, 0xbe, 0xd4, 0x64, 0x42, 0xbe,
  0xea, 0xb2, 0x60, 0xbe, 0x3a, 0xb6, 0x6d, 0xbd, 0x06, 0xa6, 0x24, 0xbe,
  0xb4, 0x1b, 0xf0, 0xbc, 0x56, 0x52, 0xcd, 0x3d, 0x9e, 0x3d, 0x6a, 0xbd,
  0x66, 0x8f, 0x51, 0xbe, 0x0b, 0x9a, 0x90, 0xbd, 0x2e, 0xa0, 0x17, 0x3e,
  0xbe, 0xfd, 0x54, 0x3d, 0x18, 0xc9, 0xca, 0x3d, 0xa1, 0x76, 0x82, 0xbd,
  0x6d, 0xf7, 0x09, 0xbe, 0x3e, 0xf7, 0x32, 0xbd, 0xce, 0x6c, 0x90, 0xbc,
  0x9f, 0xff, 0x3a, 0xbd, 0x53, 0x63, 0xd5, 0x3c, 0x44, 0x76, 0x90, 0x3d,
  0x0d, 0xa7, 0x15, 0x3d, 0x79, 0x3b, 0x22, 0xbd, 0xa6, 0xea, 0x71, 0xbd,
  0x3d, 0x1a, 0xb9, 0xbd, 0x99, 0x93, 0x05, 0x3d, 0x9e, 0xd7, 0x4f, 0x3d,
  0xe0, 0x7a, 0xa0, 0xbd, 0x5d, 0x3b, 0xb4, 0x3d, 0x24, 0x43, 0x11, 0x3e,
  0x32, 0x13, 0xbd, 0xbc, 0x36, 0x68, 0x66, 0xbd, 0xa5, 0xd9, 0x18, 0xbe,
  0xcb, 0x8b, 0x24, 0xbe, 0xac, 0xcd, 0x0e, 0xbe, 0xa7, 0x25, 0x8c, 0xbd,
  0x2c, 0x7f, 0xf3, 0xbd, 0xde, 0x2c, 0x1a, 0x3e, 0x65, 0xb0, 0x1b, 0xbe,
  0x35, 0x9c, 0xd3, 0xba, 0x94, 0xbe, 0x27, 0xbe, 0x95, 0x43, 0xae, 0xbd,
  0x3c, 0xab, 0x0f, 0x3d, 0xb4, 0xc6, 0x0d, 0xbe, 0x24, 0x64, 0x0c, 0xbd,
  0xe5, 0x36, 0x1a, 0x3e, 0xff, 0xf1, 0xb4, 0xbc, 0x59, 0x16, 0x79, 0x3d,
  0x5c, 0x59, 0xbb, 0xbd, 0x93, 0xea, 0x1b, 0xbe, 0x92, 0x1c, 0x20, 0x3e,
  0x39, 0xb4, 0x2c, 0xbd, 0xf3, 0x9f, 0x0c, 0xbe, 0x7c, 0x68, 0xf7, 0xbd,
  0x61, 0xd7, 0x95, 0x3d, 0xb6, 0x34, 0x12, 0xbe, 0x9d, 0xcc, 0x3d, 0x3e,
  0x88, 0x7c, 0x07, 0x3d, 0x7b, 0x0e, 0xdf, 0xbd, 0xfd, 0x4d, 0xe9, 0x3a,
  0x9c, 0x39, 0xf3, 0x3d, 0x40, 0xa7, 0x0a, 0xbe, 0xa1, 0xd0, 0xfc, 0xbd,
  0x4a, 0x87, 0xca, 0x3d, 0x51, 0xaf, 0x44, 0x3e, 0x40, 0x15, 0x6c, 0xbe,
  0x5b, 0x02, 0x01, 0xbe, 0x55, 0x14, 0x84, 0xbc, 0x9b, 0x65, 0x13, 0xbe,
  0x6c, 0xe1, 0x40, 0x3e, 0xad, 0x29, 0xdc, 0xbd, 0xb9, 0xf9, 0x64, 0xbe,
  0x5d, 0x5b, 0x35, 0xbd, 0x40, 0xa8, 0x89, 0x3d, 0x11, 0x5b, 0x2d, 0xbe,
  0xb5, 0x75, 0xba, 0x3d, 0x4f, 0x32, 0x39, 0xbe, 0xcb, 0x1e, 0xa2, 0x3d,
  0x74, 0x1f, 0x52, 0xbe, 0xc3, 0xdc, 0x5d, 0xbe, 0xfb, 0x36, 0x19, 0xbc,
  0xc0, 0x6c, 0x5d, 0x3d, 0x67, 0xd2, 0x97, 0xbd, 0x17, 0x2f, 0x20, 0xbe,
  0x6b, 0xf3, 0x2a, 0xbd, 0xb8, 0xe4, 0xff, 0x3b, 0x67, 0x50, 0xcb, 0x3c,
  0x68, 0x9e, 0xde, 0x3c, 0xf5, 0xbe, 0xfd, 0xbd, 0xee, 0x09, 0x55, 0xbe,
  0x68, 0x4f, 0xae, 0xbc, 0xe7, 0x3d, 0xdf, 0xbd, 0xb3, 0x3c, 0xf7, 0x3d,
  0xa6, 0xca, 0x6b, 0xbe, 0xb8, 0xa2, 0x4a, 0xbe, 0x50, 0x04, 0x42, 0xbe,
  0x35, 0x7d, 0xcc, 0x3d, 0xc5, 0xad, 0x91, 0xbe, 0x9c, 0x4e, 0x2e, 0x3d,
  0x3a, 0x8c, 0xb5, 0x3c, 0x12, 0x24, 0x38, 0xbe, 0xe2, 0xa0, 0xd9, 0x3d,
  0xab, 0x1e, 0x74, 0xbd, 0x62, 0x69, 0x87, 0xbd, 0xaf, 0x24, 0x07, 0x3d,
  0x6a, 0xb3, 0xcf, 0xbd, 0x46, 0xdb, 0x6d, 0xbe, 0xde, 0x44, 0x87, 0xbe,
  0x11, 0x9a, 0xc6, 0xbc, 0x39, 0xce, 0x4f, 0xbe, 0x78, 0x9c, 0x99, 0xbe,
  0x0e, 0x82, 0x96, 0x3d, 0x39, 0xa4, 0x34, 0xbe, 0x2e, 0x15, 0x0a, 0x3d,
  0xec, 0x3d, 0x35, 0x3c, 0x6d, 0xd9, 0x52, 0x3d, 0x62, 0x92, 0x04, 0xbe,
  0x6b, 0x8f, 0x18, 0xbd, 0xa0, 0x97, 0x5e, 0x3d, 0xd0, 0x3f, 0x6e, 0x3d,
  0xfb, 0xd3, 0x1b, 0xbe, 0x63, 0xbb, 0xc4, 0x3d, 0xc4, 0xc2, 0xaf, 0xbd,
  0x0c, 0x3e, 0x4e, 0xbe, 0xa1, 0x51, 0xe6, 0xbd, 0x58, 0x02, 0x00, 0xbe,
  0xa0, 0x46, 0x28, 0xbe, 0xa0, 0xdb, 0xa1, 0xbd, 0xac, 0x93, 0x72, 0xbd,
  0xcb, 0x0d, 0x30, 0xbe, 0x4e, 0xdc, 0x92, 0xbe, 0xda, 0x55, 0xe2, 0x3d,
  0x32, 0x86, 0xf7, 0xbd, 0xa4, 0x25, 0x71, 0xbe, 0xd1, 0x80, 0x83, 0xbd,
  0x25, 0xf5, 0x3d, 0xbe, 0x6d, 0xa6, 0x69, 0xbe, 0x1b, 0xc5, 0xec, 0xbd,
  0xba, 0x2f, 0xf5, 0xbc, 0xae, 0xa8, 0x1f, 0x3d, 0x98, 0x54, 0x25, 0xbd,
  0x95, 0x36, 0x93, 0x3d, 0xe1, 0xf2, 0xaa, 0xbd, 0x13, 0x25, 0xb3, 0x3d,
  0x8a, 0xdc, 0x59, 0xbc, 0x34, 0xcb, 0x82, 0x3d, 0xd7, 0x24, 0xf3, 0xbd,
  0xe8, 0xe0, 0xd8, 0x3d, 0x5c, 0xcf, 0x93, 0xbd, 0x04, 0xe8, 0x6a, 0xbe,
  0x7c, 0x68, 0xae, 0xbc, 0x4e, 0x39, 0x14, 0x3d, 0xfd, 0x2b, 0x3b, 0xbe,
  0x3b, 0xc8, 0x3b, 0x3d, 0x96, 0x52, 0xbe, 0xbd, 0x8c, 0x2b, 0x0a, 0x3d,
  0x6c, 0x4f, 0x93, 0xbd, 0xa3, 0x2e, 0xaf, 0x3d, 0x15, 0x6f, 0x5e, 0xbe,
  0x1f, 0x39, 0x22, 0xbe, 0xf4, 0xae, 0xbb, 0x3b, 0xf1, 0xde, 0x4a, 0x3d,
  0xb9, 0x41, 0x80, 0x3c, 0xea, 0xc1, 0xcb, 0x3d, 0x39, 0xe5, 0x6c, 0xbd,
  0x45, 0xe9, 0xac, 0x3d, 0x7b, 0xc7, 0x0e, 0x3e, 0xbf, 0xd7, 0x8d, 0xbd,
  0x0e, 0x64, 0x52, 0x3d, 0x42, 0x9b, 0xf1, 0x3d, 0x1a, 0x59, 0xf9, 0x3d,
  0x26, 0xd6, 0x32, 0xbe, 0x01, 0x7e, 0x1a, 0xbe, 0x61, 0x0f, 0x60, 0xbe,
  0xc5, 0x05, 0xeb, 0xbd, 0xb0, 0xaa, 0x61, 0xbe, 0x7e, 0x4e, 0xa5, 0x3b,
  0x43, 0x08, 0x00, 0xbe, 0x12, 0x2d, 0x7e, 0x3d, 0x43, 0xa3, 0xc6, 0xbd,
  0x9c, 0xaa, 0xb4, 0xbd, 0xc9, 0x94, 0xf0, 0xbd, 0xc7, 0xb0, 0x82, 0xbd,
  0x13, 0x2c, 0x91, 0xbd, 0xc0, 0xa3, 0xd7, 0xbd, 0x4f, 0xd9, 0x4c, 0xbe,
  0xa6, 0x3f, 0x55, 0xbe, 0xaa, 0x2a, 0x7e, 0xbe, 0x10, 0x3e, 0x36, 0xbe,
  0x52, 0xf9, 0x28, 0xbe, 0x6f, 0xa1, 0x63, 0xbe, 0xd8, 0x86, 0xca, 0x3d,
  0x9c, 0xfb, 0xa5, 0x3d, 0xd0, 0xd6, 0x88, 0xbd, 0x99, 0x83, 0x99, 0xbd,
  0xad, 0x3b, 0x0f, 0xbe, 0x1d, 0x4f, 0xe4, 0xbd, 0x08, 0x7e, 0x9e, 0x3d,
  0xde, 0xd5, 0x55, 0xbe, 0x88, 0xb6, 0x75, 0xbe, 0xf3, 0x94, 0x85, 0xbb,
  0x0d, 0xd0, 0xd4, 0x3d, 0xfe, 0x6e, 0x95, 0xbe, 0x18, 0x5c, 0x52, 0x3d,
  0x24, 0xf1, 0x3d, 0xbe, 0x93, 0x46, 0x43, 0x3d, 0x60, 0x95, 0x42, 0xbe,
  0xc6, 0x93, 0x5e, 0xbd, 0xba, 0x42, 0x63, 0x3c, 0x52, 0x6b, 0x61, 0xbe,
  0xdc, 0x41, 0xeb, 0x3d, 0xb6, 0x85, 0x00, 0x3e, 0xe7, 0xfe, 0xa0, 0xbe,
  0x91, 0xed, 0x53, 0xbe, 0x66, 0xdf, 0xb0, 0x3d, 0x6f, 0x4c, 0xdf, 0xbd,
  0x0a, 0xdb, 0xf6, 0x3d, 0x73, 0x65, 0x14, 0xbe, 0x2b, 0x64, 0x31, 0x3d,
  0xb9, 0xeb, 0xfe, 0x3c, 0x06, 0xe5, 0x1c, 0xbe, 0x74, 0xe0, 0x3e, 0xbd,
  0xc7, 0xc6, 0x3b, 0xbc, 0x87, 0x24, 0x5b, 0xbe, 0x95, 0xa0, 0x82, 0xbd,
  0xb3, 0x56, 0x11, 0x3e, 0x90, 0xf4, 0xa8, 0xbd, 0xf4, 0xed, 0xfe, 0x3d,
  0xe3, 0x5f, 0x29, 0xbe, 0x1b, 0xa1, 0x1a, 0x3c, 0x0a, 0x8a, 0xb3, 0xbd,
  0x2e, 0x9b, 0x36, 0xbd, 0x8a, 0x1b, 0xa2, 0xbb, 0x84, 0xa6, 0x7e, 0x3d,
  0xdc, 0x02, 0x9e, 0xbd, 0x83, 0xc8, 0x1e, 0xbd, 0x71, 0x43, 0x93, 0xbd,
  0xab, 0x55, 0x4e, 0x3d, 0x24, 0xc4, 0x9a, 0xbe, 0xce, 0x2b, 0x8d, 0x3d,
  0x2a, 0x37, 0x48, 0xbe, 0x97, 0x72, 0x85, 0xbe, 0x71, 0x6b, 0x65, 0xbd,
  0x9c, 0x7e, 0x11, 0xbe, 0x1b, 0xbb, 0x94, 0xbe, 0x08, 0x5f, 0x85, 0xbd,
  0xa3, 0x46, 0xa1, 0x3d, 0x22, 0x2e, 0x1b, 0xbe, 0x70, 0xae, 0x16, 0xbe,
  0x2d, 0x60, 0xd7, 0xbb, 0x98, 0xcc, 0xa5, 0x3d, 0x83, 0x9d, 0x25, 0xbd,
  0xae, 0xff, 0x8c, 0xbe, 0x5a, 0x29, 0x19, 0xbe, 0x4d, 0x43, 0xa1, 0xbd,
  0x71, 0x50, 0xd6, 0xbc, 0xb5, 0x51, 0x3b, 0xbe, 0x11, 0xc5, 0x1d, 0xbe,
  0xac, 0xa3, 0x4d, 0xbe, 0xb8, 0xab, 0x65, 0xbe, 0x1d, 0xd4, 0x5b, 0xbe,
  0x27, 0xc5, 0x6b, 0x3d, 0x8a, 0x2e, 0xc9, 0xbd, 0xf4, 0x21, 0x6d, 0xbd,
  0x73, 0xa9, 0x15, 0xbe, 0x26, 0xb4, 0x49, 0xbd, 0xe4, 0x13, 0x9c, 0x3c,
  0x71, 0x9b, 0x95, 0xbe, 0x73, 0xfd, 0x90, 0x3d, 0xa4, 0x2c, 0xb3, 0xbd,
  0x9b, 0xff, 0x15, 0x3d, 0xa1, 0xcd, 0x5b, 0xbd, 0xa2, 0x5a, 0xa5, 0xbc,
  0x99, 0xfd, 0x72, 0x3d, 0x5e, 0xcc, 0xb8, 0x3d, 0xf7, 0x25, 0x47, 0xbd,
  0x86, 0xe5, 0x81, 0x3d, 0x0d, 0xa2, 0x42, 0xbe, 0xe1, 0x3a, 0x12, 0xbe,
  0xe7, 0xf7, 0x49, 0xbe, 0x26, 0x0b, 0xe5, 0xba, 0xe8, 0x15, 0xd2, 0xbd,
  0x17, 0x1b, 0xe3, 0x3d, 0xd8, 0x9e, 0x6f, 0xbd, 0x1e, 0x59, 0x56, 0xbe,
  0x10, 0xa5, 0x12, 0xbe, 0x68, 0x75, 0xc9, 0xbd, 0xbd, 0x96, 0xc6, 0xbc,
  0xf8, 0x4f, 0x3d, 0x3c, 0x8f, 0x7d, 0x0b, 0x3e, 0xe2, 0xed, 0x98, 0xbd,
  0xf8, 0x3e, 0x36, 0xbe, 0x95, 0xbc, 0x78, 0xbd, 0x10, 0xdd, 0xd8, 0xbc,
  0x9a, 0x2b, 0xcf, 0x3e, 0xff, 0x39, 0xa0, 0xbd, 0xb1, 0x1c, 0xb8, 0x3c,
  0xf7, 0x7b, 0x3c, 0xbf, 0xd8, 0x7f, 0x84, 0xbe, 0x41, 0xf1, 0x8f, 0x3e,
  0xf9, 0xc8, 0x31, 0x3e, 0xe8, 0x83, 0x25, 0xbe, 0x4f, 0xcd, 0x9f, 0x3c,
  0x43, 0x82, 0xa1, 0x3e, 0x3d, 0xfd, 0xc2, 0x3e, 0xb0, 0x2c, 0xe6, 0xbe,
  0xe2, 0x18, 0x57, 0x3e, 0xe0, 0xb5, 0x2b, 0xbf, 0x37, 0x8f, 0x3a, 0x3d,
  0x79, 0x7a, 0x10, 0x3f, 0xa3, 0xdf, 0x0b, 0xbe, 0x28, 0x32, 0x25, 0xbe,
  0x1b, 0x9d, 0xb8, 0x3e, 0x16, 0x0b, 0xdc, 0xbd, 0xc6, 0xb0, 0x30, 0xbe,
  0x26, 0x85, 0xb3, 0x3c, 0xfa, 0xcd, 0xc7, 0x3d, 0xb9, 0xe7, 0xb5, 0x3d,
  0xd3, 0x15, 0x01, 0xbd, 0xfb, 0xc3, 0x93, 0xbc, 0xe8, 0xba, 0xbc, 0x3e,
  0x65, 0x88, 0x1e, 0xbe, 0xdf, 0xfa, 0x05, 0x3e, 0xb2, 0x46, 0x95, 0xbd,
  0xda, 0xc2, 0x0d, 0x3e, 0xd8, 0x72, 0x49, 0x3e, 0x26, 0x81, 0x64, 0x3e,
  0x1f, 0xc6, 0x19, 0xbe, 0x58, 0x22, 0x0b, 0x3e, 0x3f, 0x54, 0x0f, 0xbe,
  0x08, 0xc1, 0x15, 0xbe, 0xf1, 0x5e, 0x7b, 0x3e, 0xbd, 0xca, 0x23, 0x3e,
  0xff, 0x5f, 0x93, 0x3c, 0x8d, 0x44, 0x3d, 0x3c, 0xc5, 0x6e, 0x2d, 0x3e,
  0x47, 0x50, 0x51, 0x3e, 0x7a, 0x61, 0x90, 0xbd, 0x7a, 0xff, 0xb7, 0x3d,
  0x9f, 0xd7, 0x6c, 0x3c, 0xab, 0xc6, 0x74, 0x3d, 0xda, 0x22, 0x3c, 0x3e,
  0xcb, 0x6c, 0xee, 0xbd, 0xb7, 0xbf, 0xa3, 0x3d, 0xf9, 0x2f, 0x02, 0x3f,
  0x08, 0x0a, 0x36, 0xbd, 0xaf, 0x8e, 0x71, 0xbe, 0x6a, 0x5f, 0x91, 0x3d,
  0x0e, 0xa6, 0xf6, 0xbc, 0x64, 0xee, 0xc6, 0x3d, 0x38, 0x80, 0x98, 0x3c,
  0xa3, 0xfe, 0x6c, 0x3d, 0x98, 0xe7, 0x5d, 0x3d, 0xd5, 0x5b, 0x03, 0xbe,
  0x41, 0xb6, 0x16, 0x3e, 0x43, 0x88, 0x67, 0xbe, 0x5f, 0x13, 0x16, 0x3e,
  0x7b, 0x92, 0x1b, 0x3d, 0xaf, 0x71, 0x62, 0xbe, 0x0f, 0x35, 0xd2, 0x3c,
  0x8a, 0x6e, 0x8c, 0x3e, 0x08, 0x00, 0x33, 0xbe, 0xb0, 0xe5, 0x99, 0xbe,
  0xed, 0x76, 0x27, 0x3e, 0x1d, 0xb2, 0xb6, 0x3d, 0x4e, 0x0e, 0x64, 0x3e,
  0xec, 0xf3, 0x6e, 0xbc, 0xca, 0xc2, 0x51, 0x3d, 0xbb, 0xd7, 0x71, 0xbc,
  0x71, 0x16, 0x92, 0xbe, 0x00, 0x00, 0x89, 0x3e, 0x10, 0x1d, 0x28, 0xbe,
  0xe4, 0x27, 0x36, 0x3d, 0xa0, 0x48, 0x0b, 0xbc, 0xb6, 0xf7, 0xd3, 0x3d,
  0xb7, 0xa4, 0xc1, 0x3d, 0x6e, 0xaa, 0x07, 0x3f, 0x22, 0xd5, 0x85, 0xbe,
  0xb5, 0xc9, 0xbe, 0xbe, 0xbe, 0x8e, 0x03, 0x3e, 0x28, 0x14, 0x57, 0x3d,
  0xae, 0xa8, 0x4e, 0x3e, 0x23, 0x3f, 0xd1, 0x3c, 0xbc, 0x22, 0x60, 0x3e,
  0x24, 0x47, 0x5c, 0x3e, 0xa4, 0xe5, 0x8b, 0xbe, 0xa6, 0xd5, 0x5d, 0x3e,
  0xd9, 0x71, 0x1e, 0xbe, 0x7a, 0xde, 0x00, 0x3e, 0x74, 0xf3, 0x1f, 0x3e,
  0x57, 0xcd, 0x46, 0x3e, 0x54, 0x9a, 0x02, 0x3e, 0x9e, 0x54, 0x88, 0x3e,
  0x4b, 0x00, 0x2c, 0xbe, 0x5e, 0x97, 0xb9, 0xbe, 0x3c, 0xb8, 0xcd, 0x3e,
  0xe8, 0xfb, 0x38, 0x3d, 0x30, 0xc9, 0x3e, 0x3d, 0x36, 0xca, 0x98, 0xba,
  0x50, 0x74, 0x75, 0x3e, 0x26, 0xbd, 0xbf, 0x3e, 0x71, 0x7f, 0x78, 0xbe,
  0xbc, 0xfa, 0x9a, 0x3e, 0x6a, 0x91, 0x2e, 0xbe, 0xa0, 0xbd, 0xdc, 0xbd,
  0x61, 0x4d, 0x79, 0x3e, 0xac, 0x21, 0xcd, 0x3e, 0xef, 0x64, 0x4f, 0xbe,
  0xe5, 0x74, 0xd9, 0x3e, 0xdd, 0xad, 0xb1, 0xbd, 0xfd, 0xbc, 0x87, 0xbe,
  0x1a, 0x0b, 0x11, 0x3f, 0x6c, 0xd3, 0x4b, 0x3c, 0xba, 0x7d, 0x55, 0xbe,
  0x99, 0x64, 0xf3, 0xbd, 0x8e, 0x0d, 0xa6, 0x3e, 0x99, 0x24, 0x9c, 0x3e,
  0xd0, 0x58, 0xa4, 0xbe, 0xd1, 0xd4, 0x44, 0xbd, 0xce, 0x12, 0x45, 0xbe,
  0xa1, 0x7a, 0xb6, 0xbe, 0x4d, 0xae, 0xe9, 0x3e, 0x3f, 0xd1, 0xa1, 0x3e,
  0x32, 0xab, 0xaf, 0xbe, 0x3e, 0x6b, 0xda, 0x3e, 0x37, 0xfc, 0x84, 0x3d,
  0xdf, 0x3c, 0x9d, 0x3d, 0x6d, 0x1c, 0x55, 0x3e, 0xe9, 0xe8, 0x95, 0xbd,
  0xa1, 0xbc, 0xb1, 0x3e, 0x96, 0x8d, 0xa9, 0xbd, 0x32, 0x02, 0x30, 0xbc,
  0x0f, 0xe9, 0x93, 0x3e, 0xe0, 0x2a, 0xce, 0xbd, 0x33, 0x9a, 0xc4, 0x3e,
  0x17, 0xda, 0x41, 0x3e, 0x34, 0xdc, 0x32, 0xbd, 0x51, 0x1e, 0x51, 0x3f,
  0xa4, 0xa2, 0x31, 0x3f, 0x50, 0x4f, 0x99, 0xbe, 0x2c, 0x86, 0x8e, 0x3e,
  0xa0, 0x24, 0x61, 0xbe, 0x93, 0xd1, 0x6e, 0xbd, 0x00, 0x53, 0xa1, 0x3e,
  0x78, 0x86, 0x65, 0x3e, 0x70, 0x88, 0xcc, 0xbd, 0x02, 0x07, 0x5c, 0xbe,
  0x7e, 0x1e, 0x77, 0x3e, 0xf0, 0x43, 0xbb, 0x3e, 0x77, 0xd6, 0x59, 0x3b,
  0x58, 0x20, 0x0e, 0x3d, 0x31, 0xb9, 0xf2, 0x3d, 0xb8, 0xdf, 0xa3, 0x3b,
  0x9f, 0x95, 0x0a, 0x3f, 0x69, 0x91, 0x68, 0x3f, 0x0a, 0xf5, 0x8f, 0xbe,
  0x94, 0x06, 0xe3, 0x3e, 0xdf, 0x18, 0xa7, 0xbc, 0xcd, 0xe0, 0x33, 0xbd,
  0x16, 0x44, 0x6c, 0x3e, 0x4d, 0xcf, 0x32, 0x3e, 0xf4, 0x32, 0xe1, 0x3b,
  0x51, 0x0c, 0x80, 0xbe, 0x17, 0xd2, 0x78, 0x3d, 0xae, 0x77, 0x50, 0x3e,
  0x63, 0x0c, 0x39, 0xbe, 0x03, 0xf4, 0xb1, 0x3d, 0x65, 0x8c, 0x22, 0x3d,
  0x2c, 0x9e, 0x27, 0xbd, 0x1f, 0xf2, 0xa6, 0x3e, 0x5e, 0xc0, 0x52, 0x3e,
  0x9f, 0x66, 0x03, 0xbc, 0xa6, 0x41, 0x94, 0x3e, 0x6a, 0xd7, 0x21, 0x3c,
  0xdc, 0x33, 0xa6, 0x3c, 0x65, 0xd2, 0xc9, 0x3e, 0xc5, 0xba, 0xf1, 0x3c,
  0x7a, 0x6a, 0x7f, 0x3d, 0x19, 0xc3, 0x1d, 0xbe, 0x4b, 0x63, 0xc5, 0xbc,
  0x38, 0xfe, 0x07, 0x3f, 0xa0, 0x88, 0x6a, 0xbe, 0x62, 0x1a, 0xce, 0x3d,
  0xa4, 0x69, 0x13, 0xbe, 0x2d, 0x84, 0x0f, 0xbd, 0x17, 0xc9, 0x00, 0x3f,
  0x87, 0x2e, 0x18, 0x3f, 0x93, 0x08, 0x2e, 0xbe, 0x35, 0x5d, 0xdd, 0x3e,
  0x26, 0x2d, 0x1b, 0xbe, 0x26, 0xfd, 0x48, 0xbb, 0x80, 0x6d, 0x48, 0x3e,
  0xfa, 0x7b, 0x4e, 0xbd, 0x49, 0x5a, 0xc8, 0xbc, 0xc5, 0x6d, 0x8e, 0xbc,
  0x43, 0xf7, 0x19, 0x3e, 0x30, 0x13, 0xa1, 0x3e, 0xaf, 0x3d, 0x03, 0xbe,
  0x8f, 0xed, 0x28, 0x3e, 0xfa, 0xf5, 0x87, 0x3c, 0x38, 0xb6, 0x39, 0xbc,
  0xd6, 0xbe, 0x33, 0x3f, 0x0d, 0xde, 0xde, 0x3e, 0xd0, 0x60, 0xfb, 0xbc,
  0xf4, 0x9a, 0xca, 0x3e, 0x95, 0x2b, 0xf1, 0xbd, 0xdf, 0xb7, 0x25, 0xbd,
  0xad, 0x49, 0x8e, 0x3e, 0x79, 0xfa, 0xf3, 0xbd, 0xfd, 0xfa, 0x5a, 0xbc,
  0xe2, 0x50, 0xfc, 0xbd, 0x86, 0xa0, 0xeb, 0xbd, 0x66, 0x94, 0xa0, 0x3d,
  0x17, 0x08, 0x4b, 0xbe, 0xcc, 0x7c, 0x8b, 0xbd, 0x4f, 0xba, 0x8b, 0xbd,
  0xfd, 0xec, 0xc7, 0xbd, 0x7e, 0x92, 0xae, 0x3e, 0x2b, 0xd7, 0xc6, 0xbd,
  0xe1, 0x49, 0x01, 0x3d, 0xcd, 0xe0, 0x24, 0x3c, 0x76, 0x3c, 0x32, 0xbd,
  0xe3, 0xc0, 0x1c, 0xbe, 0xf3, 0xbd, 0xf9, 0x3c, 0x6b, 0x51, 0x08, 0xbd,
  0x2b, 0x49, 0x79, 0xbe, 0x4c, 0x0e, 0x76, 0xbd, 0x6e, 0x58, 0x0c, 0x3d,
  0xa9, 0xac, 0x85, 0xbe, 0x46, 0x1c, 0x7f, 0xbe, 0xf0, 0x2f, 0xa8, 0xbc,
  0x63, 0xba, 0x88, 0xbe, 0xbb, 0x3d, 0x06, 0xbe, 0x20, 0xaa, 0xf4, 0xbd,
  0xae, 0xe5, 0x80, 0x3d, 0x89, 0x62, 0x69, 0xbd, 0x48, 0x25, 0x44, 0xbd,
  0xcb, 0xe8, 0x23, 0x3e, 0x36, 0x4b, 0x40, 0xbe, 0xe1, 0xb5, 0x53, 0xbe,
  0x18, 0xfa, 0x86, 0x3d, 0x7b, 0xa8, 0x81, 0x3d, 0xec, 0x82, 0xac, 0x3d,
  0x6c, 0x36, 0x97, 0x3d, 0x09, 0xf6, 0xc3, 0x3d, 0xef, 0xbc, 0x42, 0x3d,
  0x51, 0x5f, 0xda, 0x3c, 0x92, 0xc3, 0xa7, 0xbd, 0xf7, 0xd5, 0x9e, 0x3d,
  0x6e, 0x5c, 0x20, 0xbe, 0x5c, 0xf5, 0x06, 0x3d, 0x7e, 0x4a, 0x2b, 0xbe,
  0xf7, 0xfd, 0x5a, 0xbe, 0x9b, 0xf4, 0xd7, 0xbd, 0x01, 0x9b, 0x2f, 0xbc,
  0xc5, 0x66, 0xc7, 0x3d, 0x88, 0x28, 0xa5, 0x3d, 0x18, 0x3a, 0x22, 0xbb,
  0x3c, 0xbd, 0x45, 0xbe, 0x5d, 0x97, 0xd6, 0xbd, 0x26, 0x43, 0x5f, 0xbe,
  0x10, 0xe0, 0x38, 0x3e, 0xaf, 0xa0, 0x7c, 0xbe, 0x5f, 0xdc, 0xa4, 0xbc,
  0xc7, 0x11, 0x1b, 0xbe, 0xb8, 0x23, 0x9a, 0x3d, 0x22, 0x41, 0xcc, 0x3d,
  0x9d, 0xfe, 0xf5, 0xbd, 0x58, 0xbb, 0x2a, 0xbd, 0xa4, 0x24, 0xfb, 0xbd,
  0x12, 0xb3, 0x2e, 0xbb, 0x6f, 0xa6, 0x54, 0xbe, 0x80, 0xb4, 0x3e, 0xbe,
  0xf8, 0x98, 0x36, 0xbe, 0xf9, 0x70, 0xa4, 0xbd, 0xaf, 0x3f, 0x53, 0xbe,
  0x83, 0x41, 0x6b, 0x3d, 0x00, 0xde, 0x0b, 0xbe, 0x1b, 0x0d, 0x67, 0xbe,
  0x59, 0xb1, 0x3f, 0xbe, 0x54, 0x2e, 0x82, 0xbd, 0x01, 0xc8, 0x1f, 0xbd,
  0xfb, 0xf7, 0x94, 0x3d, 0xdc, 0x92, 0xd3, 0xbd, 0x76, 0xa8, 0x78, 0x3d,
  0x22, 0x6f, 0x13, 0xbe, 0x3d, 0x1e, 0xa6, 0x3d, 0x2f, 0xce, 0x19, 0xbe,
  0xc5, 0x5d, 0x32, 0xbc, 0x73, 0xd4, 0x96, 0x3b, 0xee, 0x46, 0x4c, 0xbe,
  0xf0, 0x0c, 0x77, 0xbe, 0x7a, 0x2f, 0xa2, 0xbd, 0xbc, 0x99, 0x45, 0xbe,
  0xbe, 0xd9, 0x29, 0xbe, 0x92, 0x3a, 0xa6, 0x3d, 0xf9, 0x5b, 0x55, 0xbe,
  0xfd, 0x48, 0x20, 0x3e, 0x07, 0x9b, 0x42, 0xbe, 0xa0, 0xae, 0x08, 0xbe,
  0x52, 0x2e, 0x0b, 0x3e, 0xed, 0xf5, 0xd0, 0x3d, 0x0c, 0x18, 0x9d, 0xbc,
  0x6d, 0xed, 0xfa, 0xbd, 0x16, 0xa2, 0x54, 0xbe, 0xc2, 0xd5, 0x12, 0xbe,
  0xff, 0x09, 0x14, 0xbe, 0x63, 0xc1, 0x5a, 0xbe, 0x5e, 0xe8, 0x10, 0x3e,
  0x16, 0xa9, 0x96, 0xbe, 0xe3, 0xa4, 0x71, 0x3d, 0xf1, 0x83, 0x2d, 0x3d,
  0x34, 0x01, 0xb3, 0xbc, 0x48, 0x0a, 0x1f, 0xbe, 0xa9, 0x31, 0x78, 0xbe,
  0xff, 0xf1, 0x0e, 0xbe, 0xbd, 0x84, 0xb0, 0x3d, 0x58, 0x99, 0xc0, 0xbd,
  0x6a, 0x4b, 0xe4, 0x3d, 0xb2, 0xd5, 0x45, 0xbd, 0xb6, 0x84, 0x88, 0xbe,
  0xe5, 0x77, 0x19, 0xbe, 0xe5, 0xa6, 0x1d, 0xbe, 0xd9, 0x5e, 0xfd, 0xbd,
  0xd3, 0x31, 0x1c, 0x3e, 0x01, 0xaf, 0x82, 0x3d, 0xfc, 0xe8, 0x53, 0xbe,
  0x51, 0xf7, 0x64, 0xbe, 0x12, 0xfd, 0x6e, 0xbe, 0xc0, 0xcf, 0x8f, 0xbe,
  0x46, 0xfe, 0xff, 0xff, 0x10, 0x00, 0x00, 0x00, 0x05, 0x00, 0x00, 0x00,
  0x14, 0x00, 0x00, 0x00, 0x2c, 0x00, 0x00, 0x00, 0x02, 0x00, 0x00, 0x00,
  0x10, 0x00, 0x00, 0x00, 0x70, 0x00, 0x00, 0x00, 0x17, 0x00, 0x00, 0x00,
  0x73, 0x65, 0x71, 0x75, 0x65, 0x6e, 0x74, 0x69, 0x61, 0x6c, 0x2f, 0x64,
  0x65, 0x6e, 0x73, 0x65, 0x2f, 0x4d, 0x61, 0x74, 0x4d, 0x75, 0x6c, 0x00,
  0x34, 0xfe, 0xff, 0xff, 0x2a, 0xff, 0xff, 0xff, 0x04, 0x00, 0x00, 0x00,
  0x08, 0x00, 0x00, 0x00, 0xff, 0xff, 0xff, 0xff, 0x70, 0x00, 0x00, 0x00,
  0x00, 0x00, 0x0e, 0x00, 0x18, 0x00, 0x08, 0x00, 0x07, 0x00, 0x0c, 0x00,
  0x10, 0x00, 0x14, 0x00, 0x0e, 0x00, 0x00, 0x00, 0x00, 0x00, 0x00, 0x02,
  0x10, 0x00, 0x00, 0x00, 0x04, 0x00, 0x00, 0x00, 0x10, 0x00, 0x00, 0x00,
  0x2c, 0x00, 0x00, 0x00, 0x01, 0x00, 0x00, 0x00, 0x02, 0x00, 0x00, 0x00,
  0x18, 0x00, 0x00, 0x00, 0x73, 0x65, 0x71, 0x75, 0x65, 0x6e, 0x74, 0x69,
  0x61, 0x6c, 0x2f, 0x66, 0x6c, 0x61, 0x74, 0x74, 0x65, 0x6e, 0x2f, 0x43,
  0x6f, 0x6e, 0x73, 0x74, 0x00, 0x00, 0x00, 0x00, 0x9c, 0xfe, 0xff, 0xff,
  0x92, 0xff, 0xff, 0xff, 0x04, 0x00, 0x00, 0x00, 0x10, 0x00, 0x00, 0x00,
  0x02, 0xcc, 0xab, 0x3e, 0x96, 0xea, 0x59, 0x3d, 0xd1, 0x0d, 0xa9, 0x3d,
  0x93, 0x07, 0x52, 0xc0, 0x0a, 0xff, 0xff, 0xff, 0x10, 0x00, 0x00, 0x00,
  0x03, 0x00, 0x00, 0x00, 0x10, 0x00, 0x00, 0x00, 0x3c, 0x00, 0x00, 0x00,
  0x01, 0x00, 0x00, 0x00, 0x04, 0x00, 0x00, 0x00, 0x29, 0x00, 0x00, 0x00,
  0x73, 0x65, 0x71, 0x75, 0x65, 0x6e, 0x74, 0x69, 0x61, 0x6c, 0x2f, 0x64,
  0x65, 0x6e, 0x73, 0x65, 0x5f, 0x31, 0x2f, 0x42, 0x69, 0x61, 0x73, 0x41,
  0x64, 0x64, 0x2f, 0x52, 0x65, 0x61, 0x64, 0x56, 0x61, 0x72, 0x69, 0x61,
  0x62, 0x6c, 0x65, 0x4f, 0x70, 0x00, 0x00, 0x00, 0x60, 0xff, 0xff, 0xff,
  0x00, 0x00, 0x06, 0x00, 0x08, 0x00, 0x04, 0x00, 0x06, 0x00, 0x00, 0x00,
  0x04, 0x00, 0x00, 0x00, 0x40, 0x00, 0x00, 0x00, 0xf9, 0x9d, 0xf1, 0xbd,
  0xbc, 0xee, 0x1b, 0x3e, 0x59, 0x16, 0x49, 0xbe, 0x96, 0x6a, 0xda, 0xbe,
  0x95, 0xa9, 0x38, 0xbe, 0xab, 0xfd, 0x4c, 0x3f, 0xbd, 0x76, 0x0c, 0xbe,
  0x4e, 0x5d, 0x08, 0xbe, 0xbd, 0x32, 0x15, 0xbe, 0xd5, 0xa3, 0x36, 0xbe,
  0xf9, 0xa0, 0x09, 0xbe, 0xf8, 0xf2, 0x10, 0xbe, 0xbc, 0x76, 0x21, 0xbe,
  0x6b, 0x14, 0x23, 0x3f, 0x3c, 0x50, 0xad, 0x3f, 0xb2, 0x24, 0x32, 0xbe,
  0xae, 0xff, 0xff, 0xff, 0x10, 0x00, 0x00, 0x00, 0x02, 0x00, 0x00, 0x00,
  0x10, 0x00, 0x00, 0x00, 0x3c, 0x00, 0x00, 0x00, 0x01, 0x00, 0x00, 0x00,
  0x10, 0x00, 0x00, 0x00, 0x27, 0x00, 0x00, 0x00, 0x73, 0x65, 0x71, 0x75,
  0x65, 0x6e, 0x74, 0x69, 0x61, 0x6c, 0x2f, 0x64, 0x65, 0x6e, 0x73, 0x65,
  0x2f, 0x42, 0x69, 0x61, 0x73, 0x41, 0x64, 0x64, 0x2f, 0x52, 0x65, 0x61,
  0x64, 0x56, 0x61, 0x72, 0x69, 0x61, 0x62, 0x6c, 0x65, 0x4f, 0x70, 0x00,
  0x04, 0x00, 0x06, 0x00, 0x04, 0x00, 0x00, 0x00, 0x00, 0x00, 0x0e, 0x00,
  0x14, 0x00, 0x04, 0x00, 0x00, 0x00, 0x08, 0x00, 0x0c, 0x00, 0x10, 0x00,
  0x0e, 0x00, 0x00, 0x00, 0x10, 0x00, 0x00, 0x00, 0x01, 0x00, 0x00, 0x00,
  0x1c, 0x00, 0x00, 0x00, 0x2c, 0x00, 0x00, 0x00, 0x04, 0x00, 0x00, 0x00,
  0x01, 0x00, 0x00, 0x00, 0x40, 0x00, 0x00, 0x00, 0x03, 0x00, 0x00, 0x00,
  0x01, 0x00, 0x00, 0x00, 0x0c, 0x00, 0x00, 0x00, 0x63, 0x6f, 0x6e, 0x76,
  0x32, 0x64, 0x5f, 0x69, 0x6e, 0x70, 0x75, 0x74, 0x00, 0x00, 0x00, 0x00,
  0xfc, 0xff, 0xff, 0xff, 0x04, 0x00, 0x04, 0x00, 0x04, 0x00, 0x00, 0x00




};


unsigned int model_tflite_len = 12384;// Fill the int in `src/model.cc` here
