#include "magic_wand_model_data.h"


// We need to keep the data array aligned on some architectures.

#ifdef __has_attribute

#define HAVE_ATTRIBUTE(x) __has_attribute(x)

#else

#define HAVE_ATTRIBUTE(x) 0

#endif

#if HAVE_ATTRIBUTE(aligned) || (defined(__GNUC__) && !defined(__clang__))

#define DATA_ALIGN_ATTRIBUTE __attribute__((aligned(4)))

#else

#define DATA_ALIGN_ATTRIBUTE

#endif


const unsigned char g_magic_wand_model_data[] DATA_ALIGN_ATTRIBUTE = {

  // Paste the data of the char array in `src/model.cc` here
  

  0x08, 0x00, 0x00, 0x00, 0x54, 0x46, 0x4c, 0x33, 0x62, 0xff, 0xff, 0xff,
  0x03, 0x00, 0x00, 0x00, 0x10, 0x00, 0x00, 0x00, 0x24, 0x00, 0x00, 0x00,
  0x78, 0x00, 0x00, 0x00, 0x24, 0x00, 0x00, 0x00, 0x05, 0x00, 0x00, 0x00,
  0x78, 0x05, 0x00, 0x00, 0xb0, 0x04, 0x00, 0x00, 0xe0, 0x02, 0x00, 0x00,
  0x60, 0x02, 0x00, 0x00, 0x54, 0x01, 0x00, 0x00, 0x01, 0x00, 0x00, 0x00,
  0x78, 0x00, 0x00, 0x00, 0x13, 0x00, 0x00, 0x00, 0x5c, 0x30, 0x00, 0x00,
  0x58, 0x30, 0x00, 0x00, 0x64, 0x2f, 0x00, 0x00, 0xe8, 0x2e, 0x00, 0x00,
  0x7c, 0x2e, 0x00, 0x00, 0x2c, 0x12, 0x00, 0x00, 0x98, 0x10, 0x00, 0x00,
  0xbc, 0x0e, 0x00, 0x00, 0x60, 0x06, 0x00, 0x00, 0xfc, 0x05, 0x00, 0x00,
  0x78, 0x05, 0x00, 0x00, 0x30, 0x30, 0x00, 0x00, 0x2c, 0x30, 0x00, 0x00,
  0x28, 0x30, 0x00, 0x00, 0x24, 0x30, 0x00, 0x00, 0x20, 0x30, 0x00, 0x00,
  0x1c, 0x30, 0x00, 0x00, 0x18, 0x30, 0x00, 0x00, 0x14, 0x30, 0x00, 0x00,
  0x0f, 0x00, 0x00, 0x00, 0x4d, 0x4c, 0x49, 0x52, 0x20, 0x43, 0x6f, 0x6e,
  0x76, 0x65, 0x72, 0x74, 0x65, 0x64, 0x2e, 0x00, 0x00, 0x00, 0x0e, 0x00,
  0x18, 0x00, 0x04, 0x00, 0x08, 0x00, 0x0c, 0x00, 0x10, 0x00, 0x14, 0x00,
  0x0e, 0x00, 0x00, 0x00, 0x14, 0x00, 0x00, 0x00, 0x5c, 0x00, 0x00, 0x00,
  0x60, 0x00, 0x00, 0x00, 0x64, 0x00, 0x00, 0x00, 0x84, 0x00, 0x00, 0x00,
  0x12, 0x00, 0x00, 0x00, 0x8c, 0x2f, 0x00, 0x00, 0x28, 0x2f, 0x00, 0x00,
  0x80, 0x2e, 0x00, 0x00, 0x18, 0x2e, 0x00, 0x00, 0xb0, 0x2d, 0x00, 0x00,
  0x5c, 0x11, 0x00, 0x00, 0xc0, 0x0f, 0x00, 0x00, 0xe4, 0x0d, 0x00, 0x00,
  0xa0, 0x05, 0x00, 0x00, 0x3c, 0x05, 0x00, 0x00, 0xb0, 0x04, 0x00, 0x00,
  0xe8, 0x03, 0x00, 0x00, 0x38, 0x03, 0x00, 0x00, 0xa4, 0x02, 0x00, 0x00,
  0x10, 0x02, 0x00, 0x00, 0x90, 0x01, 0x00, 0x00, 0xfc, 0x00, 0x00, 0x00,
  0x80, 0x00, 0x00, 0x00, 0x01, 0x00, 0x00, 0x00, 0x00, 0x00, 0x00, 0x00,
  0x01, 0x00, 0x00, 0x00, 0x11, 0x00, 0x00, 0x00, 0x08, 0x00, 0x00, 0x00,
  0x1c, 0x04, 0x00, 0x00, 0x58, 0x03, 0x00, 0x00, 0xc8, 0x02, 0x00, 0x00,
  0x24, 0x02, 0x00, 0x00, 0xac, 0x01, 0x00, 0x00, 0x10, 0x01, 0x00, 0x00,
  0x94, 0x00, 0x00, 0x00, 0x10, 0x00, 0x00, 0x00, 0x04, 0x00, 0x00, 0x00,
  0x6d, 0x61, 0x69, 0x6e, 0x00, 0x00, 0x00, 0x00, 0x8e, 0xff, 0xff, 0xff,
  0x00, 0x00, 0x00, 0x09, 0x04, 0x00, 0x00, 0x00, 0x1c, 0x00, 0x00, 0x00,
  0x10, 0x00, 0x00, 0x00, 0x04, 0x00, 0x00, 0x00, 0xc6, 0xd1, 0xff, 0xff,
  0x00, 0x00, 0x80, 0x3f, 0x01, 0x00, 0x00, 0x00, 0x11, 0x00, 0x00, 0x00,
  0x01, 0x00, 0x00, 0x00, 0x10, 0x00, 0x00, 0x00, 0xf6, 0xfb, 0xff, 0xff,
  0x00, 0x00, 0x00, 0x19, 0x01, 0x00, 0x00, 0x00, 0x46, 0xd1, 0xff, 0xff,
  0x10, 0x00, 0x00, 0x00, 0x12, 0x00, 0x00, 0x00, 0x14, 0x00, 0x00, 0x00,
  0x20, 0x00, 0x00, 0x00, 0x02, 0x00, 0x00, 0x00, 0x01, 0x00, 0x00, 0x00,
  0x05, 0x00, 0x00, 0x00, 0x08, 0x00, 0x00, 0x00, 0x49, 0x64, 0x65, 0x6e,
  0x74, 0x69, 0x74, 0x79, 0x00, 0x00, 0x00, 0x00, 0x80, 0xd1, 0xff, 0xff,
  0x00, 0x00, 0x0e, 0x00, 0x18, 0x00, 0x08, 0x00, 0x0c, 0x00, 0x10, 0x00,
  0x07, 0x00, 0x14, 0x00, 0x0e, 0x00, 0x00, 0x00, 0x00, 0x00, 0x00, 0x08,
  0x03, 0x00, 0x00, 0x00, 0x18, 0x00, 0x00, 0x00, 0x0c, 0x00, 0x00, 0x00,
  0x04, 0x00, 0x00, 0x00, 0x54, 0xd1, 0xff, 0xff, 0x01, 0x00, 0x00, 0x00,
  0x10, 0x00, 0x00, 0x00, 0x03, 0x00, 0x00, 0x00, 0x0f, 0x00, 0x00, 0x00,
  0x05, 0x00, 0x00, 0x00, 0x02, 0x00, 0x00, 0x00, 0xbe, 0xd1, 0xff, 0xff,
  0x10, 0x00, 0x00, 0x00, 0x11, 0x00, 0x00, 0x00, 0x14, 0x00, 0x00, 0x00,
  0x30, 0x00, 0x00, 0x00, 0x02, 0x00, 0x00, 0x00, 0x01, 0x00, 0x00, 0x00,
  0x05, 0x00, 0x00, 0x00, 0x1a, 0x00, 0x00, 0x00, 0x73, 0x65, 0x71, 0x75,
  0x65, 0x6e, 0x74, 0x69, 0x61, 0x6c, 0x2f, 0x64, 0x65, 0x6e, 0x73, 0x65,
  0x5f, 0x31, 0x2f, 0x42, 0x69, 0x61, 0x73, 0x41, 0x64, 0x64, 0x00, 0x00,
  0xb0, 0xd1, 0xff, 0xff, 0xd6, 0xfd, 0xff, 0xff, 0x00, 0x00, 0x00, 0x08,
  0x03, 0x00, 0x00, 0x00, 0x24, 0x00, 0x00, 0x00, 0x18, 0x00, 0x00, 0x00,
  0x0c, 0x00, 0x00, 0x00, 0x00, 0x00, 0x06, 0x00, 0x08, 0x00, 0x07, 0x00,
  0x06, 0x00, 0x00, 0x00, 0x00, 0x00, 0x00, 0x01, 0x01, 0x00, 0x00, 0x00,
  0x0f, 0x00, 0x00, 0x00, 0x03, 0x00, 0x00, 0x00, 0x0e, 0x00, 0x00, 0x00,
  0x04, 0x00, 0x00, 0x00, 0x01, 0x00, 0x00, 0x00, 0xfe, 0xfc, 0xff, 0xff,
  0x00, 0x00, 0x00, 0x09, 0x01, 0x00, 0x00, 0x00, 0x4e, 0xd2, 0xff, 0xff,
  0x10, 0x00, 0x00, 0x00, 0x10, 0x00, 0x00, 0x00, 0x14, 0x00, 0x00, 0x00,
  0x2c, 0x00, 0x00, 0x00, 0x02, 0x00, 0x00, 0x00, 0x01, 0x00, 0x00, 0x00,
  0x10, 0x00, 0x00, 0x00, 0x15, 0x00, 0x00, 0x00, 0x73, 0x65, 0x71, 0x75,
  0x65, 0x6e, 0x74, 0x69, 0x61, 0x6c, 0x2f, 0x64, 0x65, 0x6e, 0x73, 0x65,
  0x2f, 0x52, 0x65, 0x6c, 0x75, 0x00, 0x00, 0x00, 0x94, 0xd2, 0xff, 0xff,
  0x00, 0x00, 0x0a, 0x00, 0x10, 0x00, 0x04, 0x00, 0x08, 0x00, 0x0c, 0x00,
  0x0a, 0x00, 0x00, 0x00, 0x02, 0x00, 0x00, 0x00, 0x10, 0x00, 0x00, 0x00,
  0x04, 0x00, 0x00, 0x00, 0x01, 0x00, 0x00, 0x00, 0x0e, 0x00, 0x00, 0x00,
  0x02, 0x00, 0x00, 0x00, 0x0d, 0x00, 0x00, 0x00, 0x03, 0x00, 0x00, 0x00,
  0x7a, 0xfd, 0xff, 0xff, 0x00, 0x00, 0x00, 0x16, 0x01, 0x00, 0x00, 0x00,
  0xca, 0xd2, 0xff, 0xff, 0x10, 0x00, 0x00, 0x00, 0x0f, 0x00, 0x00, 0x00,
  0x14, 0x00, 0x00, 0x00, 0x30, 0x00, 0x00, 0x00, 0x02, 0x00, 0x00, 0x00,
  0x01, 0x00, 0x00, 0x00, 0x70, 0x00, 0x00, 0x00, 0x1a, 0x00, 0x00, 0x00,
  0x73, 0x65, 0x71, 0x75, 0x65, 0x6e, 0x74, 0x69, 0x61, 0x6c, 0x2f, 0x66,
  0x6c, 0x61, 0x74, 0x74, 0x65, 0x6e, 0x2f, 0x52, 0x65, 0x73, 0x68, 0x61,
  0x70, 0x65, 0x00, 0x00, 0xbc, 0xd2, 0xff, 0xff, 0xe2, 0xfe, 0xff, 0xff,
  0x00, 0x00, 0x00, 0x05, 0x01, 0x00, 0x00, 0x00, 0x38, 0x00, 0x00, 0x00,
  0x2c, 0x00, 0x00, 0x00, 0x14, 0x00, 0x00, 0x00, 0x00, 0x00, 0x0e, 0x00,
  0x14, 0x00, 0x00, 0x00, 0x10, 0x00, 0x0c, 0x00, 0x08, 0x00, 0x04, 0x00,
  0x0e, 0x00, 0x00, 0x00, 0x03, 0x00, 0x00, 0x00, 0x01, 0x00, 0x00, 0x00,
  0x03, 0x00, 0x00, 0x00, 0x01, 0x00, 0x00, 0x00, 0x01, 0x00, 0x00, 0x00,
  0x0d, 0x00, 0x00, 0x00, 0x01, 0x00, 0x00, 0x00, 0x0c, 0x00, 0x00, 0x00,
  0x5a, 0xd3, 0xff, 0xff, 0x10, 0x00, 0x00, 0x00, 0x0e, 0x00, 0x00, 0x00,
  0x1c, 0x00, 0x00, 0x00, 0x40, 0x00, 0x00, 0x00, 0x04, 0x00, 0x00, 0x00,
  0x01, 0x00, 0x00, 0x00, 0x07, 0x00, 0x00, 0x00, 0x01, 0x00, 0x00, 0x00,
  0x10, 0x00, 0x00, 0x00, 0x22, 0x00, 0x00, 0x00, 0x73, 0x65, 0x71, 0x75,
  0x65, 0x6e, 0x74, 0x69, 0x61, 0x6c, 0x2f, 0x6d, 0x61, 0x78, 0x5f, 0x70,
  0x6f, 0x6f, 0x6c, 0x69, 0x6e, 0x67, 0x32, 0x64, 0x5f, 0x31, 0x2f, 0x4d,
  0x61, 0x78, 0x50, 0x6f, 0x6f, 0x6c, 0x00, 0x00, 0x5c, 0xd3, 0xff, 0xff,
  0xc2, 0xfe, 0xff, 0xff, 0x00, 0x00, 0x00, 0x01, 0x24, 0x00, 0x00, 0x00,
  0x18, 0x00, 0x00, 0x00, 0x04, 0x00, 0x00, 0x00, 0xb4, 0xfe, 0xff, 0xff,
  0x01, 0x00, 0x00, 0x00, 0x01, 0x00, 0x00, 0x00, 0x00, 0x00, 0x00, 0x01,
  0x01, 0x00, 0x00, 0x00, 0x0c, 0x00, 0x00, 0x00, 0x03, 0x00, 0x00, 0x00,
  0x0b, 0x00, 0x00, 0x00, 0x07, 0x00, 0x00, 0x00, 0x09, 0x00, 0x00, 0x00,
  0xea, 0xd3, 0xff, 0xff, 0x10, 0x00, 0x00, 0x00, 0x0d, 0x00, 0x00, 0x00,
  0x1c, 0x00, 0x00, 0x00, 0x2c, 0x00, 0x00, 0x00, 0x04, 0x00, 0x00, 0x00,
  0x01, 0x00, 0x00, 0x00, 0x15, 0x00, 0x00, 0x00, 0x01, 0x00, 0x00, 0x00,
  0x10, 0x00, 0x00, 0x00, 0x0c, 0x00, 0x00, 0x00, 0x74, 0x66, 0x6c, 0x2e,
  0x63, 0x6f, 0x6e, 0x76, 0x5f, 0x32, 0x64, 0x31, 0x00, 0x00, 0x00, 0x00,
  0x30, 0xd4, 0xff, 0xff, 0x00, 0x00, 0x0e, 0x00, 0x1a, 0x00, 0x08, 0x00,
  0x0c, 0x00, 0x10, 0x00, 0x07, 0x00, 0x14, 0x00, 0x0e, 0x00, 0x00, 0x00,
  0x00, 0x00, 0x00, 0x05, 0x01, 0x00, 0x00, 0x00, 0x3c, 0x00, 0x00, 0x00,
  0x30, 0x00, 0x00, 0x00, 0x14, 0x00, 0x00, 0x00, 0x00, 0x00, 0x0e, 0x00,
  0x18, 0x00, 0x17, 0x00, 0x10, 0x00, 0x0c, 0x00, 0x08, 0x00, 0x04, 0x00,
  0x0e, 0x00, 0x00, 0x00, 0x03, 0x00, 0x00, 0x00, 0x03, 0x00, 0x00, 0x00,
  0x03, 0x00, 0x00, 0x00, 0x03, 0x00, 0x00, 0x00, 0x00, 0x00, 0x00, 0x01,
  0x01, 0x00, 0x00, 0x00, 0x0b, 0x00, 0x00, 0x00, 0x01, 0x00, 0x00, 0x00,
  0x0a, 0x00, 0x00, 0x00, 0x46, 0xff, 0xff, 0xff, 0x00, 0x00, 0x00, 0x11,
  0x01, 0x00, 0x00, 0x00, 0x96, 0xd4, 0xff, 0xff, 0x10, 0x00, 0x00, 0x00,
  0x0c, 0x00, 0x00, 0x00, 0x1c, 0x00, 0x00, 0x00, 0x40, 0x00, 0x00, 0x00,
  0x04, 0x00, 0x00, 0x00, 0x01, 0x00, 0x00, 0x00, 0x15, 0x00, 0x00, 0x00,
  0x01, 0x00, 0x00, 0x00, 0x08, 0x00, 0x00, 0x00, 0x20, 0x00, 0x00, 0x00,
  0x73, 0x65, 0x71, 0x75, 0x65, 0x6e, 0x74, 0x69, 0x61, 0x6c, 0x2f, 0x6d,
  0x61, 0x78, 0x5f, 0x70, 0x6f, 0x6f, 0x6c, 0x69, 0x6e, 0x67, 0x32, 0x64,
  0x2f, 0x4d, 0x61, 0x78, 0x50, 0x6f, 0x6f, 0x6c, 0x00, 0x00, 0x00, 0x00,
  0xf0, 0xd4, 0xff, 0xff, 0x00, 0x00, 0x0e, 0x00, 0x14, 0x00, 0x00, 0x00,
  0x08, 0x00, 0x0c, 0x00, 0x07, 0x00, 0x10, 0x00, 0x0e, 0x00, 0x00, 0x00,
  0x00, 0x00, 0x00, 0x01, 0x30, 0x00, 0x00, 0x00, 0x24, 0x00, 0x00, 0x00,
  0x10, 0x00, 0x00, 0x00, 0x0c, 0x00, 0x10, 0x00, 0x00, 0x00, 0x04, 0x00,
  0x08, 0x00, 0x0f, 0x00, 0x0c, 0x00, 0x00, 0x00, 0x01, 0x00, 0x00, 0x00,
  0x01, 0x00, 0x00, 0x00, 0x00, 0x00, 0x00, 0x01, 0x01, 0x00, 0x00, 0x00,
  0x0a, 0x00, 0x00, 0x00, 0x03, 0x00, 0x00, 0x00, 0x00, 0x00, 0x00, 0x00,
  0x06, 0x00, 0x00, 0x00, 0x08, 0x00, 0x00, 0x00, 0x00, 0x00, 0x0a, 0x00,
  0x0c, 0x00, 0x07, 0x00, 0x00, 0x00, 0x08, 0x00, 0x0a, 0x00, 0x00, 0x00,
  0x00, 0x00, 0x00, 0x03, 0x01, 0x00, 0x00, 0x00, 0x5a, 0xd5, 0xff, 0xff,
  0x10, 0x00, 0x00, 0x00, 0x0b, 0x00, 0x00, 0x00, 0x1c, 0x00, 0x00, 0x00,
  0x28, 0x00, 0x00, 0x00, 0x04, 0x00, 0x00, 0x00, 0x01, 0x00, 0x00, 0x00,
  0x40, 0x00, 0x00, 0x00, 0x03, 0x00, 0x00, 0x00, 0x08, 0x00, 0x00, 0x00,
  0x0b, 0x00, 0x00, 0x00, 0x74, 0x66, 0x6c, 0x2e, 0x63, 0x6f, 0x6e, 0x76,
  0x5f, 0x32, 0x64, 0x00, 0x44, 0xd5, 0xff, 0xff, 0x3a, 0xd6, 0xff, 0xff,
  0x04, 0x00, 0x00, 0x00, 0x40, 0x00, 0x00, 0x00, 0x1a, 0x16, 0xf6, 0xbf,
  0x12, 0x82, 0x13, 0xbb, 0x16, 0x8f, 0xe4, 0xba, 0xc7, 0xef, 0x99, 0x3e,
  0x5b, 0xf7, 0x7d, 0xbf, 0x30, 0xa3, 0xa2, 0xbf, 0x90, 0xaa, 0x88, 0x40,
  0x0c, 0x7a, 0xf6, 0xbf, 0xb8, 0x1d, 0xe4, 0x3c, 0xbd, 0xd3, 0x04, 0x3f,
  0x02, 0x94, 0xba, 0xbf, 0x5f, 0xbb, 0x59, 0xbf, 0x0f, 0xbd, 0xe9, 0xbe,
  0x27, 0xe4, 0xb1, 0xbf, 0xa6, 0x55, 0xeb, 0xbf, 0xd3, 0x6c, 0x83, 0xbf,
  0xe2, 0xd5, 0xff, 0xff, 0x10, 0x00, 0x00, 0x00, 0x0a, 0x00, 0x00, 0x00,
  0x10, 0x00, 0x00, 0x00, 0x20, 0x00, 0x00, 0x00, 0x01, 0x00, 0x00, 0x00,
  0x10, 0x00, 0x00, 0x00, 0x0d, 0x00, 0x00, 0x00, 0x73, 0x74, 0x64, 0x2e,
  0x63, 0x6f, 0x6e, 0x73, 0x74, 0x61, 0x6e, 0x74, 0x31, 0x00, 0x00, 0x00,
  0xc4, 0xd5, 0xff, 0xff, 0xba, 0xd6, 0xff, 0xff, 0x04, 0x00, 0x00, 0x00,
  0x20, 0x00, 0x00, 0x00, 0xd0, 0x41, 0x9e, 0xbf, 0xd1, 0xb0, 0x50, 0xbf,
  0x6c, 0x0b, 0x8b, 0xbe, 0x88, 0x07, 0xf0, 0xbf, 0xcb, 0xc4, 0x7f, 0xbf,
  0x61, 0x95, 0x35, 0xc0, 0xbd, 0x20, 0xee, 0xbf, 0x01, 0xaf, 0xff, 0xbf,
  0x42, 0xd6, 0xff, 0xff, 0x10, 0x00, 0x00, 0x00, 0x09, 0x00, 0x00, 0x00,
  0x10, 0x00, 0x00, 0x00, 0x20, 0x00, 0x00, 0x00, 0x01, 0x00, 0x00, 0x00,
  0x08, 0x00, 0x00, 0x00, 0x0c, 0x00, 0x00, 0x00, 0x73, 0x74, 0x64, 0x2e,
  0x63, 0x6f, 0x6e, 0x73, 0x74, 0x61, 0x6e, 0x74, 0x00, 0x00, 0x00, 0x00,
  0x24, 0xd6, 0xff, 0xff, 0x1a, 0xd7, 0xff, 0xff, 0x04, 0x00, 0x00, 0x00,
  0x00, 0x08, 0x00, 0x00, 0x00, 0xf8, 0xc4, 0xbd, 0x47, 0x6f, 0x23, 0xbe,
  0xe9, 0x70, 0x80, 0xbd, 0xe0, 0xac, 0xa3, 0x3d, 0x4b, 0x84, 0x8f, 0xbd,
  0xe4, 0x9f, 0x0e, 0xbe, 0x1f, 0xee, 0xd6, 0xbd, 0x11, 0x95, 0xd3, 0xbd,
  0x0a, 0x01, 0x0b, 0x3e, 0x45, 0x55, 0x47, 0xbd, 0xd7, 0x43, 0x25, 0xbd,
  0x32, 0xd5, 0x2e, 0xbd, 0xa9, 0x76, 0x81, 0xbd, 0x64, 0xb1, 0xc3, 0xbd,
  0xeb, 0xa1, 0x00, 0xbd, 0x5f, 0xda, 0xa0, 0xbe, 0xbc, 0xc7, 0x1c, 0x3c,
  0xb6, 0x4b, 0x11, 0x3f, 0xa6, 0x18, 0x63, 0xbd, 0xa0, 0x35, 0x5d, 0x3d,
  0x65, 0xd2, 0x18, 0x3d, 0x10, 0x65, 0x2a, 0xbc, 0xeb, 0xab, 0x2d, 0x3e,
  0xe1, 0x7a, 0xaa, 0xbd, 0x99, 0xd2, 0x29, 0xbe, 0xa3, 0x59, 0xec, 0xbd,
  0xca, 0x6e, 0xda, 0xbd, 0x3d, 0x04, 0x0f, 0xbe, 0x5f, 0xa7, 0x14, 0xbc,
  0xdb, 0x6d, 0xd3, 0xbc, 0x93, 0x55, 0xa4, 0xbd, 0xdb, 0xf2, 0x48, 0x3c,
  0x35, 0xea, 0x7a, 0x3e, 0xd0, 0x0f, 0x0d, 0x3e, 0x70, 0x0d, 0x4e, 0x3e,
  0xdd, 0x2a, 0xc0, 0xbe, 0xa8, 0x6d, 0x94, 0xbe, 0xea, 0xe4, 0x20, 0x3d,
  0xc8, 0x07, 0xb6, 0xbe, 0x58, 0xd7, 0x02, 0x3d, 0xcb, 0x26, 0x20, 0xbd,
  0xe6, 0x88, 0x94, 0xbd, 0x88, 0xb9, 0x56, 0xbe, 0xba, 0x04, 0x81, 0xbe,
  0x27, 0xa9, 0x9c, 0xbe, 0xfc, 0xf3, 0x5a, 0x3e, 0xe6, 0x66, 0x67, 0xbe,
  0x34, 0x5a, 0xce, 0xbe, 0x6b, 0xb0, 0x6b, 0x3e, 0xd5, 0x5b, 0x8e, 0x3e,
  0x78, 0x62, 0x89, 0xbe, 0xab, 0xc6, 0x3c, 0xbd, 0xc5, 0x14, 0x3f, 0xbe,
  0x54, 0xe5, 0x19, 0x3c, 0xa8, 0x8a, 0xc4, 0xbd, 0x72, 0xc4, 0x45, 0xbe,
  0xba, 0x7f, 0x94, 0x3c, 0xce, 0xd3, 0x04, 0xbd, 0xa6, 0xff, 0x2c, 0xbe,
  0x79, 0x2d, 0x9e, 0x3e, 0xc7, 0xf8, 0x9b, 0xbd, 0x46, 0x9d, 0xf2, 0xbc,
  0x13, 0xfe, 0x73, 0x3d, 0xb3, 0x6b, 0x3f, 0x3e, 0x04, 0x6d, 0xd9, 0x3d,
  0x78, 0xb8, 0x0a, 0xbf, 0x55, 0x53, 0x84, 0xbe, 0x71, 0x0b, 0x35, 0xbe,
  0xe0, 0x49, 0x48, 0xbe, 0x9b, 0x3f, 0x89, 0x3d, 0xa7, 0x5e, 0xf0, 0xbe,
  0xae, 0x64, 0x55, 0xbe, 0x60, 0x7d, 0xd9, 0x3c, 0x82, 0xcb, 0x1e, 0xbf,
  0x6f, 0x31, 0x0e, 0x3e, 0x13, 0xa7, 0xd4, 0x3c, 0xf8, 0x2d, 0xb2, 0xbb,
  0x03, 0x71, 0xb5, 0x3d, 0x5f, 0x28, 0x05, 0xbf, 0x76, 0xeb, 0x2e, 0x3b,
  0x36, 0xeb, 0xf3, 0xbd, 0xc0, 0x76, 0xdf, 0xbe, 0x84, 0x02, 0x76, 0xbe,
  0xb2, 0x6e, 0xc2, 0xbd, 0x27, 0x22, 0x68, 0xbd, 0x76, 0xfb, 0x88, 0xbd,
  0xa0, 0x6a, 0xc2, 0xbe, 0x45, 0x5e, 0xe2, 0x3d, 0x29, 0x61, 0xf2, 0x3d,
  0xf3, 0x23, 0x30, 0xbf, 0xec, 0x25, 0x16, 0xbe, 0x52, 0x66, 0xb1, 0xbd,
  0xc8, 0x44, 0x48, 0xbe, 0x24, 0x0f, 0x65, 0x3c, 0x0f, 0x7f, 0x8b, 0xbe,
  0xe8, 0xaf, 0xbe, 0x3d, 0x37, 0x5c, 0x86, 0xbe, 0x65, 0xbf, 0x6d, 0xbd,
  0xa9, 0xab, 0xe2, 0x3c, 0x26, 0x32, 0x25, 0x3d, 0x91, 0x9b, 0xfc, 0xbd,
  0xb6, 0x69, 0x9c, 0xbe, 0x6b, 0x78, 0x3c, 0x3d, 0x43, 0x8e, 0xea, 0x3c,
  0x53, 0x64, 0x54, 0x3d, 0xba, 0x99, 0x7b, 0xbd, 0xbc, 0xa7, 0x50, 0x3e,
  0x2c, 0x3a, 0x4b, 0xbc, 0xf9, 0x13, 0x12, 0xbe, 0xbd, 0xc6, 0x57, 0xbe,
  0xd9, 0x72, 0xe7, 0x3e, 0xb9, 0x92, 0x91, 0x3e, 0xbe, 0x3e, 0xf2, 0xbc,
  0xe8, 0xee, 0xb9, 0x3c, 0xa9, 0x1e, 0x8a, 0x3d, 0x2c, 0xb7, 0x95, 0x3e,
  0x0e, 0xe1, 0x0f, 0xbe, 0x69, 0xa2, 0x5c, 0xbe, 0xb7, 0x5e, 0xaf, 0xba,
  0x8b, 0x83, 0x84, 0xbd, 0x0e, 0x38, 0xbe, 0xbd, 0xb1, 0x7a, 0x33, 0xbd,
  0x40, 0x48, 0xad, 0xbd, 0x8f, 0x58, 0x17, 0x3e, 0xfe, 0x81, 0xdf, 0xbd,
  0xb8, 0xef, 0x55, 0xbe, 0xaa, 0xf0, 0xb7, 0x3d, 0x51, 0xa2, 0x6e, 0x3e,
  0xc5, 0x72, 0x11, 0xbe, 0x9a, 0xa9, 0x1c, 0xbd, 0xd8, 0xfc, 0x91, 0xbd,
  0x86, 0x3e, 0x7c, 0xbe, 0xaa, 0x90, 0x07, 0x3e, 0x8e, 0x09, 0x27, 0x3d,
  0x9c, 0x3b, 0xea, 0xbb, 0xa6, 0x0a, 0x16, 0x3f, 0x85, 0x02, 0x12, 0xbe,
  0xf2, 0x08, 0xd8, 0xbd, 0x17, 0x7e, 0x46, 0xbc, 0x65, 0x4e, 0x89, 0xbe,
  0x19, 0x3b, 0x48, 0xbc, 0xa9, 0xe7, 0xf1, 0xbc, 0x26, 0xff, 0xd0, 0xbd,
  0xfd, 0x6f, 0x03, 0xbd, 0x73, 0x29, 0x17, 0xbe, 0x4b, 0xb4, 0x41, 0xbd,
  0x2b, 0x11, 0xd5, 0x3c, 0xef, 0x3e, 0xde, 0xbc, 0x63, 0xb5, 0xaa, 0xbc,
  0xfe, 0xdf, 0x29, 0xbd, 0xbe, 0xfb, 0x54, 0xbd, 0xe3, 0x7f, 0x6d, 0xbd,
  0xd5, 0xa4, 0xf3, 0xbd, 0x16, 0xf9, 0x8e, 0xbd, 0x5a, 0xb6, 0xe5, 0x3c,
  0xb1, 0x70, 0x0a, 0x3d, 0x28, 0xaf, 0x1f, 0x3c, 0xaa, 0x6a, 0x1c, 0xbd,
  0x3f, 0x3e, 0x43, 0xbe, 0xac, 0xad, 0x17, 0xbe, 0x9a, 0x21, 0xab, 0x3d,
  0x4d, 0xff, 0x0e, 0xbe, 0x0e, 0xbe, 0x1a, 0xbe, 0x1f, 0xe7, 0x02, 0x3f,
  0xc2, 0xb4, 0xa2, 0xbe, 0x10, 0x99, 0xc6, 0xbd, 0x1e, 0x4a, 0x0b, 0xbe,
  0x8a, 0x5a, 0x13, 0x3f, 0x9a, 0x90, 0x18, 0x3d, 0x80, 0xd8, 0x31, 0xbd,
  0xfe, 0xfd, 0xa1, 0xbd, 0x68, 0x20, 0xc6, 0xbc, 0x78, 0x42, 0x68, 0xbe,
  0xa6, 0x31, 0x61, 0xbd, 0x70, 0x56, 0x10, 0xbd, 0x9e, 0x80, 0x8e, 0xbd,
  0xb3, 0x7d, 0x7e, 0x3c, 0x01, 0xc5, 0x8a, 0xbe, 0xc5, 0xa3, 0x26, 0xbe,
  0xbc, 0x6f, 0x41, 0x3d, 0x5d, 0xe3, 0xdb, 0xbd, 0xe3, 0x13, 0x73, 0xbc,
  0xf6, 0x7d, 0x9d, 0xbd, 0x8a, 0x69, 0x08, 0xbc, 0x99, 0x21, 0xcd, 0xbb,
  0xec, 0x7d, 0x5c, 0xbd, 0x7e, 0xed, 0xb0, 0xbe, 0x5a, 0x2a, 0x7f, 0xbc,
  0xf4, 0x9e, 0xb2, 0x3c, 0x0c, 0xf6, 0xfa, 0x3d, 0xec, 0x73, 0x7a, 0x3b,
  0x60, 0xd6, 0x57, 0xba, 0xe1, 0xe1, 0x7e, 0x3e, 0xd3, 0x21, 0xa5, 0xbd,
  0x22, 0x96, 0x99, 0xbd, 0x56, 0x5a, 0x5a, 0x3e, 0x0a, 0x16, 0x5a, 0xbe,
  0xb3, 0xc8, 0x25, 0x3d, 0xe5, 0x92, 0xf0, 0x3c, 0x5c, 0xd6, 0xcf, 0xbd,
  0xb5, 0x60, 0x43, 0xbd, 0xd0, 0x35, 0x2f, 0xbe, 0x8c, 0x38, 0x93, 0xbe,
  0x2e, 0x0b, 0x72, 0x3d, 0xd8, 0xc4, 0x45, 0xbe, 0x01, 0x85, 0x07, 0xbe,
  0x6c, 0x65, 0xdd, 0x3d, 0x7c, 0x4d, 0x5f, 0xbe, 0xb4, 0x40, 0xf1, 0xbd,
  0xbd, 0x9c, 0x22, 0xbe, 0x6c, 0x56, 0xf5, 0xbd, 0xce, 0xad, 0x88, 0x3d,
  0x4d, 0xb2, 0x94, 0xbe, 0x90, 0xf5, 0x17, 0xbe, 0xff, 0x88, 0xc1, 0x3c,
  0x43, 0x69, 0x59, 0x3d, 0x61, 0x6a, 0x94, 0xbd, 0x76, 0xe7, 0x70, 0xbd,
  0xfe, 0x5c, 0xcb, 0xbd, 0xa7, 0xec, 0xcf, 0x3c, 0x31, 0xe0, 0x6f, 0xbd,
  0x12, 0xaa, 0x5a, 0x3c, 0xde, 0xc1, 0xf5, 0x3b, 0x21, 0x6e, 0x91, 0x3d,
  0x52, 0xf9, 0x3f, 0xbd, 0xef, 0x9a, 0x2b, 0x3d, 0xf5, 0x2f, 0x97, 0xbe,
  0x4b, 0x2e, 0x1b, 0xbb, 0xa0, 0xca, 0x20, 0x3e, 0x00, 0x1d, 0x05, 0x3f,
  0xe9, 0xb6, 0x7d, 0x3d, 0xe8, 0x45, 0x22, 0x3e, 0x49, 0xaf, 0x15, 0xbd,
  0x54, 0x73, 0x52, 0xbd, 0x51, 0xc6, 0xd8, 0xbe, 0x74, 0xa9, 0x8a, 0x3b,
  0x80, 0x97, 0xfb, 0xbd, 0xb2, 0x72, 0x31, 0xbe, 0x8e, 0x0e, 0x5b, 0x3e,
  0xe6, 0xdf, 0x07, 0xbe, 0x2b, 0x1b, 0x55, 0xbd, 0xa5, 0x10, 0xe8, 0xbd,
  0x24, 0xc9, 0x2d, 0xbe, 0x73, 0x7d, 0xd3, 0x3d, 0xf3, 0x54, 0x2e, 0xbe,
  0x09, 0xc6, 0x40, 0xbe, 0x33, 0x07, 0x1a, 0xbe, 0x8e, 0xe1, 0xae, 0x3d,
  0x41, 0xdf, 0x3c, 0xbe, 0x94, 0x24, 0xd8, 0xbd, 0x99, 0x0d, 0x0c, 0x3e,
  0x70, 0x75, 0x35, 0x3e, 0x88, 0xbc, 0x89, 0xbe, 0xb2, 0x67, 0x5b, 0xbe,
  0x2b, 0xb3, 0x27, 0xbe, 0x6b, 0x7e, 0x02, 0x3e, 0xc7, 0xd2, 0x78, 0xbd,
  0xe9, 0x86, 0x1a, 0xbf, 0xed, 0x9a, 0xca, 0xbe, 0x1f, 0x17, 0x99, 0xbd,
  0xa8, 0x9e, 0x08, 0x3d, 0xcd, 0x8f, 0x8b, 0xbe, 0x41, 0x14, 0xc3, 0xbd,
  0xdc, 0x32, 0x8c, 0xbd, 0x26, 0x96, 0xf6, 0xbd, 0xae, 0x1d, 0x15, 0x3e,
  0x43, 0xa2, 0x78, 0xbe, 0x00, 0x95, 0xc4, 0xbd, 0xa6, 0x8f, 0x67, 0xbd,
  0xaf, 0x79, 0x4c, 0xbd, 0x62, 0x91, 0xab, 0x3e, 0x64, 0x25, 0xb1, 0xbd,
  0xe0, 0x1f, 0x8d, 0xbd, 0x1e, 0x95, 0x42, 0x3d, 0xb7, 0x96, 0x16, 0xbe,
  0xe4, 0xd3, 0x39, 0xbe, 0xdf, 0x83, 0x15, 0xbd, 0x0b, 0x43, 0x64, 0x3c,
  0x1e, 0x47, 0xa8, 0xbe, 0xe8, 0x80, 0x44, 0xbe, 0x5e, 0xc6, 0x29, 0x3e,
  0x8f, 0x9a, 0xf1, 0x3d, 0xf5, 0xc4, 0x57, 0xbe, 0x0d, 0x0a, 0xd7, 0xbd,
  0x5e, 0xe7, 0x0b, 0x3e, 0xee, 0x66, 0xe0, 0x3d, 0x73, 0x00, 0x9c, 0xbd,
  0x7c, 0x39, 0xa7, 0xbd, 0x85, 0xd8, 0x7a, 0x3e, 0xc1, 0xb4, 0x29, 0x3d,
  0xdf, 0xb5, 0x0a, 0xbd, 0xf6, 0x87, 0x26, 0xbd, 0x24, 0x1f, 0x0e, 0xbd,
  0xee, 0xce, 0x44, 0xbd, 0x4b, 0xda, 0x4d, 0xbd, 0x05, 0xbf, 0x48, 0x3d,
  0xfc, 0x6a, 0xfa, 0xba, 0x24, 0x0a, 0x0d, 0xbb, 0xb7, 0x87, 0xfb, 0xbc,
  0x25, 0xc2, 0x09, 0xbe, 0x9f, 0xf0, 0xc7, 0x3d, 0x88, 0x79, 0xb5, 0x3c,
  0x65, 0x24, 0xba, 0xbd, 0x9f, 0xaa, 0x34, 0x3e, 0x84, 0x20, 0xb9, 0xbd,
  0xaf, 0x22, 0x7c, 0x3d, 0xa0, 0xa5, 0x10, 0x3e, 0x91, 0xdc, 0x0c, 0xbe,
  0x72, 0x2d, 0x9f, 0xbb, 0x8f, 0x74, 0x91, 0x3d, 0x7f, 0x8e, 0xb7, 0x3d,
  0x04, 0x32, 0x0d, 0xbe, 0x17, 0x32, 0x2e, 0xbd, 0xb0, 0x24, 0xdb, 0x3b,
  0xe9, 0xf3, 0x1a, 0x3d, 0xaf, 0x54, 0x1d, 0x3c, 0x3a, 0xae, 0xe3, 0xbb,
  0x5a, 0x91, 0x12, 0xbd, 0x54, 0xec, 0x93, 0x3c, 0x1c, 0xbf, 0xff, 0xbc,
  0x95, 0x9e, 0xbc, 0xbe, 0xa6, 0xc2, 0x6a, 0xbe, 0x28, 0x7e, 0xf8, 0xbd,
  0xb5, 0xa4, 0x02, 0xbf, 0xf9, 0x5c, 0x80, 0x3d, 0xb7, 0x38, 0xea, 0xbe,
  0x6a, 0x0d, 0xa1, 0xbe, 0x9a, 0xff, 0x6e, 0xbe, 0x2b, 0xc0, 0x19, 0xbe,
  0x3c, 0x66, 0xa9, 0xbe, 0xd0, 0x60, 0xc1, 0xbc, 0x5f, 0xa1, 0x40, 0xbf,
  0xd8, 0x47, 0x42, 0x3d, 0xc5, 0x54, 0xbb, 0xbe, 0xa9, 0x62, 0xd9, 0x3c,
  0x03, 0x00, 0x93, 0x3e, 0x05, 0xb8, 0x41, 0x3d, 0xd4, 0x77, 0x45, 0xbd,
  0x73, 0x81, 0x2b, 0x3d, 0x99, 0x36, 0xd5, 0x3e, 0x64, 0x77, 0xb2, 0xbe,
  0x4e, 0xb7, 0xa0, 0xbe, 0xe8, 0x14, 0xe3, 0xbd, 0x07, 0x38, 0xfe, 0x3e,
  0x7e, 0x1d, 0x09, 0xbc, 0xac, 0x1f, 0x6d, 0x3e, 0x89, 0x8a, 0xd2, 0x3d,
  0x4e, 0x89, 0x9e, 0x3d, 0x14, 0x07, 0x63, 0x3c, 0x87, 0xce, 0x76, 0xbd,
  0xee, 0x8e, 0x49, 0xbe, 0x11, 0xd0, 0xc8, 0xbe, 0x34, 0xc7, 0x27, 0xbe,
  0x11, 0xc1, 0x98, 0xbe, 0x85, 0x1b, 0xd4, 0xbc, 0xdf, 0x9a, 0xfa, 0xbe,
  0xaa, 0x8d, 0x9e, 0x3d, 0x7e, 0xf1, 0xdb, 0xbe, 0x14, 0x8e, 0x7f, 0x3d,
  0xae, 0xf2, 0x18, 0xbd, 0xed, 0x33, 0x56, 0x3e, 0x7b, 0x3b, 0x4a, 0x3e,
  0x9e, 0x3f, 0x40, 0xbd, 0xac, 0xfe, 0x80, 0xbc, 0x54, 0x81, 0x9a, 0xbe,
  0x45, 0x38, 0x9e, 0xbe, 0xd2, 0x75, 0xff, 0xbd, 0x5c, 0x3e, 0x1d, 0x3d,
  0x76, 0x5e, 0xd9, 0xbd, 0xc6, 0x85, 0xa0, 0xbd, 0x3b, 0x6c, 0xdd, 0xbd,
  0x9b, 0x13, 0x30, 0x3f, 0x52, 0x85, 0xcc, 0xbd, 0x6e, 0x30, 0x03, 0xbe,
  0x68, 0xd5, 0x4a, 0xbe, 0x05, 0x86, 0x1c, 0xbe, 0x01, 0x9d, 0xc8, 0xbd,
  0xa2, 0x6f, 0xfc, 0x3c, 0xfb, 0x86, 0xe2, 0x3b, 0x74, 0xcd, 0xc2, 0xbb,
  0xcb, 0x05, 0xc3, 0x3c, 0xec, 0x00, 0x97, 0xbd, 0xc6, 0x73, 0x00, 0xbe,
  0x4f, 0x35, 0x4c, 0xbe, 0xc8, 0xe1, 0x3d, 0xbe, 0xc2, 0x63, 0x63, 0xbe,
  0x94, 0xad, 0x9a, 0xbd, 0x68, 0x4a, 0x9c, 0xbb, 0x43, 0x12, 0xd8, 0xbc,
  0x7a, 0x71, 0x5d, 0xbe, 0xae, 0xf0, 0x9f, 0xbd, 0x56, 0xd8, 0x00, 0xbf,
  0xd6, 0x40, 0x20, 0xbe, 0x51, 0x34, 0xc1, 0x3b, 0xce, 0x09, 0x69, 0xbe,
  0x53, 0x8c, 0x4b, 0x3e, 0x1d, 0x19, 0x15, 0xbe, 0x5f, 0x00, 0xf1, 0xbd,
  0xd4, 0xb3, 0x0f, 0xbe, 0xf4, 0x06, 0x65, 0xbc, 0x5a, 0xf2, 0x0b, 0xbe,
  0xfa, 0x95, 0x8f, 0xbe, 0x74, 0x65, 0x0a, 0x3e, 0xf7, 0x52, 0x12, 0xbe,
  0x7f, 0xe1, 0xaa, 0xbe, 0xc6, 0x06, 0x81, 0x39, 0x4d, 0xc7, 0x86, 0xbe,
  0xf4, 0xba, 0xbc, 0x3e, 0xbd, 0x24, 0x6e, 0x3e, 0xb8, 0xa4, 0xcd, 0xbd,
  0xd5, 0x80, 0x2e, 0xbe, 0x2d, 0x03, 0x14, 0x3d, 0xd3, 0x40, 0x87, 0xbe,
  0x9f, 0x3c, 0x5a, 0x3e, 0x4c, 0x33, 0x20, 0xbe, 0x1b, 0x8b, 0x0a, 0x3f,
  0xc5, 0x85, 0x84, 0xbe, 0x41, 0x18, 0x8b, 0xba, 0xbb, 0xdd, 0x0e, 0x3d,
  0xf7, 0x98, 0x0c, 0x3e, 0x52, 0xdf, 0x14, 0x3e, 0xe4, 0xe6, 0x8a, 0x3e,
  0xca, 0x6b, 0x89, 0x3c, 0xdb, 0xe0, 0x11, 0x3e, 0xa0, 0xf6, 0x98, 0xbe,
  0xfc, 0xac, 0xb1, 0xbc, 0x33, 0x1c, 0x3f, 0xbe, 0x55, 0x49, 0x2e, 0xbe,
  0xe1, 0x7c, 0x97, 0x3d, 0xa8, 0x08, 0x0e, 0xbc, 0xfc, 0x7e, 0xe8, 0x3e,
  0x36, 0xbf, 0x35, 0x3d, 0x16, 0x2a, 0x2f, 0xbe, 0xe9, 0xee, 0x64, 0xbd,
  0xda, 0x6d, 0x47, 0xbe, 0x76, 0x82, 0xbf, 0xbe, 0x73, 0xce, 0x35, 0xbd,
  0x09, 0x56, 0x5a, 0xbd, 0xa3, 0xc8, 0x2f, 0xbe, 0x88, 0xe1, 0x0c, 0x3e,
  0x4f, 0x21, 0x1b, 0xbe, 0x10, 0xbc, 0x12, 0xbe, 0x37, 0xdd, 0x6a, 0xbe,
  0xfd, 0x5e, 0x7c, 0xbe, 0x44, 0x0a, 0x01, 0xbe, 0x01, 0x6e, 0x28, 0xbe,
  0x59, 0x91, 0x8f, 0xbe, 0xf8, 0x71, 0x36, 0x3e, 0x64, 0xbf, 0xce, 0xbd,
  0x47, 0x68, 0x36, 0xbe, 0x95, 0x57, 0x15, 0xbc, 0x10, 0xe3, 0x1a, 0xbe,
  0xea, 0x48, 0x84, 0xbd, 0x49, 0xfe, 0xb9, 0xbd, 0x0b, 0x16, 0x4b, 0xbe,
  0xd1, 0xbf, 0x10, 0xbe, 0x31, 0x20, 0x82, 0x3d, 0xdc, 0x6d, 0x1c, 0xbe,
  0xd2, 0x39, 0x57, 0xbd, 0x3a, 0xdd, 0x23, 0xbe, 0xfe, 0xd2, 0xe9, 0xbd,
  0xa8, 0xa9, 0xe5, 0xbd, 0x14, 0x01, 0x60, 0xbe, 0xf8, 0xb4, 0x0f, 0x3d,
  0xbc, 0x14, 0xa7, 0xbc, 0x0b, 0x03, 0x6b, 0x3c, 0x9a, 0x87, 0x55, 0x3c,
  0x2b, 0x71, 0x6b, 0x3d, 0x57, 0x54, 0x0a, 0xbd, 0xd6, 0xaa, 0x4f, 0xbd,
  0xe3, 0x16, 0xd9, 0xbd, 0xe4, 0x34, 0xe1, 0xbd, 0xb4, 0xde, 0x70, 0xbd,
  0xe5, 0x11, 0x2a, 0x3e, 0xb8, 0x25, 0x90, 0xbd, 0x32, 0xf0, 0x08, 0x3e,
  0x50, 0x4a, 0x35, 0x3e, 0x13, 0x0b, 0x11, 0x3e, 0xda, 0xae, 0xd6, 0x3e,
  0xa1, 0x8a, 0x2e, 0x3d, 0x54, 0x0f, 0xb7, 0xbd, 0xaf, 0xb7, 0x9d, 0xbe,
  0x64, 0xe9, 0x18, 0xbd, 0x7e, 0x58, 0x27, 0xbf, 0x87, 0x8b, 0x03, 0xbf,
  0x9c, 0xd5, 0x8b, 0xbd, 0xf8, 0xc1, 0x59, 0xbe, 0xd1, 0x2a, 0xc3, 0x3e,
  0xa6, 0x0a, 0xf2, 0x3c, 0xe3, 0x16, 0x85, 0xbf, 0x4a, 0x6f, 0x33, 0x3d,
  0xa1, 0xaf, 0x5b, 0xbc, 0x76, 0x5a, 0x42, 0xbf, 0x3f, 0xf7, 0xce, 0xbd,
  0x99, 0x2c, 0x0f, 0xbf, 0xe1, 0xd0, 0x68, 0x3e, 0x83, 0xc7, 0x82, 0x3d,
  0xe6, 0x3b, 0xf4, 0x3c, 0xc6, 0xdb, 0x43, 0xbe, 0x3f, 0xb6, 0x3b, 0xbd,
  0xd4, 0x2b, 0x5e, 0x3b, 0x1d, 0xe8, 0xad, 0x3c, 0x9d, 0xc7, 0x7e, 0x3e,
  0x9f, 0x3a, 0x33, 0xbf, 0xe6, 0xd0, 0x12, 0xbd, 0xbd, 0xcd, 0x3d, 0x3e,
  0x2f, 0x62, 0x53, 0xbe, 0xc0, 0xea, 0x34, 0x38, 0xd0, 0x4f, 0xf0, 0xbb,
  0x67, 0xa7, 0x72, 0x3c, 0x92, 0x4d, 0x6f, 0x3e, 0xcb, 0xf6, 0xf6, 0xbd,
  0x82, 0xde, 0xff, 0xff, 0x10, 0x00, 0x00, 0x00, 0x08, 0x00, 0x00, 0x00,
  0x1c, 0x00, 0x00, 0x00, 0x38, 0x00, 0x00, 0x00, 0x04, 0x00, 0x00, 0x00,
  0x10, 0x00, 0x00, 0x00, 0x04, 0x00, 0x00, 0x00, 0x01, 0x00, 0x00, 0x00,
  0x08, 0x00, 0x00, 0x00, 0x1a, 0x00, 0x00, 0x00, 0x73, 0x65, 0x71, 0x75,
  0x65, 0x6e, 0x74, 0x69, 0x61, 0x6c, 0x2f, 0x63, 0x6f, 0x6e, 0x76, 0x32,
  0x64, 0x5f, 0x31, 0x2f, 0x43, 0x6f, 0x6e, 0x76, 0x32, 0x44, 0x00, 0x00,
  0x7c, 0xde, 0xff, 0xff, 0x72, 0xdf, 0xff, 0xff, 0x04, 0x00, 0x00, 0x00,
  0x80, 0x01, 0x00, 0x00, 0x39, 0x0a, 0x1c, 0x3e, 0xb2, 0x30, 0xdf, 0x3d,
  0x86, 0x3b, 0x9f, 0x3d, 0x82, 0xbd, 0x05, 0x3e, 0x49, 0xa1, 0x04, 0x3a,
  0x55, 0xce, 0xc7, 0xbc, 0x76, 0x9c, 0x49, 0xbd, 0x1b, 0xec, 0x15, 0x3e,
  0x75, 0xe7, 0xca, 0x3d, 0xd9, 0x70, 0x09, 0xbe, 0x26, 0x2b, 0xe7, 0xbd,
  0x36, 0xe3, 0xaf, 0xbd, 0x73, 0x4f, 0x92, 0x3e, 0x38, 0x33, 0x85, 0x3e,
  0x20, 0x42, 0xa2, 0xbb, 0xeb, 0xac, 0xb4, 0xbc, 0xa4, 0x53, 0xbf, 0xbd,
  0xfc, 0xe9, 0xdb, 0xbd, 0x03, 0x9f, 0x90, 0xbe, 0x80, 0x6f, 0x6f, 0xbe,
  0xee, 0xfa, 0x60, 0xbd, 0xe4, 0x65, 0xa1, 0xbd, 0x92, 0xe9, 0xf2, 0xbd,
  0xc5, 0xda, 0x28, 0x3d, 0xe3, 0x0d, 0x93, 0x3e, 0x02, 0xdb, 0x46, 0xbe,
  0x09, 0xdb, 0xd0, 0x3c, 0x35, 0x13, 0xe8, 0xbe, 0x6d, 0xe5, 0x29, 0x3e,
  0x00, 0x81, 0x2e, 0x3d, 0x7d, 0x6e, 0x67, 0x3e, 0x4e, 0xfd, 0xa5, 0xbd,
  0xa4, 0x76, 0x14, 0xbc, 0xd3, 0xe1, 0x43, 0x3e, 0x54, 0x6c, 0xb2, 0x3d,
  0x94, 0x0e, 0x74, 0xbe, 0x48, 0xfc, 0xc5, 0x3c, 0x84, 0x09, 0x31, 0x3e,
  0x4a, 0x4d, 0x91, 0x3e, 0xe4, 0x63, 0x10, 0x3c, 0xaf, 0x2a, 0x4c, 0xbc,
  0xba, 0xfc, 0x28, 0x3e, 0xb4, 0x89, 0x91, 0xbd, 0x49, 0x13, 0x3c, 0xbe,
  0x95, 0x36, 0x9d, 0xbe, 0xb6, 0xc3, 0xee, 0x3b, 0x25, 0x79, 0x71, 0xbd,
  0x41, 0x1a, 0x38, 0xbe, 0xa1, 0x57, 0xb9, 0x3c, 0x4e, 0x36, 0xe6, 0x3d,
  0x84, 0x13, 0x8f, 0xbe, 0x21, 0xe5, 0xcb, 0x3c, 0xd2, 0x8b, 0x35, 0xbd,
  0x45, 0x63, 0x61, 0xbd, 0xb9, 0x8d, 0x76, 0xbd, 0xb8, 0x1b, 0x00, 0xbd,
  0x80, 0x0f, 0x0f, 0xbb, 0x3a, 0xe6, 0xd5, 0x3d, 0xf1, 0x3f, 0x12, 0xbe,
  0x36, 0x34, 0x90, 0x3c, 0x37, 0x93, 0x8b, 0x3c, 0x6b, 0xc3, 0xaa, 0xbd,
  0x1a, 0x8c, 0x8a, 0xbd, 0x78, 0xb3, 0x8c, 0x3d, 0x48, 0x5d, 0xc8, 0xbd,
  0x97, 0x2e, 0x66, 0x3d, 0xb1, 0xbf, 0xa6, 0xbd, 0x55, 0xee, 0x0d, 0xbd,
  0x89, 0x28, 0x63, 0x3d, 0x56, 0x08, 0x2b, 0xbe, 0xfd, 0x5f, 0xba, 0x3d,
  0x4d, 0xe4, 0xb2, 0x3d, 0x6a, 0x21, 0xff, 0xbc, 0x97, 0x77, 0xbe, 0x3e,
  0x53, 0x42, 0x4e, 0xbe, 0x53, 0xe7, 0xd9, 0x3d, 0x29, 0xda, 0x31, 0xbe,
  0x57, 0x22, 0x25, 0xbe, 0x0b, 0xb4, 0x84, 0xbb, 0xf6, 0x0a, 0x6d, 0xbe,
  0xda, 0xdc, 0x81, 0x3e, 0xee, 0xa5, 0x9a, 0xbc, 0x12, 0xea, 0x92, 0xbc,
  0xae, 0x8a, 0x4a, 0xbc, 0x5f, 0x0b, 0x3e, 0xbd, 0x08, 0x2d, 0xc1, 0xbd,
  0xfb, 0x38, 0x4c, 0xbd, 0x07, 0xf2, 0x3f, 0xbe, 0xe2, 0x17, 0xb9, 0xbe,
  0x0d, 0x3f, 0x80, 0xbe, 0x67, 0xa2, 0x17, 0x3e, 0xdc, 0x5c, 0xbd, 0x3d,
  0x10, 0x30, 0xa0, 0x3c, 0x48, 0x25, 0xfa, 0x3d, 0x52, 0x4d, 0xac, 0x3e,
  0xd6, 0x6b, 0x84, 0x3e, 0x5a, 0xe0, 0xff, 0xff, 0x10, 0x00, 0x00, 0x00,
  0x07, 0x00, 0x00, 0x00, 0x1c, 0x00, 0x00, 0x00, 0x38, 0x00, 0x00, 0x00,
  0x04, 0x00, 0x00, 0x00, 0x08, 0x00, 0x00, 0x00, 0x04, 0x00, 0x00, 0x00,
  0x03, 0x00, 0x00, 0x00, 0x01, 0x00, 0x00, 0x00, 0x18, 0x00, 0x00, 0x00,
  0x73, 0x65, 0x71, 0x75, 0x65, 0x6e, 0x74, 0x69, 0x61, 0x6c, 0x2f, 0x63,
  0x6f, 0x6e, 0x76, 0x32, 0x64, 0x2f, 0x43, 0x6f, 0x6e, 0x76, 0x32, 0x44,
  0x00, 0x00, 0x00, 0x00, 0x54, 0xe0, 0xff, 0xff, 0x4a, 0xe1, 0xff, 0xff,
  0x04, 0x00, 0x00, 0x00, 0x40, 0x01, 0x00, 0x00, 0x04, 0xa6, 0xbc, 0xbe,
  0x9f, 0x61, 0x17, 0x3e, 0x1e, 0xe1, 0x2b, 0xbe, 0x39, 0xf6, 0x6d, 0xbd,
  0x0e, 0x04, 0x13, 0x3f, 0x35, 0x4a, 0x17, 0xbe, 0xf2, 0xec, 0x07, 0x3d,
  0x04, 0x4f, 0x8f, 0x3d, 0xcb, 0x0d, 0x49, 0xbe, 0x11, 0xfa, 0xb2, 0xbe,
  0x67, 0x2e, 0x24, 0xbc, 0xbd, 0xe6, 0x52, 0x3e, 0x4a, 0x06, 0xb0, 0xbe,
  0x7c, 0x9b, 0x06, 0x3e, 0x09, 0xea, 0x2f, 0xbe, 0x30, 0xcf, 0x98, 0xbd,
  0xa9, 0x6d, 0x39, 0x3e, 0x25, 0x2d, 0x36, 0x3e, 0xd9, 0x85, 0xa8, 0xbd,
  0x3a, 0x57, 0x3b, 0xbd, 0xaa, 0x40, 0xc3, 0xbe, 0x22, 0xa8, 0xbc, 0xbd,
  0x7c, 0x78, 0x35, 0xbf, 0x06, 0x1c, 0x1c, 0xbc, 0xa2, 0x73, 0x21, 0xbe,
  0x1a, 0x17, 0x32, 0x3e, 0x69, 0x8b, 0x3b, 0xbd, 0x35, 0xfc, 0x7b, 0x3e,
  0x92, 0xea, 0x9a, 0xbe, 0x5d, 0x5e, 0x9b, 0x3e, 0xfa, 0x05, 0x85, 0xbe,
  0x0e, 0x46, 0xdc, 0xbd, 0xef, 0x60, 0xbf, 0xbe, 0x70, 0x80, 0x2c, 0x3e,
  0xc2, 0xe7, 0x7e, 0xbe, 0x49, 0xc0, 0x76, 0xbe, 0x4b, 0x5a, 0xb5, 0xbe,
  0x61, 0x88, 0x40, 0xbe, 0x66, 0x11, 0x1c, 0x3e, 0x86, 0x52, 0xa5, 0xbe,
  0x2b, 0xdc, 0x34, 0xbe, 0x97, 0xe1, 0xb2, 0xbe, 0x0a, 0x1a, 0x35, 0x3e,
  0xa2, 0x2f, 0xd3, 0x3d, 0xd5, 0x3a, 0xe0, 0xbe, 0xf2, 0x7e, 0x47, 0xbe,
  0xf0, 0x59, 0xe7, 0xbd, 0x7b, 0x6d, 0xfa, 0xbd, 0x5e, 0x34, 0xd5, 0xbe,
  0x15, 0x71, 0x9a, 0x3d, 0xc9, 0xe1, 0x92, 0xbe, 0x5e, 0x4f, 0x62, 0xbe,
  0xb4, 0xcc, 0x7b, 0xbf, 0x20, 0x7c, 0x4f, 0xbe, 0xd5, 0x78, 0x3b, 0x3e,
  0x3d, 0xe8, 0x9e, 0xbe, 0x65, 0x9c, 0xab, 0xbe, 0x08, 0xe0, 0xa6, 0x3e,
  0x15, 0x9c, 0x6c, 0xbc, 0xef, 0x41, 0x55, 0x3e, 0x4e, 0x44, 0x2a, 0xbf,
  0xbf, 0xb0, 0xc0, 0x3e, 0xff, 0x99, 0x92, 0xbe, 0xee, 0xd1, 0x25, 0xbe,
  0x0c, 0xd8, 0x64, 0x3e, 0x5e, 0xa0, 0x99, 0x3d, 0x0c, 0xce, 0xbc, 0xbd,
  0x12, 0xdb, 0x1b, 0xbe, 0x0b, 0xf4, 0xce, 0xbe, 0x4c, 0xec, 0x46, 0xbe,
  0x0d, 0x8a, 0xd6, 0xbe, 0x72, 0x69, 0x13, 0x3d, 0x25, 0xf7, 0xee, 0xbd,
  0xaf, 0x46, 0xb4, 0xbe, 0xad, 0xb8, 0x83, 0x3d, 0xa0, 0x8f, 0xc4, 0x3d,
  0xb0, 0xb5, 0x8b, 0xbe, 0x13, 0xec, 0xcf, 0xbe, 0x1e, 0x95, 0xd1, 0xbe,
  0x54, 0x8e, 0x18, 0xbe, 0xf2, 0xe1, 0xff, 0xff, 0x10, 0x00, 0x00, 0x00,
  0x06, 0x00, 0x00, 0x00, 0x14, 0x00, 0x00, 0x00, 0x30, 0x00, 0x00, 0x00,
  0x02, 0x00, 0x00, 0x00, 0x05, 0x00, 0x00, 0x00, 0x10, 0x00, 0x00, 0x00,
  0x19, 0x00, 0x00, 0x00, 0x73, 0x65, 0x71, 0x75, 0x65, 0x6e, 0x74, 0x69,
  0x61, 0x6c, 0x2f, 0x64, 0x65, 0x6e, 0x73, 0x65, 0x5f, 0x31, 0x2f, 0x4d,
  0x61, 0x74, 0x4d, 0x75, 0x6c, 0x00, 0x00, 0x00, 0xe4, 0xe1, 0xff, 0xff,
  0xda, 0xe2, 0xff, 0xff, 0x04, 0x00, 0x00, 0x00, 0x00, 0x1c, 0x00, 0x00,
  0x01, 0x1f, 0x67, 0xbe, 0xfd, 0x83, 0x3b, 0xbe, 0x23, 0x94, 0x5b, 0xbd,
  0xd8, 0xf2, 0xa4, 0x3d, 0x7b, 0x31, 0x06, 0xbe, 0x58, 0x90, 0x11, 0xbe,
  0x2f, 0x91, 0x21, 0xbd, 0x02, 0x9d, 0x9d, 0x3d, 0x4e, 0xf2, 0x94, 0x3d,
  0xc6, 0x76, 0x76, 0xbe, 0xa8, 0x59, 0x11, 0xbe, 0x32, 0x03, 0x83, 0x3d,
  0xef, 0xf7, 0x3e, 0x3c, 0xc2, 0x3b, 0xf1, 0xbc, 0x6f, 0xe9, 0xe6, 0xbd,
  0x56, 0x06, 0x66, 0x3d, 0xad, 0xe1, 0x69, 0xbe, 0xb6, 0x6d, 0x2f, 0x3d,
  0xf8, 0x8c, 0x43, 0xbe, 0xf7, 0xbb, 0x86, 0xbe, 0xb1, 0x4b, 0xd0, 0xbc,
  0xf2, 0x99, 0x51, 0xbd, 0x88, 0xf6, 0x2e, 0x3d, 0xd3, 0x9d, 0xdc, 0x3c,
  0x59, 0x68, 0x42, 0xbe, 0xf7, 0x86, 0xe3, 0xbe, 0x8c, 0x28, 0xa1, 0xbd,
  0x80, 0xa8, 0x23, 0x3e, 0x69, 0xe3, 0x30, 0xbe, 0x7c, 0xfb, 0x7d, 0xbe,
  0x58, 0xc7, 0x52, 0xbd, 0x7a, 0x1b, 0x65, 0xbe, 0x84, 0xcd, 0xd6, 0xbd,
  0x37, 0x5b, 0x73, 0xbd, 0x25, 0x7a, 0xb1, 0x3d, 0x57, 0xdb, 0x2c, 0x3e,
  0xfa, 0xcd, 0x51, 0xbd, 0x0f, 0xd6, 0x94, 0xbd, 0xa9, 0x61, 0x14, 0xbe,
  0x39, 0x7f, 0xc0, 0xbb, 0x34, 0x76, 0xb9, 0xbd, 0x58, 0xde, 0x83, 0xbe,
  0xe0, 0x4a, 0xea, 0x3d, 0x64, 0xaf, 0x1b, 0xbd, 0x1a, 0x4c, 0x95, 0xbc,
  0x67, 0xbe, 0x58, 0xbe, 0x58, 0x5a, 0x70, 0xbd, 0x2e, 0x58, 0x09, 0x3e,
  0xdd, 0xb1, 0x38, 0xbe, 0x50, 0x04, 0x02, 0xbe, 0x3e, 0xa7, 0x66, 0xbe,
  0x22, 0x3a, 0x86, 0x3c, 0xb3, 0xbd, 0x95, 0xbd, 0x13, 0xc0, 0xa3, 0x3e,
  0x3b, 0x0a, 0xc8, 0x3d, 0xce, 0xc2, 0x4f, 0xbe, 0x84, 0x04, 0xbf, 0x3d,
  0x6b, 0x16, 0x23, 0xbe, 0x61, 0x23, 0x9b, 0xbd, 0x93, 0x96, 0x95, 0x3d,
  0xba, 0x56, 0x96, 0xbe, 0xeb, 0xe2, 0x21, 0x3d, 0x88, 0x29, 0xfe, 0xbd,
  0x2e, 0xa4, 0xf2, 0x3d, 0x1d, 0x81, 0xa2, 0x3d, 0x39, 0x77, 0x2d, 0xbe,
  0x32, 0x0b, 0xeb, 0x3d, 0xb1, 0x9f, 0xd9, 0xbb, 0xca, 0x17, 0x17, 0xbd,
  0xc2, 0xb2, 0x25, 0xbe, 0x1a, 0xde, 0x04, 0xbe, 0x6b, 0xcd, 0x08, 0x3e,
  0xc5, 0x91, 0x98, 0xbd, 0xa7, 0x81, 0xa7, 0xbe, 0x30, 0x6a, 0xa4, 0xbd,
  0x1f, 0x61, 0x20, 0x3e, 0x6f, 0xd3, 0x4b, 0xbe, 0x08, 0x76, 0xd6, 0xbd,
  0x97, 0x0c, 0x4b, 0x3d, 0x74, 0x76, 0x7a, 0xbd, 0xe6, 0x8d, 0x6f, 0xbe,
  0x09, 0xc6, 0xcd, 0xbd, 0x9b, 0xc3, 0x06, 0x3e, 0xa7, 0x39, 0xb3, 0xbc,
  0xda, 0xd2, 0x2e, 0x3c, 0x62, 0x00, 0x74, 0xbe, 0xfe, 0xfe, 0xac, 0x3d,
  0x36, 0x91, 0x33, 0xbe, 0x38, 0x1b, 0x12, 0x3e, 0x8f, 0x27, 0x28, 0xbe,
  0x91, 0xae, 0x70, 0xbd, 0xb1, 0x2c, 0x0a, 0x3d, 0x7f, 0xfe, 0x94, 0x3d,
  0x5e, 0xc6, 0x02, 0xbd, 0xad, 0xa6, 0x72, 0xbc, 0x3d, 0x63, 0xd7, 0xbd,
  0xb7, 0x4a, 0x45, 0xbe, 0x55, 0x2a, 0xfa, 0xbd, 0x1a, 0xf3, 0x1d, 0x3e,
  0x0b, 0xef, 0xa1, 0xbb, 0x70, 0x2c, 0xbd, 0x3d, 0x82, 0x96, 0xba, 0x3d,
  0xb8, 0x19, 0x19, 0xbe, 0xd8, 0x95, 0x2f, 0xbe, 0x1a, 0x7b, 0x14, 0x3e,
  0x79, 0x54, 0x16, 0xbe, 0x6b, 0xcd, 0x4d, 0xbe, 0xdb, 0x6a, 0xf3, 0xbd,
  0x9a, 0x48, 0x8c, 0x3d, 0xcd, 0x88, 0x62, 0xbe, 0x70, 0xd0, 0xd6, 0x3b,
  0x69, 0x65, 0xd7, 0x3d, 0x17, 0xaf, 0xb5, 0xbe, 0x81, 0x64, 0x88, 0xbc,
  0x53, 0xbb, 0x94, 0xbe, 0xbc, 0x01, 0x8c, 0xbc, 0xac, 0x06, 0x8f, 0x3d,
  0x8e, 0xa7, 0x83, 0x3d, 0xd7, 0xb6, 0x60, 0x3f, 0x9a, 0x77, 0xc8, 0xbd,
  0x68, 0x7a, 0x95, 0xbd, 0xe4, 0xe5, 0x08, 0xbe, 0xfb, 0x48, 0x23, 0xbe,
  0x6e, 0xb9, 0x2c, 0xbe, 0x69, 0x9e, 0x1c, 0x3e, 0xb2, 0x37, 0x97, 0xbe,
  0x20, 0xe3, 0xc9, 0xbd, 0xee, 0x63, 0xd0, 0xbd, 0xf6, 0xcc, 0xfc, 0x3d,
  0x4d, 0x82, 0x35, 0xbd, 0x7b, 0x94, 0x1c, 0xbe, 0x0c, 0x28, 0x12, 0xbe,
  0x80, 0xca, 0x08, 0xbd, 0x56, 0xca, 0xa1, 0x3d, 0xab, 0xda, 0xee, 0x3e,
  0x03, 0x47, 0x29, 0x3e, 0xde, 0xb4, 0x4d, 0xbe, 0xb2, 0xa0, 0x58, 0xbd,
  0xe3, 0xde, 0xcc, 0x3c, 0x67, 0x72, 0x34, 0x3e, 0x84, 0x96, 0x22, 0xbd,
  0x16, 0x10, 0xd3, 0xbd, 0x89, 0x84, 0xe7, 0x3d, 0xda, 0x0e, 0xf1, 0x3d,
  0x75, 0x48, 0x52, 0xbe, 0xe4, 0xe3, 0xa4, 0x3b, 0x68, 0x00, 0x56, 0xbe,
  0xfa, 0x12, 0x2d, 0xbe, 0x07, 0x47, 0x9d, 0x3e, 0x7c, 0xdf, 0x94, 0x3d,
  0x91, 0x27, 0xc9, 0x3e, 0xe2, 0xd6, 0x35, 0x3e, 0x2c, 0x7a, 0x61, 0xbe,
  0xc5, 0xdd, 0xaf, 0xbd, 0x6b, 0x6e, 0x2d, 0xbe, 0x5b, 0x93, 0xe5, 0xbb,
  0xd2, 0x64, 0x28, 0x3d, 0xf6, 0x42, 0xa7, 0x3c, 0xe2, 0x6b, 0x4c, 0x3d,
  0x9b, 0x2a, 0x90, 0xbd, 0xaf, 0x78, 0x69, 0xbe, 0x76, 0x86, 0x99, 0xbd,
  0x0b, 0x6f, 0xb5, 0xbe, 0x62, 0x55, 0x84, 0xbe, 0x42, 0x77, 0xf7, 0x3b,
  0xb4, 0x21, 0x9f, 0x3c, 0xdc, 0xaf, 0x57, 0x3f, 0xaf, 0x54, 0xf9, 0xbb,
  0x9b, 0xc2, 0x2b, 0xbd, 0xbd, 0x57, 0x86, 0xbd, 0x6e, 0x7c, 0xa1, 0xbe,
  0x39, 0x0c, 0x4d, 0xbe, 0xc8, 0x26, 0xef, 0x3d, 0x5a, 0x33, 0x01, 0x3d,
  0x5d, 0x7e, 0xba, 0xbd, 0xc5, 0x5e, 0xa2, 0xbc, 0x1a, 0xd1, 0xa5, 0xbe,
  0x66, 0xba, 0x1d, 0x3c, 0x4c, 0xb4, 0x81, 0xbe, 0x1d, 0x8a, 0xba, 0xbd,
  0xe3, 0xca, 0xa0, 0xbb, 0xb7, 0x91, 0xaf, 0xbc, 0xc0, 0x4c, 0x5f, 0x3f,
  0xb1, 0x7d, 0xbf, 0xbc, 0xb5, 0x32, 0xac, 0x3c, 0x85, 0x01, 0x07, 0xbd,
  0xce, 0x23, 0x5c, 0x3e, 0xa0, 0x14, 0x33, 0x3e, 0x05, 0xd5, 0xd7, 0x3d,
  0xe1, 0x12, 0x4e, 0xbe, 0x23, 0x71, 0x6f, 0xbd, 0x2f, 0xa9, 0x8c, 0x3c,
  0x09, 0xfa, 0x0a, 0x3d, 0x78, 0xa2, 0x63, 0x3d, 0xec, 0x47, 0x60, 0xbe,
  0x14, 0xe2, 0xd6, 0x3b, 0x19, 0x53, 0x49, 0x3d, 0xc1, 0x8c, 0x66, 0x3d,
  0x54, 0x37, 0x0a, 0x3f, 0xae, 0xb2, 0x48, 0x3c, 0x7d, 0x48, 0xa4, 0xbd,
  0xb2, 0xf5, 0xa3, 0x3c, 0xc9, 0x1a, 0xbb, 0x3e, 0x3b, 0x3b, 0xf1, 0x3e,
  0x2d, 0xda, 0x63, 0x3e, 0x47, 0xf4, 0xa8, 0xbe, 0x5c, 0xb8, 0xbf, 0xba,
  0xfa, 0x3f, 0xd4, 0x3a, 0xb8, 0x27, 0x74, 0x3d, 0x5a, 0x67, 0xc0, 0x3c,
  0x47, 0x99, 0x55, 0xbe, 0x8e, 0x12, 0x55, 0x3d, 0x64, 0xd0, 0xbe, 0x3d,
  0xd2, 0xbe, 0x71, 0x3c, 0xca, 0xe5, 0xfe, 0x3e, 0xf9, 0xa3, 0xee, 0xbc,
  0x04, 0xf3, 0xa8, 0x3d, 0xb9, 0xcb, 0x27, 0x3e, 0x2a, 0x85, 0x8a, 0x3e,
  0xd1, 0xc4, 0xc1, 0x3d, 0x72, 0xf0, 0x75, 0x3e, 0x80, 0xe1, 0x8b, 0x3c,
  0xdb, 0x6a, 0x9f, 0x3d, 0x31, 0xaf, 0xd7, 0xbd, 0x60, 0x78, 0xa8, 0xbd,
  0xba, 0x78, 0x75, 0x3d, 0x7d, 0x50, 0xdf, 0x3e, 0xd1, 0x19, 0x30, 0x3e,
  0xcf, 0x54, 0xa9, 0x3c, 0x43, 0x6f, 0xc9, 0xbc, 0xdc, 0xf4, 0x28, 0x3f,
  0x60, 0xbb, 0x7d, 0xbe, 0xab, 0x34, 0x14, 0x3e, 0x6d, 0x01, 0x56, 0x3d,
  0xea, 0xcb, 0xb7, 0x3e, 0x2a, 0x1d, 0x79, 0x3e, 0xde, 0x2d, 0x91, 0xbe,
  0x6c, 0x02, 0x45, 0xbe, 0xde, 0x4f, 0xd5, 0xbc, 0x9e, 0x0a, 0xcb, 0xbd,
  0xf3, 0x7a, 0x9c, 0xbc, 0x63, 0x0a, 0x22, 0x3d, 0x56, 0x6c, 0x04, 0x3d,
  0x0f, 0xfa, 0x56, 0xbd, 0x97, 0x0f, 0xb1, 0x3d, 0x10, 0xca, 0x77, 0xbe,
  0x7d, 0x9a, 0x06, 0xbf, 0xc9, 0x52, 0xd7, 0xbe, 0x65, 0x12, 0xde, 0x3e,
  0x73, 0x21, 0xf7, 0x3d, 0xcb, 0xda, 0x2c, 0xbe, 0xdc, 0xed, 0xe4, 0x3d,
  0xe1, 0x1d, 0x7d, 0x3d, 0x31, 0xa8, 0x6d, 0x3d, 0xdb, 0x3f, 0xf0, 0xbc,
  0xa8, 0x66, 0x7e, 0xbe, 0xac, 0xc0, 0x02, 0xbe, 0xba, 0x5d, 0x26, 0xbb,
  0x88, 0x82, 0x5f, 0xbd, 0xd0, 0xf0, 0x45, 0x3d, 0xd4, 0x00, 0x8e, 0xbc,
  0x3a, 0xf7, 0x7e, 0xbe, 0xd7, 0x2b, 0x60, 0xbe, 0x61, 0x2a, 0x3d, 0xbe,
  0x1c, 0x7b, 0x01, 0x3e, 0xdc, 0x53, 0x3e, 0x3d, 0x6e, 0xfd, 0x2f, 0xbd,
  0xf8, 0x33, 0x5c, 0x3e, 0x54, 0x7e, 0x77, 0x3b, 0x22, 0x8e, 0x13, 0xbe,
  0x1d, 0x79, 0xcc, 0xbe, 0x0f, 0xef, 0x81, 0xbe, 0xa0, 0x26, 0x0c, 0xbe,
  0xa7, 0x76, 0x28, 0x3c, 0x7c, 0xf1, 0x8c, 0xbd, 0xb6, 0x91, 0x08, 0x3d,
  0x11, 0xcb, 0xc4, 0x3d, 0xe9, 0x2b, 0x61, 0x3d, 0x96, 0xc3, 0xbf, 0x3d,
  0x8e, 0xce, 0x6a, 0xbd, 0xf5, 0x50, 0x04, 0x3e, 0x17, 0x77, 0x9e, 0x3d,
  0xb2, 0x58, 0x2a, 0x3d, 0x74, 0x8a, 0x35, 0x3e, 0x95, 0x0f, 0xa3, 0xbd,
  0x43, 0xe2, 0xf5, 0x3c, 0xc6, 0x44, 0x9e, 0xbe, 0x89, 0x8d, 0x40, 0xbe,
  0x06, 0x8b, 0xce, 0xbd, 0xd1, 0xe2, 0xb7, 0x3b, 0xf8, 0xee, 0x74, 0xbd,
  0x45, 0x98, 0x7b, 0x3d, 0xc8, 0xa0, 0xc0, 0x39, 0x70, 0x29, 0x28, 0x3e,
  0x11, 0x05, 0x2f, 0x3e, 0x8c, 0xfd, 0xa6, 0xbd, 0xde, 0x98, 0x23, 0x3d,
  0xe3, 0x98, 0x7b, 0x3d, 0x2e, 0x87, 0x85, 0xbe, 0xac, 0x30, 0x02, 0x3d,
  0x92, 0x74, 0x16, 0xbe, 0xf8, 0xd4, 0x7b, 0xbd, 0xa6, 0x91, 0xbe, 0xbe,
  0x7f, 0x8d, 0xe4, 0xbd, 0xe9, 0x42, 0x99, 0xbe, 0xa3, 0x8e, 0x73, 0xbd,
  0x7b, 0xc2, 0x06, 0x3e, 0x33, 0x91, 0x66, 0x3d, 0x91, 0x22, 0x53, 0xbe,
  0xcd, 0x3f, 0x6a, 0x3c, 0xbd, 0x90, 0x91, 0xbe, 0x47, 0x8c, 0x11, 0xbe,
  0xed, 0x91, 0x8c, 0x3d, 0xea, 0x56, 0x07, 0x3d, 0xc3, 0x90, 0x4b, 0xbe,
  0xb7, 0x31, 0x4f, 0x3d, 0x52, 0xc8, 0x03, 0xbe, 0x69, 0xa5, 0x30, 0xbe,
  0xf8, 0x03, 0x33, 0xbf, 0xbb, 0xa9, 0x60, 0xbe, 0xe6, 0x1b, 0xf4, 0xbd,
  0x37, 0xd8, 0x27, 0x3d, 0x3c, 0xe1, 0x2c, 0x3e, 0xa1, 0xfc, 0x4a, 0x3d,
  0x9c, 0xf2, 0x4a, 0x3d, 0x82, 0x27, 0xa0, 0x3c, 0x81, 0x0f, 0xeb, 0xbd,
  0x7d, 0xfb, 0xaf, 0xbc, 0x65, 0x05, 0x84, 0x3e, 0xb1, 0xab, 0x99, 0x3d,
  0xb7, 0xa4, 0xd7, 0x3e, 0xb0, 0xc7, 0x9a, 0x3e, 0xf8, 0x8e, 0xc0, 0x3d,
  0xbb, 0x1d, 0xe9, 0x3a, 0x11, 0xd3, 0xf4, 0xbd, 0x0c, 0x13, 0x72, 0xbd,
  0x04, 0xc4, 0xb7, 0x3d, 0x89, 0xeb, 0x8c, 0xbd, 0x71, 0xec, 0xbf, 0xbe,
  0x62, 0xfb, 0xd8, 0x3c, 0x15, 0xbb, 0xa2, 0x3e, 0x8a, 0x8f, 0xee, 0x3d,
  0xf8, 0xbf, 0xd4, 0x3d, 0x9a, 0x0f, 0x45, 0x3d, 0x4f, 0xcd, 0x8c, 0xbd,
  0x15, 0xdd, 0xc2, 0x3c, 0x51, 0x99, 0xab, 0x3d, 0xde, 0xf1, 0x9a, 0x3d,
  0x34, 0x10, 0xfc, 0x3c, 0x1f, 0xdb, 0x81, 0x3d, 0xa6, 0x81, 0xdd, 0x3b,
  0xda, 0x46, 0x17, 0xbd, 0xbe, 0x6c, 0xf7, 0xbd, 0xd7, 0xa3, 0xd3, 0xbe,
  0x82, 0x2f, 0xab, 0xbe, 0x89, 0x74, 0x28, 0xbe, 0x20, 0xb7, 0x5f, 0x3e,
  0x5b, 0xab, 0xaf, 0xbd, 0x8c, 0x3a, 0x97, 0xbe, 0xb9, 0xbb, 0x88, 0x3d,
  0x3d, 0xa4, 0xac, 0xbd, 0x58, 0xda, 0xc1, 0xbc, 0xa7, 0xce, 0x8d, 0x3e,
  0xe6, 0x85, 0x30, 0x3d, 0xb0, 0x36, 0xae, 0xbe, 0xa5, 0x5e, 0xe8, 0x3d,
  0x16, 0xbd, 0x53, 0x3d, 0x23, 0xda, 0x01, 0xbd, 0x4d, 0x8e, 0x7a, 0x3c,
  0x52, 0x10, 0x07, 0xbf, 0x3c, 0xc6, 0x82, 0xbe, 0x26, 0xbe, 0xed, 0xbd,
  0x72, 0x85, 0xab, 0x3e, 0xe5, 0xf5, 0x39, 0xbe, 0xb4, 0x16, 0x7a, 0xbe,
  0xeb, 0x88, 0x42, 0x3d, 0x5d, 0xc2, 0x81, 0xbe, 0x90, 0x21, 0x0c, 0xbd,
  0x5b, 0x66, 0xb3, 0x3c, 0xbf, 0x69, 0xdc, 0xba, 0x9f, 0x2b, 0xa8, 0x3d,
  0x82, 0x29, 0x80, 0x3d, 0x1f, 0x29, 0x5f, 0x3d, 0x80, 0x53, 0x53, 0xbe,
  0x95, 0x67, 0x04, 0xbd, 0xb6, 0xbc, 0xed, 0xbe, 0x0a, 0x30, 0xf3, 0x3b,
  0x89, 0xc0, 0x38, 0xbe, 0xb8, 0xde, 0xc0, 0xbd, 0x66, 0x52, 0x36, 0xbe,
  0x1e, 0xe3, 0x59, 0xbd, 0x89, 0x52, 0x97, 0x3d, 0xec, 0x11, 0x4d, 0xbe,
  0x71, 0xfa, 0x00, 0xbd, 0x3c, 0xf7, 0x9c, 0x3d, 0x12, 0x3b, 0x48, 0xbd,
  0x92, 0x52, 0x85, 0x3d, 0x2b, 0x63, 0x9a, 0x3d, 0x70, 0x23, 0x2a, 0x3d,
  0xd3, 0x98, 0xed, 0xbc, 0xd0, 0x4d, 0x79, 0x3c, 0x2e, 0x24, 0x10, 0xbe,
  0x04, 0x1e, 0x9f, 0x3d, 0x07, 0x98, 0x25, 0xbe, 0x49, 0x05, 0x15, 0x3e,
  0xa8, 0x75, 0x9b, 0xbd, 0x28, 0x72, 0x4a, 0xbd, 0x56, 0xf2, 0xc1, 0x3d,
  0x7c, 0x86, 0x7e, 0x3d, 0x93, 0x07, 0x91, 0xbc, 0x2a, 0x5b, 0x48, 0x3e,
  0xcb, 0x9c, 0x6b, 0x3e, 0x91, 0xe7, 0x08, 0x3e, 0x12, 0x9a, 0x30, 0x3c,
  0x19, 0x13, 0x9a, 0x3d, 0x03, 0x58, 0xd9, 0x3c, 0x8a, 0x9d, 0xb2, 0x3d,
  0x91, 0xae, 0x8d, 0xbd, 0xca, 0x8a, 0xf5, 0x3d, 0x88, 0x99, 0xd7, 0xbc,
  0x97, 0xf2, 0x17, 0x3e, 0x76, 0x13, 0x23, 0xbd, 0x46, 0x04, 0x91, 0xbe,
  0x8d, 0x47, 0xfa, 0xba, 0xfb, 0x91, 0x72, 0x3b, 0xc2, 0xbe, 0xcb, 0xb9,
  0x03, 0x34, 0x93, 0x3e, 0x34, 0x0d, 0x97, 0x3e, 0x3c, 0x58, 0xa4, 0x3d,
  0x6e, 0x42, 0x54, 0x3d, 0xfe, 0x52, 0x77, 0x3d, 0x6d, 0x9c, 0x86, 0x3b,
  0x2e, 0x56, 0x7a, 0x3d, 0xee, 0xe6, 0x06, 0xbc, 0x1b, 0xca, 0x0c, 0xbd,
  0xce, 0xde, 0x8f, 0x3c, 0x27, 0xa1, 0x0a, 0x3e, 0xba, 0x4b, 0x80, 0x3c,
  0x88, 0x1e, 0x57, 0xbe, 0x6f, 0x17, 0xbd, 0x3c, 0x71, 0xe4, 0xd3, 0xbc,
  0x8d, 0x45, 0x42, 0x3d, 0x24, 0xc9, 0x66, 0x3e, 0xcf, 0x65, 0x2c, 0x3e,
  0x69, 0xe7, 0xf4, 0x3c, 0xf9, 0xf5, 0x88, 0x3c, 0xa5, 0xc5, 0x5f, 0x3d,
  0xcd, 0xb4, 0x50, 0xbd, 0x7e, 0x08, 0x81, 0xbe, 0xca, 0x6b, 0xeb, 0xbd,
  0x59, 0x45, 0x9a, 0xbe, 0x9b, 0x21, 0x33, 0xbd, 0xb4, 0x7c, 0x3b, 0xbe,
  0x7e, 0x39, 0xbc, 0xbe, 0x52, 0x34, 0xa4, 0x3f, 0x82, 0x6e, 0xbc, 0x3d,
  0x8d, 0xb3, 0xaf, 0xbb, 0xbe, 0x7c, 0xd7, 0xbe, 0x8a, 0x45, 0x11, 0xbe,
  0x1e, 0x58, 0xaa, 0xbe, 0x87, 0xf3, 0xb5, 0xbe, 0x2e, 0xdd, 0x5a, 0xbe,
  0x9a, 0xff, 0x39, 0xbd, 0xac, 0x4f, 0xb7, 0xbe, 0x57, 0x1b, 0xb4, 0xbd,
  0x99, 0x9c, 0xb0, 0xbd, 0x51, 0x3c, 0xb8, 0x3c, 0x0b, 0xfb, 0x9b, 0xbc,
  0xa3, 0x46, 0xdb, 0xbd, 0x24, 0x4c, 0xba, 0xbe, 0x6f, 0xb1, 0x43, 0x3f,
  0x0e, 0xfc, 0x07, 0xbe, 0x6c, 0xf1, 0x65, 0x3d, 0x00, 0x17, 0xb5, 0xbe,
  0x86, 0xa0, 0x9f, 0x3d, 0x8d, 0x9e, 0xac, 0xbe, 0x09, 0x8a, 0x8e, 0x3d,
  0x69, 0x41, 0x42, 0xbe, 0xd3, 0x6b, 0x2b, 0xbe, 0xf3, 0x73, 0x81, 0xba,
  0xc4, 0x95, 0x78, 0x3b, 0xb4, 0xd4, 0x1b, 0xbe, 0x72, 0x70, 0x95, 0xbe,
  0xd4, 0xc3, 0x36, 0x3e, 0xad, 0x73, 0xb1, 0xbc, 0x81, 0x86, 0xd2, 0xbe,
  0xfa, 0x5b, 0x5d, 0x3f, 0x29, 0x4e, 0x4e, 0xbe, 0x82, 0x14, 0xd9, 0xbd,
  0x50, 0x2e, 0x02, 0xbf, 0x96, 0x14, 0xce, 0x3d, 0xe1, 0xe7, 0x96, 0xbe,
  0xe5, 0x52, 0x10, 0xbe, 0x61, 0xcf, 0x16, 0xbe, 0xd0, 0x6a, 0xaf, 0xbc,
  0xad, 0x22, 0xa4, 0xbd, 0xb3, 0x5a, 0xf9, 0x3c, 0x78, 0xb3, 0xad, 0xbe,
  0xb5, 0x95, 0xbe, 0xbc, 0x95, 0x5b, 0x7e, 0xbd, 0x08, 0xe2, 0x6e, 0xbd,
  0x00, 0x9d, 0x4f, 0xbe, 0xb2, 0x75, 0x07, 0x3f, 0x6a, 0xfa, 0x9c, 0xbe,
  0x97, 0x23, 0x8e, 0x3d, 0x03, 0x93, 0xe2, 0xbe, 0x2d, 0xb6, 0x47, 0xbe,
  0x05, 0x4f, 0xa1, 0xbe, 0x67, 0x7a, 0xc8, 0xbe, 0x81, 0x16, 0x70, 0x3c,
  0xc6, 0xfd, 0xa7, 0xbd, 0x51, 0x16, 0xba, 0xbd, 0xc3, 0xf9, 0xa3, 0xbd,
  0xfd, 0x7f, 0xc1, 0xbe, 0x00, 0x52, 0x6a, 0x3d, 0x63, 0xac, 0xcd, 0x3d,
  0x28, 0x1a, 0x7d, 0xbe, 0x51, 0x08, 0x09, 0xbf, 0x8d, 0x3a, 0x98, 0x3f,
  0xa8, 0x5e, 0xad, 0xbe, 0x5e, 0xbe, 0x80, 0xbd, 0x36, 0xe9, 0xfb, 0xbe,
  0xd1, 0xd5, 0xb8, 0xbc, 0x2d, 0x8c, 0xc8, 0xbe, 0xda, 0xb5, 0x06, 0xbe,
  0x2f, 0xa5, 0x8f, 0xbe, 0x23, 0xc1, 0x7e, 0xbe, 0xd8, 0x52, 0x80, 0xbe,
  0x30, 0x4c, 0x87, 0xbe, 0x31, 0x42, 0x89, 0x3d, 0x5c, 0xc8, 0x62, 0xbe,
  0xdb, 0xa0, 0xce, 0xbc, 0xf9, 0x2a, 0xb6, 0xbd, 0xe7, 0x26, 0xa7, 0xbe,
  0x00, 0x84, 0x90, 0x3f, 0x79, 0x8d, 0x8f, 0xbe, 0x12, 0x20, 0x7d, 0xbd,
  0x7f, 0xcd, 0x07, 0xbf, 0x8d, 0x20, 0xfa, 0xbd, 0xb4, 0xac, 0x90, 0xbe,
  0xdf, 0x99, 0x71, 0xbe, 0x82, 0x94, 0x50, 0xbe, 0x73, 0x7b, 0x9f, 0xbe,
  0x3f, 0x00, 0xae, 0xbd, 0x77, 0x6c, 0x5f, 0xbe, 0x9d, 0xe3, 0x5b, 0xbe,
  0x16, 0xf2, 0x9f, 0x39, 0x84, 0x82, 0x8d, 0xbd, 0x53, 0xd9, 0xc2, 0x3d,
  0x75, 0x1d, 0xb5, 0xbd, 0x56, 0x8b, 0x79, 0x3e, 0x9b, 0x2e, 0xd1, 0xbd,
  0x21, 0xa9, 0xd9, 0xbd, 0xca, 0x69, 0xff, 0xbe, 0x58, 0x75, 0x7b, 0x3d,
  0x95, 0x1c, 0xe0, 0xbe, 0xc3, 0xcd, 0x06, 0xbe, 0x4c, 0x9e, 0xc2, 0xbe,
  0x03, 0x5b, 0x20, 0xbe, 0xbf, 0xb1, 0x1a, 0xbe, 0x30, 0x87, 0x7b, 0x3d,
  0x33, 0x8b, 0x5a, 0x3d, 0x53, 0x7e, 0x7c, 0xbe, 0x4e, 0xa9, 0x5c, 0x3b,
  0x00, 0x57, 0xaf, 0x3e, 0xb7, 0xbb, 0xb9, 0x3e, 0xca, 0x80, 0x60, 0x3f,
  0xe9, 0xd1, 0xbd, 0xbe, 0x50, 0x84, 0x28, 0xbe, 0x1a, 0xf7, 0xd8, 0x3d,
  0x31, 0xfe, 0x21, 0x3e, 0x9c, 0x0b, 0x51, 0x3e, 0x44, 0xa8, 0xa9, 0x3d,
  0x8a, 0x21, 0x68, 0xbe, 0xe3, 0x3e, 0xe0, 0x3d, 0x37, 0xf2, 0x63, 0x3d,
  0x57, 0x0b, 0xe6, 0x3d, 0x7c, 0xa6, 0x73, 0xbd, 0x6a, 0x13, 0x68, 0x3e,
  0x3f, 0xca, 0x41, 0xbd, 0xe0, 0xea, 0x85, 0x3d, 0xda, 0x6d, 0x0b, 0xbe,
  0xb1, 0x24, 0x4e, 0xbe, 0xd9, 0x8d, 0x45, 0xbe, 0x89, 0xff, 0x8d, 0xbd,
  0xe6, 0x0a, 0x5d, 0x3c, 0x12, 0xb7, 0x34, 0xbe, 0x9a, 0xb4, 0x1a, 0x3e,
  0xae, 0xb7, 0x3f, 0xbe, 0x33, 0xd8, 0x35, 0x3e, 0x78, 0xd5, 0x91, 0xbe,
  0x00, 0xb6, 0xcf, 0xbe, 0x4b, 0x52, 0x49, 0xbe, 0xe1, 0x0e, 0xf2, 0xbd,
  0x54, 0x03, 0x1a, 0x3e, 0x45, 0x0b, 0x85, 0xbe, 0xe4, 0x33, 0x44, 0x3e,
  0xdb, 0xbf, 0x86, 0xbe, 0xbf, 0xff, 0x18, 0x3f, 0x1d, 0x40, 0x3d, 0xbe,
  0xba, 0x52, 0x35, 0x3e, 0x29, 0xb5, 0x83, 0xbd, 0xbe, 0x7f, 0x96, 0xbe,
  0xc6, 0xfb, 0x40, 0x3b, 0x86, 0x49, 0xc2, 0xbe, 0x74, 0x49, 0x93, 0x3e,
  0x41, 0x94, 0x1f, 0xbf, 0x59, 0xc7, 0xb4, 0xbe, 0x5c, 0xb0, 0xe7, 0xbe,
  0xba, 0x57, 0xa4, 0xbd, 0x28, 0x7a, 0xb5, 0x3d, 0xb2, 0x06, 0x60, 0xbe,
  0xdc, 0x79, 0xb2, 0xbe, 0xa7, 0x74, 0xca, 0xbe, 0xf4, 0x74, 0x2e, 0x3f,
  0x14, 0xe0, 0x0a, 0xbf, 0x51, 0x28, 0x4f, 0x3d, 0xbc, 0x41, 0x0e, 0xbd,
  0x63, 0x3f, 0x87, 0xbe, 0x5d, 0x1b, 0x1d, 0xbe, 0x3d, 0x0a, 0xc9, 0xbe,
  0x2d, 0xf3, 0x09, 0xbf, 0xe6, 0xe3, 0x1c, 0xbf, 0x6c, 0x64, 0x51, 0xbd,
  0xb9, 0xa4, 0x9a, 0xbe, 0x54, 0xeb, 0x93, 0xbd, 0xe2, 0x6f, 0x18, 0x3e,
  0xac, 0x23, 0x32, 0xbe, 0xed, 0xe0, 0x77, 0xbe, 0x5b, 0x34, 0x4c, 0xbe,
  0xcb, 0xb4, 0x0f, 0x3f, 0x0c, 0x76, 0x2a, 0xbe, 0x14, 0xf7, 0xe0, 0xbd,
  0x51, 0x0f, 0xe8, 0xbd, 0x05, 0x39, 0xa0, 0xbd, 0x18, 0x9f, 0x03, 0xbe,
  0x0e, 0x8e, 0xb8, 0xbc, 0x35, 0xa0, 0xa9, 0xbd, 0x1a, 0x01, 0x80, 0xbe,
  0x71, 0xe5, 0x86, 0xbd, 0x6f, 0x91, 0x11, 0xbe, 0x4a, 0xe1, 0x0c, 0xbe,
  0x1b, 0x2e, 0x33, 0x3d, 0x6d, 0x36, 0x86, 0xbc, 0x59, 0x68, 0x60, 0xbe,
  0x47, 0x79, 0xf8, 0xbb, 0xba, 0x5a, 0x49, 0x3f, 0xdd, 0x05, 0x34, 0xbe,
  0xdd, 0xbf, 0x39, 0x3e, 0xd4, 0x5f, 0x13, 0xbd, 0x00, 0x9a, 0x8d, 0xbe,
  0xd8, 0xfe, 0x64, 0xbe, 0x97, 0x28, 0x17, 0xbe, 0x52, 0x34, 0xea, 0x3d,
  0xc8, 0x90, 0x88, 0xbd, 0xae, 0xc6, 0x73, 0xbd, 0x75, 0xd4, 0x36, 0xbd,
  0x71, 0x2d, 0x4d, 0xbe, 0x7e, 0x2d, 0x93, 0x3d, 0xcd, 0x32, 0xa2, 0xbd,
  0x35, 0x80, 0x7f, 0xbd, 0x56, 0xc1, 0x36, 0xbe, 0x6c, 0xa3, 0x50, 0x3e,
  0x67, 0xd3, 0xd1, 0xbd, 0x37, 0x14, 0x0d, 0x3e, 0x68, 0xa3, 0xe0, 0xbd,
  0xb5, 0x68, 0xd4, 0xbd, 0x96, 0x3d, 0x84, 0xbd, 0xaf, 0xaf, 0x67, 0xbe,
  0x4a, 0x51, 0xd2, 0x3c, 0x68, 0xa2, 0x93, 0xbe, 0xc0, 0xad, 0x87, 0x3d,
  0x85, 0xc5, 0x9d, 0xbd, 0xc1, 0xed, 0x4d, 0xbe, 0x39, 0x9b, 0x04, 0x3e,
  0x2c, 0x67, 0x01, 0xbd, 0xb4, 0x2b, 0x18, 0x3e, 0xd9, 0x14, 0x89, 0xbd,
  0x73, 0x43, 0x61, 0xbe, 0x9b, 0x81, 0xdc, 0xba, 0x47, 0x8e, 0x23, 0xbc,
  0x02, 0xc6, 0x79, 0x3c, 0x3e, 0xf9, 0x8c, 0xbe, 0x11, 0xe2, 0xda, 0xbd,
  0xf3, 0x4f, 0x23, 0xbe, 0x95, 0x74, 0x83, 0xbd, 0x38, 0x60, 0x0d, 0xbd,
  0x78, 0x73, 0xf7, 0xbd, 0xdb, 0x48, 0x46, 0xbe, 0xe0, 0x79, 0x19, 0xbe,
  0x0d, 0x81, 0x65, 0xbe, 0x90, 0x43, 0x32, 0xbd, 0xc6, 0x1f, 0xf3, 0x39,
  0x19, 0xf1, 0xda, 0x3d, 0xa2, 0xc9, 0x58, 0xbe, 0x8c, 0xdf, 0x99, 0x3d,
  0xdc, 0xed, 0xba, 0x3d, 0xaa, 0xdf, 0x80, 0xbe, 0xca, 0x79, 0x17, 0x3d,
  0xe0, 0x7b, 0xd8, 0xbd, 0x5a, 0x5b, 0x96, 0xbe, 0x5e, 0x59, 0x2a, 0xbd,
  0xca, 0x1d, 0xf2, 0xbd, 0x47, 0xa5, 0x08, 0x3e, 0x23, 0xce, 0x99, 0xbe,
  0xd2, 0xcb, 0x28, 0x3c, 0xbb, 0xac, 0x87, 0xbe, 0xf9, 0x9f, 0x56, 0xbe,
  0xd2, 0x48, 0xb7, 0xbc, 0xc6, 0x7d, 0x5d, 0xbe, 0xc5, 0xb2, 0xdc, 0x3b,
  0x3d, 0x95, 0xcb, 0x39, 0x99, 0xe5, 0xfb, 0x3d, 0x0a, 0x25, 0x40, 0xbe,
  0x69, 0xca, 0x15, 0x3d, 0xd2, 0x56, 0x73, 0xbe, 0x8a, 0x79, 0x6f, 0x3d,
  0x1e, 0x3f, 0x5f, 0xbc, 0x20, 0x04, 0xb0, 0x3c, 0x40, 0x39, 0xa8, 0xbd,
  0x72, 0x6d, 0x47, 0xbe, 0x31, 0x6b, 0x53, 0xbe, 0x9c, 0x47, 0x2c, 0x3d,
  0x2b, 0xc3, 0x91, 0xbd, 0xc8, 0xa7, 0xcd, 0x3d, 0xee, 0x67, 0xce, 0x3d,
  0xfe, 0x84, 0x7f, 0x3b, 0x1e, 0x9a, 0x66, 0x3d, 0xbb, 0x19, 0x2f, 0x3e,
  0x7d, 0xab, 0x2e, 0xbe, 0xbe, 0xcd, 0x0f, 0xbe, 0x6e, 0x6e, 0xc6, 0xbc,
  0x5e, 0x9c, 0x39, 0xbe, 0xd9, 0x51, 0x8e, 0x3d, 0x7f, 0xce, 0x26, 0xbe,
  0xd2, 0xc6, 0xc4, 0xbd, 0xed, 0x28, 0x5e, 0xbe, 0xd8, 0x08, 0x39, 0xbe,
  0x48, 0x5d, 0x34, 0xbe, 0x91, 0x6c, 0x46, 0xbd, 0x52, 0x92, 0x05, 0xbe,
  0x4c, 0xa3, 0x5e, 0xbd, 0x93, 0x2a, 0x0e, 0xbd, 0xb1, 0x49, 0x08, 0x3e,
  0x6d, 0x81, 0x55, 0xbd, 0x0a, 0x82, 0x96, 0xbe, 0xb6, 0xb6, 0x85, 0xbd,
  0xd8, 0xf9, 0xdd, 0xbd, 0x9f, 0x19, 0xae, 0xbd, 0xc6, 0x14, 0x9d, 0x3d,
  0xd1, 0x91, 0x2b, 0xbe, 0xa9, 0x84, 0x3b, 0xbe, 0xcc, 0x6c, 0x07, 0xbe,
  0x4d, 0x4f, 0xf9, 0xbc, 0x00, 0x0d, 0xf4, 0xbd, 0x42, 0x59, 0x70, 0xbe,
  0x0e, 0xca, 0x14, 0xbe, 0xbf, 0x4e, 0xf3, 0xbd, 0xc8, 0x50, 0x45, 0xbe,
  0xf5, 0xcc, 0x1a, 0x3a, 0x58, 0xd0, 0x55, 0xbe, 0x49, 0x34, 0x1e, 0xbe,
  0x0c, 0xc6, 0x18, 0xbe, 0xf3, 0x67, 0x0d, 0xbe, 0x6f, 0x85, 0x1b, 0x3d,
  0xce, 0x4e, 0x40, 0x3e, 0xf6, 0xc5, 0xbb, 0xbc, 0x68, 0xd8, 0x29, 0xbe,
  0x8e, 0xaf, 0x3a, 0xbe, 0xe6, 0xfa, 0xcd, 0x3c, 0x5c, 0x6b, 0xc6, 0x3d,
  0x69, 0x2a, 0x02, 0xbe, 0xe5, 0x6b, 0xcb, 0x3d, 0x77, 0xd3, 0xf3, 0xbc,
  0x45, 0x12, 0xca, 0x3d, 0x58, 0x78, 0xaf, 0x3c, 0x5e, 0x58, 0xbd, 0x3c,
  0x6f, 0xd2, 0x1b, 0xbd, 0xcc, 0x17, 0x56, 0xbe, 0x4b, 0x6e, 0x97, 0xbe,
  0xbe, 0x3d, 0x6c, 0xbe, 0xae, 0xfd, 0x15, 0x3d, 0xfe, 0xde, 0x29, 0x3e,
  0x8a, 0x9d, 0x23, 0xbd, 0x61, 0x33, 0xf0, 0xbd, 0x50, 0x94, 0x42, 0xbf,
  0x37, 0x51, 0xd7, 0xbe, 0x4c, 0x72, 0x78, 0xbd, 0x86, 0x99, 0x03, 0x3e,
  0x00, 0xc0, 0xac, 0xbe, 0xe0, 0x81, 0xc4, 0x3f, 0x30, 0x75, 0x6d, 0x3e,
  0x6a, 0xb6, 0xdc, 0x3d, 0xb1, 0xf2, 0x00, 0xbd, 0x4a, 0x34, 0xe5, 0x3b,
  0x80, 0x13, 0x31, 0xbe, 0x3c, 0xc7, 0x3b, 0xbe, 0x21, 0x6a, 0x94, 0x3e,
  0x35, 0xbc, 0xd3, 0xbd, 0x55, 0x5f, 0xdf, 0xbe, 0xdc, 0x97, 0xa9, 0x3c,
  0x6a, 0x56, 0x28, 0xbf, 0x1c, 0x59, 0x11, 0xbf, 0x91, 0xbc, 0x27, 0x3d,
  0x04, 0x2e, 0xb7, 0x3c, 0x0c, 0xa6, 0x0a, 0xbe, 0x36, 0x38, 0xe9, 0x3d,
  0x34, 0x42, 0xb9, 0x3c, 0xb8, 0xdd, 0x6c, 0x3e, 0x62, 0x30, 0xaf, 0xbb,
  0xc8, 0xd8, 0x68, 0x3d, 0x19, 0x48, 0x2a, 0xbd, 0x48, 0x9b, 0x84, 0xbe,
  0xc8, 0x15, 0x6f, 0x3e, 0xe1, 0xd8, 0xb5, 0x3d, 0x7d, 0xfe, 0x28, 0xbe,
  0x95, 0x01, 0x81, 0x3e, 0xb5, 0x43, 0xcd, 0xbe, 0x63, 0x06, 0x82, 0xbe,
  0x3c, 0x05, 0x94, 0x3d, 0xa5, 0x28, 0x2b, 0x3e, 0xab, 0x19, 0xe4, 0xbd,
  0xff, 0xed, 0xd3, 0xbb, 0xfc, 0x47, 0x5a, 0xbc, 0x2f, 0x77, 0x66, 0x3c,
  0x19, 0xcc, 0x51, 0x3d, 0xd1, 0xea, 0xb8, 0x3e, 0x58, 0x48, 0xd1, 0xbc,
  0xda, 0x14, 0x7d, 0xbd, 0x0c, 0x29, 0x08, 0xbd, 0x24, 0x7f, 0x46, 0x3d,
  0xd4, 0xa9, 0x1a, 0xbe, 0x4b, 0x61, 0xb2, 0x3e, 0x35, 0xeb, 0x8b, 0xbe,
  0xff, 0x77, 0x00, 0xbe, 0x12, 0x23, 0xdb, 0x3c, 0x3f, 0xf7, 0x8f, 0x3e,
  0x77, 0x52, 0x7d, 0xbe, 0xec, 0xa6, 0x92, 0x3f, 0xc3, 0xce, 0xc6, 0x3c,
  0xcb, 0xaf, 0x03, 0x3e, 0x89, 0xf6, 0xbd, 0x3d, 0x16, 0x0d, 0x12, 0x3e,
  0x57, 0xc8, 0x99, 0x3e, 0x82, 0x4b, 0x1e, 0xbe, 0x24, 0xa8, 0x90, 0x3e,
  0x6d, 0xb5, 0x0c, 0x3e, 0x46, 0x8d, 0x36, 0xbe, 0x28, 0x31, 0xc4, 0x3d,
  0xb5, 0xba, 0xc7, 0xbe, 0xed, 0x97, 0x8b, 0x3c, 0xd4, 0x8e, 0x96, 0x3c,
  0x7e, 0xe9, 0x9c, 0x3e, 0xc3, 0x94, 0x8b, 0xbd, 0xae, 0x9c, 0x63, 0x3f,
  0xc7, 0x24, 0x84, 0x3e, 0xe7, 0x2e, 0x37, 0xbe, 0xf8, 0x04, 0x0e, 0x3d,
  0x10, 0x6b, 0x77, 0xbe, 0xd2, 0x47, 0x20, 0xbe, 0xbd, 0xc0, 0x5b, 0xbe,
  0x89, 0xd2, 0xc8, 0x3e, 0x4d, 0x94, 0x41, 0x3d, 0x71, 0xd5, 0xe1, 0xbe,
  0xbf, 0x1f, 0xb4, 0xbb, 0xf7, 0x25, 0xd7, 0xbe, 0xf7, 0x4e, 0x8d, 0x3e,
  0x38, 0x93, 0x02, 0x3d, 0xea, 0xc6, 0x91, 0x3e, 0xfc, 0xbc, 0x7c, 0xbe,
  0x21, 0xf1, 0x14, 0x3c, 0xe5, 0x69, 0x89, 0x3e, 0x7d, 0x9d, 0xac, 0xbd,
  0x58, 0x3d, 0x14, 0x3d, 0xb0, 0xdd, 0x64, 0xbe, 0xd2, 0x78, 0x7f, 0xbe,
  0x6c, 0x53, 0xda, 0xbe, 0x54, 0xef, 0x48, 0x3e, 0xfe, 0xd4, 0x05, 0x3c,
  0x48, 0xff, 0x8a, 0xbe, 0xdf, 0x93, 0x04, 0x3c, 0x6e, 0x47, 0x2a, 0xbe,
  0x28, 0x2a, 0x1f, 0xbd, 0x49, 0xcc, 0xdf, 0x3b, 0x43, 0xd9, 0x50, 0x3d,
  0x8e, 0x3c, 0x7a, 0xbd, 0x86, 0x4f, 0xc1, 0x3e, 0x9f, 0x02, 0x31, 0x3d,
  0x6a, 0xab, 0xc4, 0xbd, 0x39, 0x9c, 0x8c, 0xbc, 0xf0, 0x5d, 0xfa, 0xbd,
  0xe9, 0x23, 0x37, 0xbe, 0x4e, 0x40, 0xfb, 0xbe, 0x40, 0x13, 0x28, 0x3d,
  0x4e, 0xd2, 0x7d, 0x3d, 0x79, 0x2a, 0xd9, 0xbd, 0x5d, 0xc8, 0x9c, 0xbe,
  0x59, 0xf8, 0xbd, 0x3d, 0xee, 0x77, 0xdd, 0x3e, 0xd4, 0x39, 0x73, 0xbc,
  0x04, 0xf2, 0x5b, 0xbe, 0xce, 0x3c, 0x89, 0xbe, 0x09, 0x7d, 0x50, 0xbe,
  0x1e, 0x44, 0xee, 0x3b, 0x5e, 0x72, 0xad, 0x3e, 0x26, 0x09, 0xe3, 0x3c,
  0x6f, 0xef, 0x29, 0x3d, 0x74, 0x4b, 0x96, 0xbe, 0x41, 0x2d, 0xb5, 0xbe,
  0x09, 0xc0, 0xfb, 0xbc, 0x8e, 0xdb, 0x22, 0xbe, 0x3a, 0x53, 0xbc, 0xbd,
  0x1b, 0x7f, 0xb3, 0xbc, 0xc3, 0xa3, 0x20, 0x3e, 0xb2, 0x36, 0x1c, 0xbd,
  0x8d, 0x89, 0x30, 0xbe, 0x9e, 0x1e, 0x9c, 0xbe, 0x95, 0x06, 0x56, 0xbe,
  0x64, 0x12, 0x58, 0xbe, 0xd6, 0x1f, 0x3c, 0xbe, 0x4c, 0x95, 0xa2, 0x3e,
  0x9c, 0x77, 0x9c, 0xbd, 0x7e, 0xb8, 0x82, 0xbb, 0xf5, 0xb6, 0x2f, 0x3d,
  0xe7, 0x01, 0x75, 0x3e, 0x33, 0x81, 0xc0, 0xbd, 0xab, 0x2a, 0x36, 0xbe,
  0xa0, 0x36, 0x59, 0xbe, 0x43, 0x99, 0x91, 0xbe, 0x48, 0x66, 0x37, 0x3d,
  0x23, 0x93, 0x8c, 0x3d, 0x32, 0xc5, 0x07, 0xbf, 0xd5, 0xae, 0x0b, 0xbe,
  0x0c, 0x0f, 0xc8, 0xbd, 0xd0, 0xf9, 0x04, 0xbd, 0x66, 0x4a, 0x86, 0xbd,
  0x79, 0x4d, 0x4d, 0x3e, 0xbf, 0x0e, 0xe9, 0x3d, 0xf0, 0xd8, 0x3e, 0x3e,
  0xc5, 0x91, 0x1e, 0x3d, 0x3f, 0x72, 0x84, 0xbd, 0x79, 0x69, 0x1c, 0x3e,
  0x48, 0x1f, 0x69, 0xbe, 0xd7, 0x10, 0xca, 0xbd, 0x75, 0x5a, 0xa4, 0xbd,
  0x35, 0x17, 0xa9, 0xbc, 0x96, 0x2f, 0x2d, 0xbd, 0x09, 0x9c, 0x6f, 0xbc,
  0x38, 0x1c, 0xa6, 0xbd, 0xaf, 0xc5, 0xcf, 0x3d, 0x5e, 0xeb, 0x19, 0x3d,
  0xcb, 0xa0, 0x19, 0xbe, 0x25, 0xf5, 0xbd, 0x3e, 0x72, 0x0b, 0x2f, 0xbe,
  0xf8, 0x95, 0x1b, 0xbe, 0x52, 0xf9, 0xe4, 0xbd, 0x3e, 0x02, 0xa6, 0xbd,
  0x29, 0x72, 0x85, 0x3d, 0xf3, 0xae, 0x9c, 0xbe, 0x1f, 0xaf, 0x3a, 0xbe,
  0xf7, 0x82, 0x05, 0xbe, 0xc3, 0xd2, 0xd6, 0x3d, 0x74, 0xc1, 0x12, 0x3e,
  0x60, 0xc4, 0x64, 0x3d, 0x43, 0x4d, 0x86, 0x3d, 0x94, 0x41, 0x4d, 0x3e,
  0xd7, 0x35, 0x10, 0x3e, 0xa7, 0xf6, 0x27, 0xbd, 0x63, 0xcd, 0x62, 0x3c,
  0x45, 0xf1, 0xc2, 0xbd, 0xf2, 0xd3, 0x25, 0xbd, 0x22, 0xa5, 0x20, 0x3d,
  0x8f, 0x1a, 0xb9, 0xbc, 0x69, 0x8b, 0x49, 0x3a, 0xdb, 0x90, 0x8b, 0xbe,
  0x0e, 0xcf, 0x27, 0xbe, 0x7a, 0x90, 0xb8, 0xbe, 0x78, 0xb8, 0x49, 0x3b,
  0x7e, 0x1c, 0xb0, 0xbd, 0xdc, 0x9d, 0xae, 0xbe, 0x69, 0x16, 0x19, 0x3e,
  0x40, 0x4f, 0xd1, 0x3a, 0x4f, 0x72, 0xfb, 0xbd, 0x32, 0x51, 0x3e, 0xbe,
  0x9b, 0x64, 0x30, 0x3e, 0xba, 0x82, 0x8f, 0xbc, 0x64, 0x33, 0xa3, 0xbd,
  0x8a, 0x18, 0x7c, 0x3e, 0x49, 0x06, 0xfd, 0xbd, 0x74, 0xef, 0x85, 0x3d,
  0xc7, 0x1e, 0xc7, 0xbe, 0x04, 0x28, 0x99, 0xbe, 0xd3, 0x60, 0xb1, 0xbe,
  0x8c, 0x5b, 0xb1, 0x3d, 0x7f, 0xb4, 0x55, 0x3e, 0x20, 0x7f, 0x1f, 0xbd,
  0xba, 0xac, 0x6d, 0xbe, 0x13, 0xbc, 0x10, 0xbe, 0xd4, 0xca, 0x84, 0x3b,
  0xf8, 0xb1, 0x1c, 0xbd, 0xac, 0x38, 0xe9, 0x3d, 0x84, 0xb2, 0x2b, 0xbe,
  0x7e, 0x2b, 0x1a, 0xbe, 0xa5, 0x9c, 0x1e, 0x3d, 0xb6, 0xf4, 0x8e, 0xbd,
  0x3b, 0x3c, 0x9d, 0x3d, 0xed, 0x87, 0x55, 0xbe, 0x10, 0xc3, 0xb4, 0xbd,
  0x53, 0x67, 0x48, 0xbe, 0xe8, 0x85, 0x7f, 0x3d, 0x3c, 0x87, 0x0e, 0xbe,
  0xa6, 0x1b, 0x13, 0xbe, 0x75, 0xb3, 0xfa, 0x3d, 0x50, 0xe2, 0x04, 0x3d,
  0xc2, 0xaa, 0xe6, 0xbd, 0x29, 0x59, 0x17, 0xbe, 0x3b, 0x73, 0xef, 0xbc,
  0x61, 0x10, 0x89, 0xbe, 0xfd, 0xdc, 0xb1, 0x3c, 0xec, 0xe3, 0x8a, 0xbe,
  0x85, 0x11, 0x7e, 0xbe, 0x8c, 0xbd, 0xc6, 0xbd, 0x38, 0x23, 0xfe, 0xbd,
  0x9b, 0x48, 0xba, 0x3d, 0x26, 0x5e, 0x9b, 0xbd, 0xed, 0xb1, 0x01, 0x3e,
  0xa4, 0x44, 0x39, 0x3e, 0xa0, 0xef, 0x96, 0x3d, 0x90, 0xd8, 0x1e, 0xbd,
  0x19, 0x52, 0x30, 0xbe, 0x22, 0x2d, 0xe3, 0x3c, 0xd1, 0xc1, 0x38, 0xbe,
  0xd6, 0xe9, 0x57, 0xbe, 0xc7, 0x0e, 0x99, 0xbe, 0x32, 0xfe, 0xc5, 0x3d,
  0x83, 0x2d, 0x60, 0xbe, 0xa2, 0x36, 0xde, 0x3d, 0xcc, 0x64, 0x2d, 0xbe,
  0x76, 0x17, 0x44, 0xbe, 0x9b, 0xb5, 0xa2, 0xbd, 0xd6, 0xf7, 0xf0, 0x3c,
  0x1d, 0x08, 0x3e, 0xbe, 0x96, 0xf2, 0x0f, 0xbe, 0x3d, 0x99, 0x56, 0xbe,
  0x99, 0xd4, 0x0d, 0xbe, 0xe4, 0x65, 0x80, 0xbe, 0xd6, 0x76, 0x05, 0xbe,
  0x81, 0x47, 0x56, 0xbe, 0xd4, 0xea, 0x45, 0xbe, 0x81, 0x87, 0x0b, 0xbe,
  0x2c, 0xc6, 0xb5, 0x3d, 0x51, 0x7c, 0xf5, 0x3a, 0x66, 0x18, 0x3a, 0xbe,
  0x9d, 0x7e, 0xab, 0xbd, 0x9d, 0x3b, 0xb5, 0x3d, 0xf7, 0x7e, 0x67, 0xbe,
  0xb8, 0xb2, 0x3b, 0xbe, 0x65, 0x3c, 0x37, 0x3d, 0x52, 0x41, 0x5c, 0xbe,
  0x4a, 0x61, 0xb0, 0x3c, 0xd0, 0x87, 0x23, 0x3e, 0x52, 0x9e, 0x58, 0xbe,
  0x0a, 0x85, 0x4a, 0xbe, 0x5f, 0x22, 0x35, 0xbe, 0xe2, 0x27, 0x8b, 0xbc,
  0xaf, 0xda, 0x88, 0xbd, 0xb1, 0xe2, 0x2e, 0x3e, 0xa2, 0xcd, 0x70, 0xbd,
  0xf6, 0xde, 0xf6, 0x3d, 0x26, 0x7a, 0x27, 0x3d, 0x3f, 0x13, 0x4a, 0xbe,
  0x44, 0x23, 0xbe, 0xbc, 0xdf, 0x88, 0xbe, 0xbd, 0x7b, 0x97, 0x50, 0xbd,
  0xcd, 0x67, 0xff, 0xbd, 0xc8, 0x27, 0x59, 0xbe, 0x80, 0x66, 0xa1, 0x3d,
  0x30, 0xff, 0x3f, 0xbe, 0x61, 0x9b, 0x1f, 0x3e, 0x7d, 0x67, 0xc3, 0xbd,
  0x36, 0x13, 0x14, 0x3e, 0x53, 0x80, 0x70, 0xbe, 0xac, 0xb2, 0x02, 0x3e,
  0xf3, 0x1d, 0x33, 0xbe, 0x27, 0x09, 0x09, 0xbe, 0x28, 0xc2, 0x2a, 0xbe,
  0x7e, 0x31, 0x2e, 0xbe, 0x45, 0xd4, 0x01, 0x3e, 0xda, 0x9b, 0xa8, 0xbd,
  0xdf, 0x54, 0xb5, 0xbd, 0x3d, 0x69, 0x9e, 0x3d, 0xf2, 0xe2, 0xe6, 0x3b,
  0xe5, 0x58, 0xf7, 0xbc, 0x95, 0xfe, 0x8f, 0xbe, 0x95, 0x2c, 0x1e, 0xbe,
  0x1f, 0x30, 0x09, 0xbe, 0x22, 0xa9, 0xf3, 0xbc, 0xa2, 0x75, 0xa8, 0xbe,
  0x77, 0x3a, 0x2b, 0xbd, 0x79, 0xb2, 0x96, 0xbe, 0x0d, 0xe1, 0x81, 0xbe,
  0x9d, 0x8e, 0x09, 0xbe, 0xd3, 0xeb, 0xd7, 0x3b, 0x08, 0x29, 0xb1, 0xbd,
  0x11, 0x15, 0x79, 0xbe, 0x3d, 0x0b, 0x04, 0xbd, 0x19, 0xd8, 0x45, 0xbe,
  0x7e, 0xdc, 0x95, 0xbe, 0xba, 0xc7, 0xa2, 0x3d, 0x54, 0x47, 0x3f, 0xbe,
  0x6a, 0xf1, 0x02, 0x3e, 0xab, 0x27, 0x64, 0xbe, 0xf5, 0x8e, 0x7a, 0x3d,
  0x5b, 0x9f, 0x8c, 0xbe, 0x48, 0x74, 0xc6, 0xbd, 0xbc, 0x92, 0x29, 0xbe,
  0x71, 0x6b, 0xd7, 0xbd, 0x93, 0xeb, 0xd2, 0xbd, 0x0f, 0x82, 0x78, 0xbd,
  0xe5, 0x60, 0x33, 0xbe, 0xfc, 0xc8, 0x76, 0xbe, 0xe2, 0xe0, 0x6b, 0xbd,
  0xcb, 0x07, 0x6f, 0xbe, 0xf9, 0xc5, 0x6e, 0xbe, 0xf2, 0x9c, 0x6e, 0x3d,
  0x42, 0x7b, 0x06, 0x3e, 0x9e, 0x80, 0x34, 0xbe, 0xd7, 0xcc, 0xef, 0xbd,
  0x25, 0xf6, 0x04, 0xbd, 0x2b, 0xc9, 0xb2, 0xbd, 0x4f, 0xa5, 0x7b, 0xbe,
  0xc9, 0xc3, 0x16, 0x3e, 0xb8, 0xf6, 0xaf, 0x3e, 0x04, 0xfb, 0x68, 0xbe,
  0xca, 0x22, 0x50, 0xbe, 0xe1, 0xf7, 0x8e, 0xbc, 0x96, 0xd1, 0x1a, 0xbc,
  0xf8, 0xef, 0x3d, 0x3e, 0x5f, 0xe9, 0x21, 0xbe, 0x6a, 0x19, 0x22, 0x3e,
  0x14, 0x95, 0x2d, 0xbe, 0x6f, 0x0d, 0x3a, 0x3e, 0x1a, 0xfa, 0x15, 0x3f,
  0x6f, 0x99, 0xc6, 0x3c, 0x00, 0x22, 0x42, 0xbd, 0xce, 0x00, 0x03, 0x3d,
  0x40, 0x61, 0x7f, 0xbe, 0xb2, 0x5d, 0x27, 0x3e, 0xb8, 0x10, 0x57, 0xbd,
  0x36, 0xb9, 0x7c, 0x3b, 0x49, 0x3c, 0x28, 0x3d, 0x67, 0x0e, 0xfa, 0xbc,
  0x25, 0x73, 0x94, 0x3d, 0x73, 0xcd, 0x7f, 0xbd, 0x77, 0x18, 0x4f, 0xbe,
  0x75, 0x1e, 0xee, 0xbd, 0x93, 0xa3, 0x48, 0xbb, 0x0a, 0x12, 0x17, 0xbc,
  0x26, 0x85, 0xc5, 0x3e, 0x6c, 0xbd, 0x9a, 0x3e, 0xf8, 0x95, 0x47, 0xbe,
  0xfb, 0x90, 0xa9, 0xbd, 0x13, 0xe4, 0x9f, 0xbc, 0x40, 0xcc, 0x5a, 0xbd,
  0xf8, 0x31, 0x63, 0x3e, 0xa2, 0x8e, 0x58, 0xbe, 0x2c, 0xdc, 0x54, 0x3d,
  0xd8, 0xef, 0x38, 0xbd, 0xb9, 0xc5, 0xac, 0xbc, 0x61, 0x8c, 0x3d, 0xbc,
  0x0b, 0x78, 0x3b, 0x3d, 0x29, 0xc4, 0x92, 0xbe, 0x8e, 0xf8, 0x82, 0xbc,
  0x5d, 0xe9, 0x4e, 0x3d, 0xc2, 0x66, 0x1d, 0x3d, 0x55, 0x1b, 0x10, 0x3e,
  0xf7, 0x9b, 0x1b, 0x3c, 0x81, 0x75, 0xb0, 0xbd, 0x19, 0x95, 0xc5, 0x3d,
  0x69, 0x02, 0x6c, 0xbd, 0xc3, 0xb4, 0x84, 0xbd, 0x1e, 0x1d, 0x54, 0xbe,
  0xb1, 0x35, 0xbb, 0x3d, 0x96, 0xb3, 0x0f, 0xbd, 0x6f, 0x58, 0x20, 0xbd,
  0x9e, 0xc5, 0xab, 0x3c, 0xfd, 0x5d, 0x30, 0x3d, 0xc8, 0x2a, 0x27, 0xbf,
  0x64, 0x33, 0x21, 0x3d, 0x2f, 0xec, 0x92, 0xbd, 0xa9, 0x71, 0x89, 0xbe,
  0x99, 0xc2, 0xcb, 0xbb, 0xf2, 0x87, 0x96, 0x3d, 0x58, 0x30, 0x04, 0x3c,
  0xe1, 0xf1, 0xb5, 0xbc, 0x16, 0x07, 0x5f, 0xbb, 0x3e, 0xba, 0x3d, 0xbe,
  0xfa, 0xae, 0x11, 0xbd, 0x29, 0x94, 0xd5, 0xbb, 0x0c, 0x20, 0x91, 0xbb,
  0x1c, 0x57, 0x52, 0xbe, 0xbd, 0x0e, 0x8b, 0xbd, 0xda, 0x7c, 0x9e, 0xbd,
  0x98, 0x80, 0x2d, 0xbf, 0xc3, 0x21, 0x8c, 0x3c, 0xe7, 0x8c, 0xae, 0xbe,
  0x1e, 0xe1, 0x4a, 0xbe, 0x37, 0x2b, 0xbe, 0xbe, 0x8b, 0xb2, 0x1f, 0xbd,
  0x28, 0x45, 0xa8, 0xbd, 0x7c, 0x00, 0x7e, 0x3d, 0xe8, 0xdc, 0x04, 0x3e,
  0xf8, 0x08, 0x8d, 0xbe, 0x09, 0x92, 0x81, 0x3d, 0xfd, 0x73, 0xd6, 0xbd,
  0xf5, 0xa0, 0x95, 0xbd, 0x8c, 0x6d, 0x22, 0xbe, 0x66, 0x75, 0x72, 0xbc,
  0x04, 0x17, 0x2a, 0x3e, 0x57, 0x5b, 0xf0, 0xbe, 0x24, 0xae, 0xc1, 0xbc,
  0xb0, 0xe5, 0xbd, 0xbd, 0x55, 0x26, 0x09, 0xbe, 0x78, 0x53, 0x01, 0x3e,
  0xbb, 0x5e, 0x2f, 0x3e, 0x8e, 0xd0, 0x41, 0x3c, 0xca, 0xc5, 0x25, 0xbd,
  0xeb, 0xf9, 0x8a, 0xbc, 0xc9, 0xc3, 0xdc, 0xbd, 0xed, 0x3e, 0xd3, 0xbe,
  0x9f, 0x1f, 0x28, 0xbe, 0x77, 0x06, 0xdd, 0xbb, 0xb5, 0x4d, 0xd0, 0x3d,
  0x3a, 0x54, 0x95, 0x3c, 0xdf, 0xab, 0x3e, 0x3d, 0x0f, 0x73, 0x21, 0x3d,
  0x5b, 0x99, 0x0d, 0x3d, 0x30, 0xf7, 0x60, 0x3c, 0x07, 0xe9, 0x11, 0x3f,
  0x4c, 0x14, 0x12, 0x3e, 0xd1, 0x78, 0xe8, 0xbd, 0x2f, 0x66, 0x6f, 0x3d,
  0xdb, 0xad, 0xf2, 0x3d, 0x8f, 0xdc, 0x5b, 0x3e, 0xdb, 0x42, 0x7c, 0xbe,
  0xd1, 0x2a, 0xb5, 0xbd, 0xbc, 0xac, 0xbb, 0x3d, 0xfe, 0x36, 0xbe, 0x3d,
  0xd2, 0xc9, 0xf4, 0x3c, 0x44, 0x90, 0x78, 0xbc, 0xf9, 0x1d, 0x80, 0x3c,
  0x91, 0xe4, 0x5d, 0xbe, 0xa4, 0x97, 0x87, 0x3d, 0x7f, 0x54, 0xec, 0xbb,
  0x5e, 0xba, 0xaa, 0xbe, 0x53, 0xa9, 0x6a, 0xbc, 0x29, 0x83, 0x9d, 0xbd,
  0x45, 0x13, 0xdd, 0xbc, 0xf2, 0xa3, 0x89, 0xbd, 0x42, 0xb8, 0xfe, 0xbd,
  0xd5, 0xaa, 0xef, 0xbc, 0xe6, 0xff, 0x35, 0xbd, 0x4b, 0x33, 0xf1, 0xbd,
  0x02, 0x0b, 0x35, 0x3d, 0x51, 0xba, 0x53, 0xbd, 0x90, 0x26, 0xf2, 0x3b,
  0xe7, 0xf9, 0xa8, 0x3d, 0xbe, 0x29, 0x7f, 0xbe, 0xe9, 0x0a, 0xa1, 0xbc,
  0xfe, 0x09, 0x06, 0x3d, 0xbd, 0x6d, 0x35, 0xbe, 0x2c, 0xfc, 0xdd, 0xbd,
  0xa5, 0xdf, 0x44, 0x3d, 0xa7, 0xb6, 0xda, 0xbc, 0x8e, 0x9e, 0xd2, 0xbe,
  0xa1, 0xe2, 0x51, 0xbc, 0xca, 0x6e, 0xae, 0xbc, 0x2d, 0x1b, 0x68, 0xbc,
  0x7a, 0x6d, 0x35, 0x3d, 0xe0, 0x75, 0x8b, 0x3d, 0x0f, 0x96, 0x51, 0xbd,
  0xf7, 0x77, 0x9c, 0x3b, 0xf2, 0xe0, 0x25, 0xbc, 0xe7, 0x79, 0x70, 0xbe,
  0x41, 0x91, 0xd8, 0xbd, 0x51, 0xb5, 0xc0, 0xbc, 0xf8, 0x48, 0x95, 0xbe,
  0x3b, 0xf1, 0xd9, 0x3d, 0x8b, 0xef, 0x68, 0x3d, 0x60, 0xf9, 0x16, 0xbd,
  0xa5, 0x9e, 0x2a, 0x3c, 0x31, 0x43, 0x20, 0x3d, 0x6f, 0xf8, 0x9c, 0x3c,
  0x5a, 0xa2, 0x28, 0xbd, 0x13, 0x3f, 0x81, 0x3c, 0xa9, 0x54, 0x9d, 0x3d,
  0x63, 0x95, 0x82, 0xbd, 0x4f, 0xbe, 0x51, 0xbc, 0x38, 0x75, 0x71, 0xbd,
  0x6e, 0x63, 0xf7, 0xbd, 0x02, 0xb4, 0x89, 0xbe, 0x9c, 0x71, 0x3c, 0xbe,
  0xb1, 0x87, 0x17, 0xbf, 0xac, 0xe0, 0xef, 0x3c, 0x51, 0xe1, 0xaf, 0x3d,
  0xa2, 0xfe, 0xf9, 0xbb, 0x3f, 0x48, 0xa6, 0x3e, 0x20, 0x0f, 0x8d, 0x3e,
  0xf6, 0x1e, 0x52, 0x3c, 0xa2, 0x01, 0x3d, 0xbe, 0x95, 0x63, 0x8f, 0x3d,
  0x6e, 0x44, 0xd6, 0x3d, 0x60, 0x4b, 0xa3, 0x3d, 0x63, 0x66, 0x6e, 0xbb,
  0x9f, 0x7f, 0x16, 0xbe, 0xa7, 0xda, 0xac, 0xbc, 0xbf, 0xee, 0x06, 0xbd,
  0x6a, 0xa2, 0x14, 0xbd, 0x64, 0xc7, 0x34, 0xbf, 0x1c, 0xbd, 0x92, 0xbd,
  0xa7, 0xe8, 0xf4, 0x3d, 0xf4, 0x13, 0x91, 0xbc, 0x7e, 0x66, 0x09, 0x3f,
  0x13, 0x34, 0x8e, 0x3e, 0xa2, 0xc9, 0xe6, 0xbc, 0xb3, 0x52, 0x39, 0xbe,
  0xec, 0x90, 0xe3, 0x3d, 0x39, 0x3e, 0xd0, 0x3d, 0x2b, 0x93, 0x79, 0x3d,
  0xcc, 0x33, 0xca, 0x3c, 0xd9, 0x4f, 0xcd, 0xbd, 0x87, 0x96, 0x69, 0x3c,
  0x9e, 0x09, 0xe7, 0x3d, 0x6c, 0x12, 0x71, 0xbd, 0xdb, 0x70, 0x7b, 0xbe,
  0x34, 0xef, 0x47, 0xbc, 0x68, 0xca, 0xee, 0xbc, 0xa6, 0x93, 0x5e, 0x3c,
  0xcc, 0x57, 0x9e, 0x3e, 0x72, 0x5d, 0x5f, 0x3d, 0xa0, 0x9f, 0xa5, 0xbd,
  0x9a, 0xf7, 0xf1, 0x3a, 0x15, 0x0a, 0x02, 0x3d, 0xa9, 0xfb, 0x3a, 0x3d,
  0xdd, 0x83, 0x94, 0xbe, 0x26, 0xd5, 0xaa, 0x3b, 0xce, 0xa7, 0xa5, 0x3e,
  0x94, 0x49, 0x32, 0x3e, 0x09, 0x63, 0x0b, 0xbf, 0x22, 0x27, 0x8d, 0xbe,
  0x46, 0x54, 0xb7, 0xbd, 0x99, 0x9b, 0xf1, 0x3c, 0x2c, 0xde, 0x8b, 0x3d,
  0xf1, 0xb5, 0x16, 0xbd, 0x4e, 0x5c, 0xe9, 0x3d, 0xfa, 0xce, 0xa7, 0xbd,
  0xc6, 0x9e, 0x0d, 0xbf, 0x90, 0xc6, 0x53, 0xbe, 0x94, 0x9c, 0x7d, 0xbe,
  0x2d, 0x6b, 0x3a, 0xbe, 0xcf, 0x34, 0x50, 0x3d, 0x9f, 0x20, 0xb7, 0xbc,
  0xc0, 0x3a, 0x33, 0xbd, 0xaa, 0xf8, 0x67, 0x3e, 0x24, 0x3f, 0xbc, 0xbe,
  0x7a, 0xa1, 0x2b, 0xbe, 0xe7, 0x85, 0x19, 0xbe, 0x89, 0xa3, 0x22, 0xbe,
  0x4e, 0x43, 0x08, 0x3f, 0x68, 0x63, 0x46, 0x3d, 0x54, 0x9a, 0x00, 0x3e,
  0x04, 0x75, 0x93, 0xbd, 0xd8, 0x66, 0x4c, 0x3d, 0x50, 0x0f, 0x5c, 0xbe,
  0xb4, 0x6c, 0x0f, 0xbc, 0x37, 0x54, 0x6e, 0xbe, 0xab, 0x70, 0x18, 0xbd,
  0x5c, 0x54, 0x5a, 0x3c, 0xd1, 0xff, 0xeb, 0xbd, 0x85, 0x6d, 0x7f, 0x3e,
  0xcc, 0xf7, 0x27, 0xbb, 0x7c, 0xe2, 0x61, 0xbd, 0xb7, 0xa5, 0xcb, 0xbe,
  0x90, 0x8b, 0x1b, 0x3e, 0xc0, 0x3a, 0xa6, 0x3e, 0x5c, 0x09, 0x74, 0x3d,
  0x8f, 0x8f, 0x9f, 0x3e, 0x1d, 0xce, 0x16, 0x3e, 0x81, 0x64, 0x46, 0xbe,
  0x94, 0x65, 0x12, 0xbe, 0x92, 0x3d, 0x23, 0xbe, 0x2f, 0x28, 0x9b, 0xbd,
  0x1c, 0xc5, 0x86, 0x3d, 0x1d, 0xd9, 0x99, 0xbc, 0x44, 0x2a, 0x3b, 0xbc,
  0x0a, 0x23, 0xd1, 0x3e, 0x06, 0xc3, 0xaf, 0x3d, 0x1d, 0xba, 0xfa, 0x3d,
  0x28, 0x01, 0x94, 0xbd, 0xc1, 0xfe, 0x37, 0x3c, 0x64, 0x51, 0xcb, 0x3e,
  0x53, 0xc2, 0xa2, 0x3d, 0x46, 0x0e, 0x3d, 0x3d, 0xcc, 0x6a, 0xea, 0x3b,
  0xea, 0x97, 0x7a, 0xbe, 0xb0, 0xcc, 0xa0, 0xbd, 0x9d, 0x03, 0x55, 0xbe,
  0x4e, 0x4e, 0x8c, 0xbe, 0xb3, 0x23, 0x41, 0xbd, 0xdf, 0xd8, 0x02, 0xbd,
  0x40, 0xf6, 0xd2, 0x3d, 0x44, 0xe6, 0x98, 0x3e, 0x3b, 0x79, 0xb5, 0x3d,
  0xe2, 0xd5, 0xfe, 0x3d, 0x94, 0x3c, 0x17, 0x3e, 0x57, 0x16, 0xdc, 0xbd,
  0x71, 0xfd, 0x7c, 0x3d, 0x75, 0x4d, 0x8d, 0x3d, 0xb6, 0x79, 0xb8, 0x3e,
  0x22, 0x5f, 0x23, 0x3e, 0x50, 0x95, 0xc9, 0xbd, 0x83, 0xf4, 0xe6, 0xbd,
  0x02, 0x1f, 0x96, 0xbe, 0x3b, 0xa1, 0xa2, 0xbd, 0x2b, 0x16, 0xd4, 0xba,
  0xbc, 0x61, 0xfa, 0x3c, 0xa0, 0x77, 0x4d, 0x3e, 0x71, 0x08, 0xd6, 0x3e,
  0x19, 0xcd, 0x1a, 0xbe, 0x00, 0x8f, 0x87, 0xbc, 0x6b, 0x49, 0x13, 0xbe,
  0x99, 0xd9, 0x20, 0xbe, 0x17, 0xe5, 0xb0, 0x3d, 0x5d, 0x50, 0xcc, 0x3d,
  0x63, 0xc1, 0x31, 0x3e, 0x0e, 0xe6, 0x04, 0x3e, 0xb3, 0x4a, 0xbd, 0xbe,
  0x6a, 0x49, 0x18, 0xbe, 0x11, 0x52, 0xb0, 0xbe, 0x68, 0xa7, 0xcd, 0xbd,
  0x2c, 0x87, 0x86, 0xbe, 0xac, 0xd0, 0x20, 0x3d, 0x18, 0x02, 0x09, 0x3e,
  0x1d, 0xa5, 0xb6, 0x3c, 0xbf, 0x20, 0x74, 0xbe, 0xf0, 0x2d, 0x86, 0xbe,
  0x38, 0x76, 0xbb, 0x3a, 0x8d, 0x5e, 0x91, 0xbd, 0xb0, 0x83, 0x98, 0x3e,
  0x2b, 0x90, 0x22, 0x3d, 0xb2, 0x4e, 0x0e, 0xbe, 0x95, 0x87, 0x97, 0x3d,
  0x95, 0x0a, 0x3d, 0xbe, 0x64, 0xdd, 0x14, 0x3d, 0x79, 0xaa, 0xb1, 0xbe,
  0x22, 0x5f, 0x4b, 0xbe, 0xbb, 0x69, 0xd2, 0x3c, 0x02, 0x04, 0x17, 0xbe,
  0xe8, 0xf2, 0xcc, 0x3d, 0x07, 0xd7, 0x09, 0x3d, 0x05, 0xb3, 0xc6, 0xbd,
  0x5b, 0x69, 0x35, 0xbe, 0xd8, 0x57, 0x0b, 0x3d, 0xa9, 0x8e, 0x6b, 0xbe,
  0x7b, 0xa2, 0xdd, 0xbd, 0x88, 0x74, 0xf8, 0xbd, 0x3b, 0x2c, 0x0d, 0x3d,
  0x33, 0x43, 0x7d, 0xbe, 0x51, 0xb5, 0xaa, 0x3c, 0x3b, 0x4f, 0xb8, 0xbc,
  0x45, 0x90, 0xc8, 0xbd, 0x8b, 0x3e, 0x4c, 0xbe, 0xfa, 0x2a, 0x78, 0xbe,
  0xa3, 0x1c, 0x88, 0x3d, 0x95, 0x8a, 0x1f, 0x3e, 0x46, 0x7a, 0x40, 0xbe,
  0x61, 0xd3, 0x69, 0xbd, 0x8f, 0x17, 0x18, 0xbe, 0xed, 0xa8, 0xa9, 0x3b,
  0x07, 0xeb, 0x35, 0xbe, 0x7b, 0x35, 0x39, 0xbc, 0x3f, 0x17, 0x8e, 0xbe,
  0x4a, 0x97, 0x39, 0x3d, 0x25, 0xb2, 0x8b, 0xbe, 0x35, 0x52, 0x86, 0xbe,
  0x39, 0xc0, 0x7b, 0xbe, 0x07, 0x6a, 0xc7, 0xbd, 0xaa, 0xfb, 0x57, 0x3c,
  0x42, 0x55, 0xdb, 0x3c, 0xb6, 0x86, 0x60, 0x3d, 0x5f, 0x30, 0x21, 0xbe,
  0x50, 0xf9, 0x23, 0xbe, 0x4d, 0x68, 0x13, 0x3e, 0xd9, 0xbe, 0x22, 0x3d,
  0x90, 0x7d, 0x62, 0x3d, 0x30, 0x69, 0x2d, 0xbd, 0x1f, 0xca, 0x95, 0xbd,
  0xf3, 0x64, 0xa6, 0xbd, 0xc2, 0xbd, 0x1d, 0xbe, 0x88, 0x52, 0x40, 0xbe,
  0x2a, 0x81, 0x03, 0xbe, 0x22, 0x15, 0x7f, 0x3d, 0x50, 0x09, 0x91, 0xbd,
  0x14, 0xc1, 0x43, 0xbe, 0x18, 0xc1, 0xdf, 0x3c, 0x88, 0x5e, 0xba, 0x3c,
  0xf8, 0x34, 0x7c, 0x3d, 0x93, 0x63, 0x36, 0xbd, 0x67, 0xe3, 0x04, 0x3e,
  0xf0, 0xb7, 0x4a, 0xbe, 0xea, 0x10, 0x72, 0xbe, 0x7e, 0x19, 0xa8, 0xbc,
  0x42, 0x11, 0xb8, 0x3d, 0x24, 0xf6, 0x01, 0xbd, 0xab, 0x25, 0x6b, 0x3c,
  0x9e, 0xdd, 0x48, 0xbe, 0xf6, 0x85, 0xe6, 0xbd, 0x7b, 0x92, 0x8a, 0x3d,
  0xe6, 0x20, 0x99, 0x3d, 0xf1, 0x2f, 0x16, 0xbe, 0xc1, 0xd0, 0x16, 0xbe,
  0x05, 0x02, 0xf6, 0x3c, 0x17, 0x72, 0x78, 0xbd, 0xc7, 0xa5, 0x40, 0xbe,
  0x90, 0x64, 0x25, 0xbe, 0x7e, 0x22, 0x36, 0xbe, 0xe7, 0xb2, 0x6c, 0xbe,
  0xfe, 0x2d, 0x22, 0xbd, 0x32, 0x6c, 0x24, 0xbe, 0x46, 0x78, 0xfa, 0xbd,
  0x69, 0x4b, 0xb0, 0x3d, 0x36, 0x9a, 0xbf, 0xbd, 0xb2, 0x3b, 0xb0, 0xbb,
  0x03, 0x4c, 0x85, 0xbe, 0x78, 0xc2, 0x6e, 0xbe, 0xd9, 0x74, 0xff, 0x3d,
  0xcb, 0x0f, 0xba, 0xbd, 0xb6, 0xc9, 0x42, 0xbb, 0x54, 0xff, 0x5f, 0xbe,
  0x91, 0x9e, 0x00, 0xbe, 0x6b, 0x0b, 0xd0, 0xbc, 0x83, 0x72, 0xf2, 0xbc,
  0x0e, 0x72, 0xbe, 0xbd, 0x5b, 0x71, 0x78, 0x3b, 0xac, 0xd0, 0x1f, 0x3e,
  0xae, 0xe7, 0x62, 0xbe, 0xc3, 0xc3, 0x08, 0xbe, 0x92, 0x95, 0x0d, 0xbe,
  0xd6, 0xde, 0x70, 0xbe, 0x87, 0x9e, 0x06, 0xbe, 0x3a, 0x9f, 0x98, 0xbd,
  0xb0, 0x28, 0x50, 0x3d, 0x64, 0x1c, 0x0a, 0xbe, 0xea, 0xa4, 0xa5, 0xbd,
  0x4e, 0x00, 0x5d, 0xbe, 0xf6, 0xff, 0xc3, 0xbe, 0xce, 0x13, 0x6c, 0x39,
  0x1d, 0xca, 0x31, 0xbe, 0xc1, 0x43, 0x2d, 0xbe, 0x45, 0xa7, 0x26, 0xbd,
  0x5f, 0xd7, 0x46, 0xbe, 0xc1, 0xb5, 0x2c, 0xbe, 0x84, 0xd2, 0x8e, 0x3c,
  0x28, 0x51, 0x33, 0xbe, 0xa7, 0xcb, 0xa3, 0xbd, 0x79, 0xba, 0x81, 0xbe,
  0x06, 0xd2, 0x2c, 0xbd, 0x27, 0x99, 0x50, 0xbe, 0x0f, 0x98, 0x9f, 0xbd,
  0x38, 0x49, 0x56, 0xbc, 0x45, 0x40, 0x75, 0xbd, 0x1e, 0x00, 0x9d, 0xbe,
  0x73, 0x04, 0x3b, 0x3e, 0xb9, 0xe8, 0x8f, 0xbe, 0xa0, 0xe5, 0xbe, 0x3e,
  0x83, 0x17, 0x8c, 0x3c, 0xdf, 0xe4, 0xdd, 0x3d, 0x0e, 0xa8, 0xa6, 0xbd,
  0xa2, 0x1e, 0x5c, 0xbe, 0x6c, 0x05, 0x41, 0xbd, 0x06, 0x67, 0x72, 0x3c,
  0x01, 0x61, 0x52, 0xbe, 0x2e, 0x16, 0x22, 0xbd, 0xe9, 0xce, 0x2a, 0xbe,
  0x19, 0xcd, 0xd1, 0x3d, 0x2a, 0x27, 0xee, 0xbd, 0x07, 0x0b, 0x32, 0x3b,
  0x9c, 0x00, 0x80, 0x3d, 0xfe, 0x42, 0x6c, 0xba, 0x64, 0xd8, 0xc7, 0xbe,
  0x6e, 0x8c, 0xb3, 0x3e, 0x4d, 0x96, 0x47, 0xbe, 0x9f, 0x8c, 0xad, 0xbd,
  0x6a, 0xb3, 0x66, 0xbe, 0x39, 0xfd, 0x0c, 0xbe, 0x28, 0x81, 0xd8, 0xbd,
  0xfb, 0xad, 0x9d, 0x3c, 0x51, 0x3a, 0x73, 0xbe, 0x80, 0x4a, 0x05, 0x3c,
  0xde, 0x71, 0x41, 0xbe, 0x3b, 0x9e, 0x25, 0xbe, 0x7a, 0xa4, 0xe2, 0xbb,
  0x60, 0xaf, 0x7a, 0xbe, 0x6e, 0xda, 0x8d, 0xbe, 0xaf, 0xd8, 0x80, 0x3e,
  0x8d, 0x0d, 0x60, 0xbe, 0x71, 0x28, 0x97, 0x3e, 0x66, 0x5b, 0x00, 0xbe,
  0xf6, 0x69, 0xe3, 0xbd, 0xf9, 0x14, 0x67, 0xbd, 0x80, 0x29, 0xe5, 0x3d,
  0x81, 0x28, 0x52, 0x3d, 0x8c, 0xe2, 0x34, 0x3e, 0xeb, 0x67, 0xfb, 0xbd,
  0xd8, 0x9f, 0x14, 0x3e, 0xba, 0xbb, 0xa5, 0xbd, 0x88, 0xf1, 0x11, 0x3e,
  0xa6, 0x8f, 0xff, 0x3d, 0x0e, 0x8a, 0x1a, 0xbe, 0xc5, 0x68, 0x41, 0xbe,
  0x54, 0xf7, 0x51, 0x3e, 0x07, 0x9a, 0x39, 0x3e, 0x72, 0xb1, 0xc1, 0x3e,
  0x18, 0x2d, 0xce, 0xbd, 0x7f, 0x8a, 0x50, 0xbd, 0x48, 0x1e, 0x25, 0xbe,
  0x0c, 0x19, 0xc7, 0xbe, 0xa0, 0xdd, 0x3a, 0x3e, 0x1f, 0xce, 0xd8, 0x3d,
  0x66, 0x8c, 0x92, 0xbe, 0x9f, 0x51, 0xd9, 0xbd, 0xb3, 0xbc, 0x88, 0xbc,
  0x77, 0x80, 0x02, 0xbe, 0xde, 0x48, 0xec, 0x3d, 0x12, 0xb6, 0x2f, 0xbc,
  0xa0, 0xcc, 0x6a, 0xbe, 0x5e, 0x9f, 0x6e, 0x3d, 0x79, 0x01, 0x81, 0x3e,
  0x25, 0x7f, 0x3d, 0x3f, 0x76, 0x66, 0x4a, 0x3c, 0x59, 0xfc, 0x53, 0xbe,
  0x86, 0x96, 0x94, 0x3c, 0x0f, 0x30, 0xbb, 0x3d, 0xdb, 0x79, 0x8d, 0x3d,
  0x67, 0x42, 0xd2, 0x3c, 0xeb, 0x4a, 0x8c, 0xbe, 0x21, 0x51, 0x34, 0xbd,
  0x46, 0xeb, 0x14, 0x3c, 0x75, 0xd5, 0x18, 0xbe, 0x8b, 0x81, 0x0d, 0xbd,
  0x7a, 0x15, 0x6a, 0xbe, 0xa9, 0x25, 0x2f, 0xbe, 0x9c, 0xe4, 0x71, 0xbe,
  0x64, 0xe0, 0x35, 0x3e, 0x0f, 0xb8, 0x51, 0x3f, 0x9d, 0xfd, 0x23, 0x3e,
  0x72, 0xfa, 0x98, 0xbe, 0xea, 0xee, 0x0a, 0xbe, 0x27, 0x60, 0x3f, 0xbd,
  0x00, 0xca, 0x11, 0x3d, 0xee, 0x2b, 0x87, 0x3e, 0x78, 0x64, 0x38, 0xbe,
  0x9a, 0x84, 0xd7, 0xbb, 0xa9, 0x0a, 0xf1, 0xbd, 0xa8, 0x1f, 0xec, 0xbd,
  0x6b, 0x5f, 0xb8, 0xbd, 0x3a, 0x15, 0x83, 0xbe, 0x44, 0xe6, 0x3b, 0xbe,
  0x53, 0x1a, 0x32, 0xbe, 0x2b, 0x65, 0x05, 0x3e, 0xb2, 0xeb, 0xa6, 0x3e,
  0x73, 0xfa, 0x11, 0x3e, 0x7f, 0xa9, 0x39, 0xbd, 0xf7, 0x84, 0xf6, 0xbd,
  0x9e, 0xcb, 0x1f, 0xbe, 0x39, 0xfb, 0x51, 0xbe, 0xb0, 0xe9, 0xcc, 0x3d,
  0xc0, 0x7e, 0x1d, 0xbe, 0xc0, 0xb1, 0xb0, 0x3d, 0xf0, 0x0b, 0x3d, 0xbe,
  0x56, 0x1f, 0x51, 0xbc, 0xa9, 0xa3, 0x06, 0xbf, 0x20, 0x47, 0x57, 0xbf,
  0x0d, 0xf5, 0x0f, 0xbe, 0xa2, 0xd5, 0xee, 0x3e, 0x16, 0xc4, 0x87, 0xbe,
  0x52, 0x61, 0x90, 0x3f, 0xc7, 0xb3, 0x13, 0x3f, 0xe3, 0x07, 0xf9, 0xbc,
  0x00, 0xc3, 0xeb, 0x3c, 0x12, 0x7f, 0x69, 0x3d, 0x3e, 0xeb, 0x9c, 0xbe,
  0xf8, 0x0c, 0xc4, 0xbd, 0x47, 0x5e, 0x8a, 0x3e, 0xd8, 0x91, 0x25, 0xbd,
  0xa3, 0x5d, 0xbb, 0xbe, 0xa6, 0x70, 0xd3, 0xbc, 0xc5, 0x33, 0x9b, 0xbe,
  0xc7, 0x7f, 0x37, 0xbf, 0x79, 0x62, 0x2c, 0xbe, 0x16, 0xf6, 0x54, 0x3d,
  0x8b, 0xf2, 0x90, 0x3c, 0xac, 0x1d, 0xbe, 0x3e, 0x19, 0x34, 0xc2, 0x3e,
  0x98, 0x1d, 0xe0, 0xbe, 0x22, 0x03, 0x8d, 0xbd, 0xae, 0xbb, 0x4f, 0x3e,
  0x6a, 0x91, 0x92, 0xbe, 0x59, 0x53, 0x59, 0x3e, 0x31, 0xd6, 0x30, 0x3e,
  0x9f, 0x56, 0x92, 0x3e, 0x1d, 0xa8, 0x41, 0xbe, 0x49, 0x9b, 0xf0, 0x3d,
  0xbf, 0xb8, 0xca, 0xbe, 0x8c, 0x2c, 0xf9, 0xbe, 0x8a, 0xc6, 0xab, 0xbc,
  0x0e, 0x56, 0x23, 0x3e, 0xe4, 0xfc, 0xbe, 0xbd, 0x6d, 0xd5, 0xfa, 0xbd,
  0x3a, 0x6c, 0x5f, 0x3e, 0x6f, 0x28, 0x8c, 0xbe, 0x91, 0xc8, 0x42, 0x3c,
  0x71, 0x91, 0x90, 0x3e, 0x98, 0x05, 0x81, 0xbc, 0xd7, 0xd4, 0x8e, 0x3c,
  0x64, 0xa5, 0x8c, 0x3b, 0xd4, 0x19, 0x95, 0x3e, 0xdf, 0x76, 0x31, 0xbe,
  0x40, 0x1f, 0x36, 0x3e, 0x33, 0x29, 0x8a, 0xbd, 0xdc, 0xb2, 0x9c, 0xbe,
  0x30, 0x46, 0x88, 0xbe, 0x17, 0xb9, 0x29, 0x3e, 0xa5, 0x40, 0x22, 0xbe,
  0x7a, 0x49, 0x76, 0x3f, 0x9b, 0x52, 0x00, 0xbc, 0x80, 0xfc, 0x27, 0x3e,
  0x12, 0xa7, 0x08, 0x3d, 0xea, 0xb3, 0xcb, 0x3c, 0x42, 0xcf, 0x00, 0x3d,
  0x9c, 0x9d, 0xd7, 0x3d, 0x0d, 0x13, 0x48, 0x3e, 0x80, 0xe6, 0x4f, 0x3e,
  0x69, 0x23, 0xb8, 0xbd, 0x3a, 0x49, 0x94, 0x3d, 0x4b, 0x08, 0x12, 0xbe,
  0x9c, 0x1b, 0x16, 0x3e, 0xaa, 0xf3, 0x16, 0xbf, 0xd7, 0xad, 0xbc, 0x3e,
  0x8b, 0x52, 0x5e, 0x3c, 0xe7, 0x89, 0x4d, 0x3f, 0x69, 0xc2, 0xa4, 0x3e,
  0xe7, 0x4a, 0xd5, 0xbd, 0x3f, 0x3f, 0x86, 0x3b, 0x89, 0xd4, 0x41, 0xbe,
  0x7b, 0x71, 0xca, 0xbe, 0x1d, 0x9c, 0xec, 0xbe, 0xae, 0x3c, 0x15, 0x3e,
  0x44, 0x91, 0x5b, 0x3e, 0x6b, 0xe3, 0x08, 0xbf, 0x7a, 0x19, 0x2a, 0x3a,
  0xae, 0xac, 0xeb, 0xbd, 0x71, 0xea, 0x3b, 0x3e, 0x47, 0x7a, 0x54, 0xbe,
  0x34, 0x2a, 0xc2, 0x3e, 0xf1, 0x18, 0x90, 0xbe, 0xb7, 0x48, 0xa3, 0x3c,
  0xf9, 0x3e, 0xf3, 0x3d, 0xe2, 0x0d, 0x5b, 0xbe, 0x08, 0x60, 0x9c, 0x3c,
  0x5e, 0x10, 0x94, 0xbd, 0x7c, 0x2e, 0x48, 0xbe, 0x14, 0x6c, 0x65, 0xbe,
  0xba, 0x33, 0x49, 0x3e, 0x5b, 0x77, 0x27, 0x3e, 0xaa, 0x15, 0x9a, 0xbe,
  0x0c, 0x02, 0xd8, 0xbc, 0x4a, 0xbe, 0x0d, 0xbe, 0x49, 0xc8, 0xab, 0xbd,
  0x70, 0xe8, 0x22, 0xbe, 0x37, 0x8b, 0x04, 0x3e, 0x05, 0x95, 0x69, 0x3d,
  0x20, 0x6c, 0x0b, 0x3f, 0x8b, 0x0b, 0x08, 0x3e, 0xa1, 0x86, 0x0d, 0xbe,
  0x36, 0xeb, 0xad, 0xbd, 0x5b, 0x33, 0x79, 0xbe, 0x0b, 0x5c, 0x8e, 0xbe,
  0x3b, 0x77, 0xc9, 0xbe, 0xd5, 0xf5, 0x92, 0xbc, 0x3d, 0x27, 0x3e, 0x3e,
  0xa0, 0xaf, 0x2b, 0xbd, 0x42, 0xfe, 0xff, 0xff, 0x10, 0x00, 0x00, 0x00,
  0x05, 0x00, 0x00, 0x00, 0x14, 0x00, 0x00, 0x00, 0x2c, 0x00, 0x00, 0x00,
  0x02, 0x00, 0x00, 0x00, 0x10, 0x00, 0x00, 0x00, 0x70, 0x00, 0x00, 0x00,
  0x17, 0x00, 0x00, 0x00, 0x73, 0x65, 0x71, 0x75, 0x65, 0x6e, 0x74, 0x69,
  0x61, 0x6c, 0x2f, 0x64, 0x65, 0x6e, 0x73, 0x65, 0x2f, 0x4d, 0x61, 0x74,
  0x4d, 0x75, 0x6c, 0x00, 0x30, 0xfe, 0xff, 0xff, 0x26, 0xff, 0xff, 0xff,
  0x04, 0x00, 0x00, 0x00, 0x08, 0x00, 0x00, 0x00, 0xff, 0xff, 0xff, 0xff,
  0x70, 0x00, 0x00, 0x00, 0x00, 0x00, 0x0e, 0x00, 0x18, 0x00, 0x08, 0x00,
  0x07, 0x00, 0x0c, 0x00, 0x10, 0x00, 0x14, 0x00, 0x0e, 0x00, 0x00, 0x00,
  0x00, 0x00, 0x00, 0x02, 0x10, 0x00, 0x00, 0x00, 0x04, 0x00, 0x00, 0x00,
  0x10, 0x00, 0x00, 0x00, 0x2c, 0x00, 0x00, 0x00, 0x01, 0x00, 0x00, 0x00,
  0x02, 0x00, 0x00, 0x00, 0x18, 0x00, 0x00, 0x00, 0x73, 0x65, 0x71, 0x75,
  0x65, 0x6e, 0x74, 0x69, 0x61, 0x6c, 0x2f, 0x66, 0x6c, 0x61, 0x74, 0x74,
  0x65, 0x6e, 0x2f, 0x43, 0x6f, 0x6e, 0x73, 0x74, 0x00, 0x00, 0x00, 0x00,
  0x98, 0xfe, 0xff, 0xff, 0x8e, 0xff, 0xff, 0xff, 0x04, 0x00, 0x00, 0x00,
  0x14, 0x00, 0x00, 0x00, 0x5c, 0xab, 0x32, 0xc0, 0xb2, 0xd5, 0xb1, 0xc0,
  0x62, 0x4a, 0xa6, 0x3e, 0x6d, 0xad, 0xb8, 0x3f, 0x6f, 0x46, 0x86, 0x3f,
  0x0a, 0xff, 0xff, 0xff, 0x10, 0x00, 0x00, 0x00, 0x03, 0x00, 0x00, 0x00,
  0x10, 0x00, 0x00, 0x00, 0x3c, 0x00, 0x00, 0x00, 0x01, 0x00, 0x00, 0x00,
  0x05, 0x00, 0x00, 0x00, 0x29, 0x00, 0x00, 0x00, 0x73, 0x65, 0x71, 0x75,
  0x65, 0x6e, 0x74, 0x69, 0x61, 0x6c, 0x2f, 0x64, 0x65, 0x6e, 0x73, 0x65,
  0x5f, 0x31, 0x2f, 0x42, 0x69, 0x61, 0x73, 0x41, 0x64, 0x64, 0x2f, 0x52,
  0x65, 0x61, 0x64, 0x56, 0x61, 0x72, 0x69, 0x61, 0x62, 0x6c, 0x65, 0x4f,
  0x70, 0x00, 0x00, 0x00, 0x60, 0xff, 0xff, 0xff, 0x00, 0x00, 0x06, 0x00,
  0x08, 0x00, 0x04, 0x00, 0x06, 0x00, 0x00, 0x00, 0x04, 0x00, 0x00, 0x00,
  0x40, 0x00, 0x00, 0x00, 0x93, 0x79, 0xbe, 0xbe, 0xe9, 0xf1, 0x6a, 0x3e,
  0xa3, 0x7c, 0x70, 0x40, 0xd2, 0x2c, 0xd1, 0xbf, 0x7c, 0x87, 0xd4, 0x3f,
  0xb1, 0xdd, 0xb9, 0xbf, 0xab, 0x04, 0x99, 0xbe, 0x2e, 0xb2, 0xdf, 0x3f,
  0xbb, 0xa2, 0x04, 0x3f, 0x2a, 0x8d, 0x92, 0xbe, 0x12, 0xff, 0xea, 0xbe,
  0x0a, 0x5a, 0xe5, 0xbf, 0x0b, 0x8a, 0x21, 0x40, 0x9a, 0xd0, 0x90, 0xbe,
  0x2e, 0xa9, 0xc1, 0xbd, 0xfb, 0xd8, 0x19, 0xbf, 0xae, 0xff, 0xff, 0xff,
  0x10, 0x00, 0x00, 0x00, 0x02, 0x00, 0x00, 0x00, 0x10, 0x00, 0x00, 0x00,
  0x3c, 0x00, 0x00, 0x00, 0x01, 0x00, 0x00, 0x00, 0x10, 0x00, 0x00, 0x00,
  0x27, 0x00, 0x00, 0x00, 0x73, 0x65, 0x71, 0x75, 0x65, 0x6e, 0x74, 0x69,
  0x61, 0x6c, 0x2f, 0x64, 0x65, 0x6e, 0x73, 0x65, 0x2f, 0x42, 0x69, 0x61,
  0x73, 0x41, 0x64, 0x64, 0x2f, 0x52, 0x65, 0x61, 0x64, 0x56, 0x61, 0x72,
  0x69, 0x61, 0x62, 0x6c, 0x65, 0x4f, 0x70, 0x00, 0x04, 0x00, 0x06, 0x00,
  0x04, 0x00, 0x00, 0x00, 0x00, 0x00, 0x0e, 0x00, 0x14, 0x00, 0x04, 0x00,
  0x00, 0x00, 0x08, 0x00, 0x0c, 0x00, 0x10, 0x00, 0x0e, 0x00, 0x00, 0x00,
  0x10, 0x00, 0x00, 0x00, 0x01, 0x00, 0x00, 0x00, 0x1c, 0x00, 0x00, 0x00,
  0x2c, 0x00, 0x00, 0x00, 0x04, 0x00, 0x00, 0x00, 0x01, 0x00, 0x00, 0x00,
  0x40, 0x00, 0x00, 0x00, 0x03, 0x00, 0x00, 0x00, 0x01, 0x00, 0x00, 0x00,
  0x0c, 0x00, 0x00, 0x00, 0x63, 0x6f, 0x6e, 0x76, 0x32, 0x64, 0x5f, 0x69,
  0x6e, 0x70, 0x75, 0x74, 0x00, 0x00, 0x00, 0x00, 0xfc, 0xff, 0xff, 0xff,
  0x04, 0x00, 0x04, 0x00, 0x04, 0x00, 0x00, 0x00

  

};


unsigned int model_tflite_len = 12452;// Fill the int in `src/model.cc` here
