#include "magic_wand_model_data.h"


// We need to keep the data array aligned on some architectures.

#ifdef __has_attribute

#define HAVE_ATTRIBUTE(x) __has_attribute(x)

#else

#define HAVE_ATTRIBUTE(x) 0

#endif

#if HAVE_ATTRIBUTE(aligned) || (defined(__GNUC__) && !defined(__clang__))

#define DATA_ALIGN_ATTRIBUTE __attribute__((aligned(4)))

#else

#define DATA_ALIGN_ATTRIBUTE

#endif


const unsigned char g_magic_wand_model_data[] DATA_ALIGN_ATTRIBUTE = {

  // Paste the data of the char array in `src/model.cc` here
  0x08, 0x00, 0x00, 0x00, 0x54, 0x46, 0x4c, 0x33, 0x62, 0xff, 0xff, 0xff,
  0x03, 0x00, 0x00, 0x00, 0x10, 0x00, 0x00, 0x00, 0x24, 0x00, 0x00, 0x00,
  0x78, 0x00, 0x00, 0x00, 0x24, 0x00, 0x00, 0x00, 0x05, 0x00, 0x00, 0x00,
  0x78, 0x05, 0x00, 0x00, 0xb0, 0x04, 0x00, 0x00, 0xe0, 0x02, 0x00, 0x00,
  0x60, 0x02, 0x00, 0x00, 0x54, 0x01, 0x00, 0x00, 0x01, 0x00, 0x00, 0x00,
  0x78, 0x00, 0x00, 0x00, 0x13, 0x00, 0x00, 0x00, 0xd4, 0x2f, 0x00, 0x00,
  0xd0, 0x2f, 0x00, 0x00, 0xdc, 0x2e, 0x00, 0x00, 0x68, 0x2e, 0x00, 0x00,
  0xfc, 0x2d, 0x00, 0x00, 0xac, 0x11, 0x00, 0x00, 0x98, 0x10, 0x00, 0x00,
  0xbc, 0x0e, 0x00, 0x00, 0x60, 0x06, 0x00, 0x00, 0xfc, 0x05, 0x00, 0x00,
  0x78, 0x05, 0x00, 0x00, 0xa8, 0x2f, 0x00, 0x00, 0xa4, 0x2f, 0x00, 0x00,
  0xa0, 0x2f, 0x00, 0x00, 0x9c, 0x2f, 0x00, 0x00, 0x98, 0x2f, 0x00, 0x00,
  0x94, 0x2f, 0x00, 0x00, 0x90, 0x2f, 0x00, 0x00, 0x8c, 0x2f, 0x00, 0x00,
  0x0f, 0x00, 0x00, 0x00, 0x4d, 0x4c, 0x49, 0x52, 0x20, 0x43, 0x6f, 0x6e,
  0x76, 0x65, 0x72, 0x74, 0x65, 0x64, 0x2e, 0x00, 0x00, 0x00, 0x0e, 0x00,
  0x18, 0x00, 0x04, 0x00, 0x08, 0x00, 0x0c, 0x00, 0x10, 0x00, 0x14, 0x00,
  0x0e, 0x00, 0x00, 0x00, 0x14, 0x00, 0x00, 0x00, 0x5c, 0x00, 0x00, 0x00,
  0x60, 0x00, 0x00, 0x00, 0x64, 0x00, 0x00, 0x00, 0x84, 0x00, 0x00, 0x00,
  0x12, 0x00, 0x00, 0x00, 0x04, 0x2f, 0x00, 0x00, 0xa0, 0x2e, 0x00, 0x00,
  0xf8, 0x2d, 0x00, 0x00, 0x98, 0x2d, 0x00, 0x00, 0x30, 0x2d, 0x00, 0x00,
  0xdc, 0x10, 0x00, 0x00, 0xc0, 0x0f, 0x00, 0x00, 0xe4, 0x0d, 0x00, 0x00,
  0xa0, 0x05, 0x00, 0x00, 0x3c, 0x05, 0x00, 0x00, 0xb0, 0x04, 0x00, 0x00,
  0xe8, 0x03, 0x00, 0x00, 0x38, 0x03, 0x00, 0x00, 0xa4, 0x02, 0x00, 0x00,
  0x10, 0x02, 0x00, 0x00, 0x90, 0x01, 0x00, 0x00, 0xfc, 0x00, 0x00, 0x00,
  0x80, 0x00, 0x00, 0x00, 0x01, 0x00, 0x00, 0x00, 0x00, 0x00, 0x00, 0x00,
  0x01, 0x00, 0x00, 0x00, 0x11, 0x00, 0x00, 0x00, 0x08, 0x00, 0x00, 0x00,
  0x1c, 0x04, 0x00, 0x00, 0x58, 0x03, 0x00, 0x00, 0xc8, 0x02, 0x00, 0x00,
  0x24, 0x02, 0x00, 0x00, 0xac, 0x01, 0x00, 0x00, 0x10, 0x01, 0x00, 0x00,
  0x94, 0x00, 0x00, 0x00, 0x10, 0x00, 0x00, 0x00, 0x04, 0x00, 0x00, 0x00,
  0x6d, 0x61, 0x69, 0x6e, 0x00, 0x00, 0x00, 0x00, 0x8e, 0xff, 0xff, 0xff,
  0x00, 0x00, 0x00, 0x09, 0x04, 0x00, 0x00, 0x00, 0x1c, 0x00, 0x00, 0x00,
  0x10, 0x00, 0x00, 0x00, 0x04, 0x00, 0x00, 0x00, 0x4e, 0xd2, 0xff, 0xff,
  0x00, 0x00, 0x80, 0x3f, 0x01, 0x00, 0x00, 0x00, 0x11, 0x00, 0x00, 0x00,
  0x01, 0x00, 0x00, 0x00, 0x10, 0x00, 0x00, 0x00, 0xf6, 0xfb, 0xff, 0xff,
  0x00, 0x00, 0x00, 0x19, 0x01, 0x00, 0x00, 0x00, 0xce, 0xd1, 0xff, 0xff,
  0x10, 0x00, 0x00, 0x00, 0x12, 0x00, 0x00, 0x00, 0x14, 0x00, 0x00, 0x00,
  0x20, 0x00, 0x00, 0x00, 0x02, 0x00, 0x00, 0x00, 0x01, 0x00, 0x00, 0x00,
  0x03, 0x00, 0x00, 0x00, 0x08, 0x00, 0x00, 0x00, 0x49, 0x64, 0x65, 0x6e,
  0x74, 0x69, 0x74, 0x79, 0x00, 0x00, 0x00, 0x00, 0x08, 0xd2, 0xff, 0xff,
  0x00, 0x00, 0x0e, 0x00, 0x18, 0x00, 0x08, 0x00, 0x0c, 0x00, 0x10, 0x00,
  0x07, 0x00, 0x14, 0x00, 0x0e, 0x00, 0x00, 0x00, 0x00, 0x00, 0x00, 0x08,
  0x03, 0x00, 0x00, 0x00, 0x18, 0x00, 0x00, 0x00, 0x0c, 0x00, 0x00, 0x00,
  0x04, 0x00, 0x00, 0x00, 0xdc, 0xd1, 0xff, 0xff, 0x01, 0x00, 0x00, 0x00,
  0x10, 0x00, 0x00, 0x00, 0x03, 0x00, 0x00, 0x00, 0x0f, 0x00, 0x00, 0x00,
  0x05, 0x00, 0x00, 0x00, 0x02, 0x00, 0x00, 0x00, 0x46, 0xd2, 0xff, 0xff,
  0x10, 0x00, 0x00, 0x00, 0x11, 0x00, 0x00, 0x00, 0x14, 0x00, 0x00, 0x00,
  0x30, 0x00, 0x00, 0x00, 0x02, 0x00, 0x00, 0x00, 0x01, 0x00, 0x00, 0x00,
  0x03, 0x00, 0x00, 0x00, 0x1a, 0x00, 0x00, 0x00, 0x73, 0x65, 0x71, 0x75,
  0x65, 0x6e, 0x74, 0x69, 0x61, 0x6c, 0x2f, 0x64, 0x65, 0x6e, 0x73, 0x65,
  0x5f, 0x31, 0x2f, 0x42, 0x69, 0x61, 0x73, 0x41, 0x64, 0x64, 0x00, 0x00,
  0x38, 0xd2, 0xff, 0xff, 0xd6, 0xfd, 0xff, 0xff, 0x00, 0x00, 0x00, 0x08,
  0x03, 0x00, 0x00, 0x00, 0x24, 0x00, 0x00, 0x00, 0x18, 0x00, 0x00, 0x00,
  0x0c, 0x00, 0x00, 0x00, 0x00, 0x00, 0x06, 0x00, 0x08, 0x00, 0x07, 0x00,
  0x06, 0x00, 0x00, 0x00, 0x00, 0x00, 0x00, 0x01, 0x01, 0x00, 0x00, 0x00,
  0x0f, 0x00, 0x00, 0x00, 0x03, 0x00, 0x00, 0x00, 0x0e, 0x00, 0x00, 0x00,
  0x04, 0x00, 0x00, 0x00, 0x01, 0x00, 0x00, 0x00, 0xfe, 0xfc, 0xff, 0xff,
  0x00, 0x00, 0x00, 0x09, 0x01, 0x00, 0x00, 0x00, 0xd6, 0xd2, 0xff, 0xff,
  0x10, 0x00, 0x00, 0x00, 0x10, 0x00, 0x00, 0x00, 0x14, 0x00, 0x00, 0x00,
  0x2c, 0x00, 0x00, 0x00, 0x02, 0x00, 0x00, 0x00, 0x01, 0x00, 0x00, 0x00,
  0x10, 0x00, 0x00, 0x00, 0x15, 0x00, 0x00, 0x00, 0x73, 0x65, 0x71, 0x75,
  0x65, 0x6e, 0x74, 0x69, 0x61, 0x6c, 0x2f, 0x64, 0x65, 0x6e, 0x73, 0x65,
  0x2f, 0x52, 0x65, 0x6c, 0x75, 0x00, 0x00, 0x00, 0x1c, 0xd3, 0xff, 0xff,
  0x00, 0x00, 0x0a, 0x00, 0x10, 0x00, 0x04, 0x00, 0x08, 0x00, 0x0c, 0x00,
  0x0a, 0x00, 0x00, 0x00, 0x02, 0x00, 0x00, 0x00, 0x10, 0x00, 0x00, 0x00,
  0x04, 0x00, 0x00, 0x00, 0x01, 0x00, 0x00, 0x00, 0x0e, 0x00, 0x00, 0x00,
  0x02, 0x00, 0x00, 0x00, 0x0d, 0x00, 0x00, 0x00, 0x03, 0x00, 0x00, 0x00,
  0x7a, 0xfd, 0xff, 0xff, 0x00, 0x00, 0x00, 0x16, 0x01, 0x00, 0x00, 0x00,
  0x52, 0xd3, 0xff, 0xff, 0x10, 0x00, 0x00, 0x00, 0x0f, 0x00, 0x00, 0x00,
  0x14, 0x00, 0x00, 0x00, 0x30, 0x00, 0x00, 0x00, 0x02, 0x00, 0x00, 0x00,
  0x01, 0x00, 0x00, 0x00, 0x70, 0x00, 0x00, 0x00, 0x1a, 0x00, 0x00, 0x00,
  0x73, 0x65, 0x71, 0x75, 0x65, 0x6e, 0x74, 0x69, 0x61, 0x6c, 0x2f, 0x66,
  0x6c, 0x61, 0x74, 0x74, 0x65, 0x6e, 0x2f, 0x52, 0x65, 0x73, 0x68, 0x61,
  0x70, 0x65, 0x00, 0x00, 0x44, 0xd3, 0xff, 0xff, 0xe2, 0xfe, 0xff, 0xff,
  0x00, 0x00, 0x00, 0x05, 0x01, 0x00, 0x00, 0x00, 0x38, 0x00, 0x00, 0x00,
  0x2c, 0x00, 0x00, 0x00, 0x14, 0x00, 0x00, 0x00, 0x00, 0x00, 0x0e, 0x00,
  0x14, 0x00, 0x00, 0x00, 0x10, 0x00, 0x0c, 0x00, 0x08, 0x00, 0x04, 0x00,
  0x0e, 0x00, 0x00, 0x00, 0x03, 0x00, 0x00, 0x00, 0x01, 0x00, 0x00, 0x00,
  0x03, 0x00, 0x00, 0x00, 0x01, 0x00, 0x00, 0x00, 0x01, 0x00, 0x00, 0x00,
  0x0d, 0x00, 0x00, 0x00, 0x01, 0x00, 0x00, 0x00, 0x0c, 0x00, 0x00, 0x00,
  0xe2, 0xd3, 0xff, 0xff, 0x10, 0x00, 0x00, 0x00, 0x0e, 0x00, 0x00, 0x00,
  0x1c, 0x00, 0x00, 0x00, 0x40, 0x00, 0x00, 0x00, 0x04, 0x00, 0x00, 0x00,
  0x01, 0x00, 0x00, 0x00, 0x07, 0x00, 0x00, 0x00, 0x01, 0x00, 0x00, 0x00,
  0x10, 0x00, 0x00, 0x00, 0x22, 0x00, 0x00, 0x00, 0x73, 0x65, 0x71, 0x75,
  0x65, 0x6e, 0x74, 0x69, 0x61, 0x6c, 0x2f, 0x6d, 0x61, 0x78, 0x5f, 0x70,
  0x6f, 0x6f, 0x6c, 0x69, 0x6e, 0x67, 0x32, 0x64, 0x5f, 0x31, 0x2f, 0x4d,
  0x61, 0x78, 0x50, 0x6f, 0x6f, 0x6c, 0x00, 0x00, 0xe4, 0xd3, 0xff, 0xff,
  0xc2, 0xfe, 0xff, 0xff, 0x00, 0x00, 0x00, 0x01, 0x24, 0x00, 0x00, 0x00,
  0x18, 0x00, 0x00, 0x00, 0x04, 0x00, 0x00, 0x00, 0xb4, 0xfe, 0xff, 0xff,
  0x01, 0x00, 0x00, 0x00, 0x01, 0x00, 0x00, 0x00, 0x00, 0x00, 0x00, 0x01,
  0x01, 0x00, 0x00, 0x00, 0x0c, 0x00, 0x00, 0x00, 0x03, 0x00, 0x00, 0x00,
  0x0b, 0x00, 0x00, 0x00, 0x07, 0x00, 0x00, 0x00, 0x09, 0x00, 0x00, 0x00,
  0x72, 0xd4, 0xff, 0xff, 0x10, 0x00, 0x00, 0x00, 0x0d, 0x00, 0x00, 0x00,
  0x1c, 0x00, 0x00, 0x00, 0x2c, 0x00, 0x00, 0x00, 0x04, 0x00, 0x00, 0x00,
  0x01, 0x00, 0x00, 0x00, 0x15, 0x00, 0x00, 0x00, 0x01, 0x00, 0x00, 0x00,
  0x10, 0x00, 0x00, 0x00, 0x0c, 0x00, 0x00, 0x00, 0x74, 0x66, 0x6c, 0x2e,
  0x63, 0x6f, 0x6e, 0x76, 0x5f, 0x32, 0x64, 0x31, 0x00, 0x00, 0x00, 0x00,
  0xb8, 0xd4, 0xff, 0xff, 0x00, 0x00, 0x0e, 0x00, 0x1a, 0x00, 0x08, 0x00,
  0x0c, 0x00, 0x10, 0x00, 0x07, 0x00, 0x14, 0x00, 0x0e, 0x00, 0x00, 0x00,
  0x00, 0x00, 0x00, 0x05, 0x01, 0x00, 0x00, 0x00, 0x3c, 0x00, 0x00, 0x00,
  0x30, 0x00, 0x00, 0x00, 0x14, 0x00, 0x00, 0x00, 0x00, 0x00, 0x0e, 0x00,
  0x18, 0x00, 0x17, 0x00, 0x10, 0x00, 0x0c, 0x00, 0x08, 0x00, 0x04, 0x00,
  0x0e, 0x00, 0x00, 0x00, 0x03, 0x00, 0x00, 0x00, 0x03, 0x00, 0x00, 0x00,
  0x03, 0x00, 0x00, 0x00, 0x03, 0x00, 0x00, 0x00, 0x00, 0x00, 0x00, 0x01,
  0x01, 0x00, 0x00, 0x00, 0x0b, 0x00, 0x00, 0x00, 0x01, 0x00, 0x00, 0x00,
  0x0a, 0x00, 0x00, 0x00, 0x46, 0xff, 0xff, 0xff, 0x00, 0x00, 0x00, 0x11,
  0x01, 0x00, 0x00, 0x00, 0x1e, 0xd5, 0xff, 0xff, 0x10, 0x00, 0x00, 0x00,
  0x0c, 0x00, 0x00, 0x00, 0x1c, 0x00, 0x00, 0x00, 0x40, 0x00, 0x00, 0x00,
  0x04, 0x00, 0x00, 0x00, 0x01, 0x00, 0x00, 0x00, 0x15, 0x00, 0x00, 0x00,
  0x01, 0x00, 0x00, 0x00, 0x08, 0x00, 0x00, 0x00, 0x20, 0x00, 0x00, 0x00,
  0x73, 0x65, 0x71, 0x75, 0x65, 0x6e, 0x74, 0x69, 0x61, 0x6c, 0x2f, 0x6d,
  0x61, 0x78, 0x5f, 0x70, 0x6f, 0x6f, 0x6c, 0x69, 0x6e, 0x67, 0x32, 0x64,
  0x2f, 0x4d, 0x61, 0x78, 0x50, 0x6f, 0x6f, 0x6c, 0x00, 0x00, 0x00, 0x00,
  0x78, 0xd5, 0xff, 0xff, 0x00, 0x00, 0x0e, 0x00, 0x14, 0x00, 0x00, 0x00,
  0x08, 0x00, 0x0c, 0x00, 0x07, 0x00, 0x10, 0x00, 0x0e, 0x00, 0x00, 0x00,
  0x00, 0x00, 0x00, 0x01, 0x30, 0x00, 0x00, 0x00, 0x24, 0x00, 0x00, 0x00,
  0x10, 0x00, 0x00, 0x00, 0x0c, 0x00, 0x10, 0x00, 0x00, 0x00, 0x04, 0x00,
  0x08, 0x00, 0x0f, 0x00, 0x0c, 0x00, 0x00, 0x00, 0x01, 0x00, 0x00, 0x00,
  0x01, 0x00, 0x00, 0x00, 0x00, 0x00, 0x00, 0x01, 0x01, 0x00, 0x00, 0x00,
  0x0a, 0x00, 0x00, 0x00, 0x03, 0x00, 0x00, 0x00, 0x00, 0x00, 0x00, 0x00,
  0x06, 0x00, 0x00, 0x00, 0x08, 0x00, 0x00, 0x00, 0x00, 0x00, 0x0a, 0x00,
  0x0c, 0x00, 0x07, 0x00, 0x00, 0x00, 0x08, 0x00, 0x0a, 0x00, 0x00, 0x00,
  0x00, 0x00, 0x00, 0x03, 0x01, 0x00, 0x00, 0x00, 0xe2, 0xd5, 0xff, 0xff,
  0x10, 0x00, 0x00, 0x00, 0x0b, 0x00, 0x00, 0x00, 0x1c, 0x00, 0x00, 0x00,
  0x28, 0x00, 0x00, 0x00, 0x04, 0x00, 0x00, 0x00, 0x01, 0x00, 0x00, 0x00,
  0x40, 0x00, 0x00, 0x00, 0x03, 0x00, 0x00, 0x00, 0x08, 0x00, 0x00, 0x00,
  0x0b, 0x00, 0x00, 0x00, 0x74, 0x66, 0x6c, 0x2e, 0x63, 0x6f, 0x6e, 0x76,
  0x5f, 0x32, 0x64, 0x00, 0xcc, 0xd5, 0xff, 0xff, 0xc2, 0xd6, 0xff, 0xff,
  0x04, 0x00, 0x00, 0x00, 0x40, 0x00, 0x00, 0x00, 0xec, 0x62, 0xa4, 0xbf,
  0xab, 0x3f, 0x27, 0xc0, 0xf9, 0x0f, 0xe5, 0xbc, 0x8b, 0xfc, 0x2a, 0xc0,
  0xc7, 0x72, 0x1d, 0xc0, 0x94, 0xe9, 0x0e, 0xc0, 0xc6, 0x11, 0xd7, 0xbf,
  0x87, 0xee, 0x91, 0xbe, 0x4f, 0xe9, 0x8e, 0xbf, 0x4b, 0xa9, 0x4c, 0xbc,
  0x9a, 0x33, 0xa2, 0xbd, 0xad, 0xc5, 0x63, 0x3b, 0xf8, 0xc4, 0xf2, 0xbe,
  0x21, 0x2f, 0xdf, 0xbf, 0x7e, 0x85, 0x09, 0xc0, 0xe9, 0x79, 0x25, 0x3d,
  0x6a, 0xd6, 0xff, 0xff, 0x10, 0x00, 0x00, 0x00, 0x0a, 0x00, 0x00, 0x00,
  0x10, 0x00, 0x00, 0x00, 0x20, 0x00, 0x00, 0x00, 0x01, 0x00, 0x00, 0x00,
  0x10, 0x00, 0x00, 0x00, 0x0d, 0x00, 0x00, 0x00, 0x73, 0x74, 0x64, 0x2e,
  0x63, 0x6f, 0x6e, 0x73, 0x74, 0x61, 0x6e, 0x74, 0x31, 0x00, 0x00, 0x00,
  0x4c, 0xd6, 0xff, 0xff, 0x42, 0xd7, 0xff, 0xff, 0x04, 0x00, 0x00, 0x00,
  0x20, 0x00, 0x00, 0x00, 0x9f, 0x83, 0xd8, 0x3c, 0xd9, 0x0b, 0x99, 0xbc,
  0x3f, 0x0f, 0x03, 0xbf, 0xc5, 0xd1, 0x85, 0x3a, 0xa6, 0x57, 0xe4, 0x3c,
  0x7c, 0x26, 0xf1, 0xbf, 0x23, 0xe8, 0x29, 0xc0, 0xac, 0x1f, 0xc5, 0xbf,
  0xca, 0xd6, 0xff, 0xff, 0x10, 0x00, 0x00, 0x00, 0x09, 0x00, 0x00, 0x00,
  0x10, 0x00, 0x00, 0x00, 0x20, 0x00, 0x00, 0x00, 0x01, 0x00, 0x00, 0x00,
  0x08, 0x00, 0x00, 0x00, 0x0c, 0x00, 0x00, 0x00, 0x73, 0x74, 0x64, 0x2e,
  0x63, 0x6f, 0x6e, 0x73, 0x74, 0x61, 0x6e, 0x74, 0x00, 0x00, 0x00, 0x00,
  0xac, 0xd6, 0xff, 0xff, 0xa2, 0xd7, 0xff, 0xff, 0x04, 0x00, 0x00, 0x00,
  0x00, 0x08, 0x00, 0x00, 0x01, 0x23, 0xda, 0x3d, 0x6c, 0xed, 0xe2, 0xbd,
  0x10, 0x6d, 0x05, 0x3e, 0xc0, 0x00, 0x04, 0x3f, 0xc0, 0x81, 0x0e, 0x3e,
  0x06, 0x68, 0x6d, 0xbe, 0xd0, 0x50, 0x0b, 0x3f, 0xc1, 0x66, 0x14, 0xbe,
  0xc8, 0xc4, 0x0d, 0x3d, 0xd6, 0x5f, 0x5a, 0x3d, 0x7b, 0x43, 0xd9, 0x3c,
  0x19, 0x06, 0x71, 0xbe, 0x1d, 0x4c, 0x13, 0xbe, 0x28, 0x68, 0x58, 0xbe,
  0x3d, 0x5b, 0xcf, 0x3d, 0x08, 0xef, 0xe4, 0xbd, 0x1e, 0x66, 0x05, 0xbe,
  0x7c, 0x14, 0x1e, 0x3e, 0x76, 0x07, 0x70, 0xbd, 0xc4, 0x0f, 0xa0, 0xbd,
  0x8b, 0x52, 0x9d, 0xbd, 0xc8, 0x3b, 0x07, 0xbe, 0x11, 0x7f, 0x84, 0x3d,
  0xc2, 0xa6, 0xcd, 0xbd, 0x63, 0xad, 0xbb, 0xbe, 0xed, 0xfc, 0x0a, 0xbe,
  0x7f, 0xca, 0xb5, 0xbd, 0x0b, 0x1c, 0x01, 0x3d, 0x9a, 0x4d, 0xc6, 0xbd,
  0x07, 0x8b, 0x8a, 0xbe, 0x34, 0x62, 0x73, 0x3e, 0xa1, 0x43, 0x94, 0xbd,
  0xb6, 0x84, 0xca, 0xbd, 0xac, 0xc8, 0x31, 0xbe, 0xf1, 0x97, 0xdf, 0xbd,
  0x30, 0x60, 0x44, 0xbc, 0xfb, 0x37, 0xf8, 0xbd, 0x39, 0x63, 0xc2, 0xbd,
  0xd0, 0x63, 0x1d, 0xbf, 0x0e, 0x14, 0xfe, 0xbd, 0x6f, 0x75, 0x81, 0xbd,
  0x1c, 0xa2, 0xac, 0xbd, 0xbe, 0xd5, 0x8c, 0x3d, 0x14, 0xcd, 0xbb, 0xbd,
  0xa1, 0x1c, 0x22, 0x3e, 0x46, 0x80, 0xc6, 0xbd, 0x68, 0xbb, 0x0a, 0xbe,
  0x46, 0x94, 0x80, 0x3d, 0x3c, 0xa7, 0x6e, 0x3e, 0x87, 0x3f, 0x6c, 0x3e,
  0xb6, 0x2e, 0xf2, 0x3e, 0x57, 0x4f, 0x99, 0xbe, 0xe3, 0x54, 0x82, 0xbe,
  0xe2, 0x85, 0x0b, 0xbd, 0xb1, 0x40, 0x37, 0x3d, 0xe3, 0x12, 0x8e, 0x3d,
  0xf5, 0x70, 0x19, 0xbe, 0x53, 0x7b, 0x00, 0xbe, 0x10, 0x03, 0x8e, 0xbe,
  0xb8, 0xce, 0x80, 0x3d, 0xb9, 0xf6, 0x2c, 0xbe, 0x01, 0x15, 0x38, 0xbd,
  0xb7, 0x39, 0x1d, 0x3e, 0xbf, 0xf3, 0x09, 0x3c, 0x9f, 0x9d, 0x03, 0xbc,
  0xba, 0xe3, 0xb2, 0x3e, 0xb9, 0xc1, 0xa7, 0x3d, 0xac, 0x35, 0xd1, 0x3d,
  0x37, 0xd3, 0xd1, 0x3d, 0x0c, 0x90, 0x0d, 0xbf, 0x86, 0x97, 0x68, 0x3e,
  0xf7, 0xe4, 0x79, 0xbd, 0x66, 0xb2, 0x80, 0x3e, 0xc4, 0x4b, 0x31, 0x3c,
  0x0c, 0xfd, 0x09, 0x3e, 0x20, 0xab, 0x0c, 0xbe, 0x3d, 0x76, 0xbc, 0x3d,
  0xf3, 0x77, 0x10, 0xbf, 0x7d, 0x17, 0x1b, 0x3a, 0x3e, 0x90, 0x8e, 0xbd,
  0x52, 0x66, 0xef, 0xbd, 0xfd, 0xbd, 0xa7, 0x3d, 0xe4, 0x63, 0x87, 0x3d,
  0x99, 0x3a, 0xa4, 0xbd, 0x97, 0xec, 0xe8, 0x3d, 0x2a, 0xa5, 0xfb, 0xbe,
  0xfd, 0x72, 0x88, 0x3e, 0xe3, 0x88, 0x11, 0xbd, 0x89, 0xe9, 0x97, 0xbd,
  0x70, 0xe3, 0xf2, 0x3d, 0x10, 0x6b, 0x9c, 0x3e, 0xe1, 0x09, 0x29, 0x3e,
  0x6e, 0x5d, 0xfe, 0xbd, 0xa2, 0x6f, 0xd6, 0xbe, 0x7a, 0x14, 0x03, 0x3c,
  0xf6, 0x8c, 0x20, 0x3e, 0x7e, 0x9f, 0x87, 0xbe, 0x3b, 0xbf, 0x7a, 0xbe,
  0x92, 0xb5, 0x8d, 0xbe, 0x75, 0xb8, 0x11, 0xbe, 0xb5, 0x64, 0xdf, 0xbc,
  0x27, 0x31, 0xfd, 0xbd, 0x9d, 0xd3, 0x2c, 0x3e, 0xef, 0xdf, 0xff, 0xbd,
  0xc3, 0x17, 0x79, 0xbe, 0xdb, 0x5c, 0x51, 0xbe, 0x66, 0x67, 0x1c, 0xbe,
  0x8b, 0x64, 0xdb, 0xbd, 0xf3, 0xe6, 0x76, 0x3e, 0x14, 0x21, 0x9e, 0xbd,
  0xab, 0x91, 0xf1, 0x3d, 0x25, 0x33, 0x31, 0xbe, 0xd9, 0x3a, 0xcb, 0x3d,
  0x4a, 0xde, 0x51, 0xbd, 0x02, 0xbf, 0x42, 0x3d, 0xe5, 0x7a, 0x8f, 0xbd,
  0xbf, 0x3d, 0xeb, 0xbd, 0x49, 0xe0, 0x09, 0xbd, 0xa6, 0x80, 0xe9, 0x3a,
  0x7b, 0x18, 0xa1, 0xbd, 0xb6, 0x17, 0xae, 0x3e, 0x14, 0x15, 0xa8, 0x3e,
  0xb1, 0xb0, 0xed, 0x3e, 0x36, 0x5a, 0xa9, 0xbd, 0x74, 0x9d, 0x37, 0xbe,
  0xe5, 0x15, 0xa4, 0x3d, 0xd2, 0x35, 0x68, 0xbd, 0xbe, 0x63, 0x3e, 0x3e,
  0xf8, 0x39, 0xa1, 0xbd, 0x91, 0x42, 0x69, 0xba, 0xd5, 0xe3, 0xd9, 0x3e,
  0x45, 0xec, 0x4c, 0xbe, 0xdc, 0xc4, 0xc8, 0xbe, 0xc8, 0x33, 0x99, 0xbd,
  0x19, 0xc0, 0x24, 0x3f, 0x7a, 0x63, 0x04, 0x3f, 0xb6, 0x58, 0x39, 0x3d,
  0x9d, 0xa2, 0xbb, 0xbc, 0x78, 0x8a, 0x02, 0xbe, 0xf2, 0xcc, 0xcb, 0xbd,
  0x48, 0x80, 0xb1, 0xbe, 0xdc, 0xf0, 0x6a, 0xbd, 0x20, 0x8d, 0x84, 0x3c,
  0xaf, 0x68, 0xcb, 0xbd, 0x5c, 0x59, 0x03, 0xbe, 0x90, 0xaf, 0x2c, 0xbe,
  0x7e, 0x48, 0x9b, 0xbe, 0x7e, 0x42, 0x37, 0xbe, 0x23, 0xd9, 0x2b, 0x3e,
  0x83, 0xe8, 0xbf, 0xbd, 0x6c, 0x6a, 0xaf, 0x3d, 0xe5, 0xce, 0x13, 0xbe,
  0xb7, 0xc6, 0x50, 0xbe, 0xb7, 0x10, 0x14, 0xbe, 0xa6, 0x78, 0xb0, 0xbe,
  0xe3, 0x96, 0x96, 0xbd, 0x36, 0xed, 0x51, 0x3e, 0xdb, 0x54, 0x08, 0xbe,
  0x09, 0xe4, 0x2e, 0x3e, 0x2d, 0x50, 0xf4, 0xbd, 0x5f, 0xd4, 0x39, 0x3d,
  0xea, 0x91, 0xc6, 0xbd, 0x39, 0xc4, 0x8e, 0x3e, 0x00, 0x05, 0x4f, 0x3f,
  0x9f, 0x61, 0x9f, 0x3e, 0xdf, 0x81, 0x26, 0xbe, 0x64, 0x0d, 0x9c, 0xbe,
  0x7e, 0x49, 0x51, 0xbe, 0xcc, 0xed, 0xcd, 0x3b, 0x9f, 0x7a, 0x68, 0xbc,
  0xd8, 0xb0, 0x8c, 0x3e, 0xc2, 0x6b, 0x5b, 0xbe, 0x18, 0x4f, 0x4f, 0xbe,
  0x63, 0xf9, 0xe9, 0xbd, 0xcb, 0xb6, 0xeb, 0xbe, 0x38, 0xac, 0x9b, 0xbd,
  0x97, 0xe3, 0xfb, 0x3d, 0x2e, 0x5b, 0xb0, 0xbd, 0x2e, 0x75, 0xad, 0xbc,
  0x70, 0x4c, 0x84, 0xbe, 0x46, 0x40, 0xfa, 0xbd, 0x65, 0x7f, 0x2f, 0xbd,
  0x57, 0x72, 0x3c, 0xbe, 0x76, 0xc0, 0xa3, 0xbd, 0x63, 0x4e, 0xc4, 0xbe,
  0x07, 0x97, 0x49, 0x3d, 0x3a, 0x14, 0xb7, 0xbe, 0xff, 0x55, 0x7f, 0xbe,
  0x8f, 0xb1, 0x06, 0xbe, 0xdb, 0x05, 0xb8, 0x39, 0x2c, 0xb5, 0x11, 0x3e,
  0xca, 0x51, 0xda, 0xbc, 0x26, 0x38, 0x05, 0xbe, 0x0b, 0x2c, 0xb0, 0xbe,
  0x60, 0x42, 0x8b, 0xbe, 0x79, 0x32, 0xaf, 0x3e, 0xc3, 0x3d, 0x43, 0x3e,
  0x39, 0xcf, 0xbf, 0xbd, 0xe4, 0xc0, 0x08, 0xbf, 0xdc, 0x03, 0x05, 0xbe,
  0x4d, 0x47, 0xd3, 0xbe, 0x55, 0xe6, 0x2e, 0xbf, 0xc9, 0xf8, 0x25, 0xbe,
  0x0c, 0xd6, 0xb2, 0xbd, 0xfe, 0x97, 0xc4, 0xbb, 0x42, 0xe7, 0x11, 0xbe,
  0xd1, 0x2f, 0x50, 0x3f, 0xbf, 0x9e, 0x0f, 0xbe, 0x1c, 0xec, 0xbc, 0x3d,
  0x39, 0x58, 0x83, 0x3e, 0x7d, 0x4a, 0xa2, 0xbd, 0xd5, 0xed, 0x89, 0xbc,
  0xd5, 0x30, 0x8f, 0xbd, 0x76, 0x13, 0x09, 0xbe, 0x0e, 0xba, 0x8e, 0xbd,
  0xc8, 0x0a, 0x08, 0xbe, 0xea, 0xb9, 0x0d, 0x3e, 0x0f, 0x5c, 0xe1, 0x3c,
  0x03, 0x15, 0x56, 0x3e, 0x5d, 0x25, 0x66, 0xbd, 0x15, 0x28, 0xa7, 0xbd,
  0xfd, 0xd9, 0xa1, 0xbd, 0x62, 0x94, 0xca, 0xbe, 0xca, 0xac, 0x13, 0xbe,
  0x3d, 0x9b, 0xa6, 0xbe, 0x03, 0xb2, 0x1c, 0x3e, 0x15, 0xcc, 0x7f, 0xbe,
  0x55, 0x5e, 0x1f, 0xbe, 0x37, 0x23, 0x9a, 0xbe, 0x4c, 0xcc, 0x8b, 0xbe,
  0xdf, 0xda, 0x6b, 0x3e, 0xf0, 0xae, 0x60, 0xbe, 0xcc, 0x29, 0x8f, 0xbd,
  0xb1, 0x2b, 0x8c, 0xbe, 0x74, 0x1f, 0x1f, 0x3e, 0xdb, 0x8c, 0x46, 0x3e,
  0xf0, 0xb1, 0xcb, 0x3e, 0x2f, 0xc7, 0x97, 0xbe, 0xa4, 0xb3, 0x93, 0x3e,
  0xba, 0xcc, 0x88, 0xbe, 0xba, 0x07, 0x28, 0x3e, 0xbb, 0xf2, 0x39, 0x3e,
  0x80, 0x8a, 0xd5, 0xbc, 0xd1, 0x75, 0x75, 0xbd, 0xe1, 0xc6, 0xc2, 0x3d,
  0x9e, 0x7d, 0x99, 0xbe, 0x26, 0x63, 0x1b, 0xbe, 0xa7, 0x0b, 0x11, 0xbe,
  0x44, 0x77, 0xfe, 0xbc, 0xaa, 0xcc, 0xb5, 0x3e, 0x14, 0x27, 0x9c, 0x3d,
  0x7e, 0x4d, 0xf6, 0x3e, 0xca, 0x76, 0x50, 0x3d, 0x1f, 0x04, 0x57, 0xbe,
  0xde, 0x96, 0xa6, 0x3d, 0xea, 0x4f, 0x30, 0xbe, 0xc8, 0xa1, 0x0a, 0x3c,
  0xa0, 0xda, 0x81, 0x3d, 0xf2, 0x5d, 0xe7, 0xbd, 0xdb, 0xbb, 0x30, 0xbe,
  0x58, 0xd6, 0x8b, 0xbe, 0x5b, 0xd7, 0x1b, 0x3e, 0x1a, 0x4c, 0xac, 0x3d,
  0x2f, 0xb4, 0xfb, 0x3e, 0x12, 0x2a, 0xf0, 0xbd, 0xb6, 0x9f, 0xdf, 0x3d,
  0xe9, 0xa6, 0xe0, 0xbe, 0x3a, 0xa0, 0x1a, 0xbe, 0x2c, 0x27, 0xbe, 0xbd,
  0x10, 0xfd, 0xdc, 0xbd, 0x71, 0x5d, 0xce, 0x3e, 0xa0, 0xaf, 0xb8, 0xbd,
  0xf4, 0xba, 0x29, 0xbe, 0x52, 0x81, 0x62, 0xbe, 0x24, 0x5f, 0x86, 0xbe,
  0x61, 0xc0, 0xe5, 0xbd, 0x46, 0xcb, 0x8a, 0x3c, 0x4e, 0xe5, 0x8a, 0xbd,
  0xba, 0xf7, 0xd1, 0x3e, 0xef, 0xa2, 0x74, 0xbd, 0x95, 0x6e, 0x7c, 0xbe,
  0x4d, 0x9e, 0x8c, 0xbe, 0x19, 0x21, 0x87, 0xbe, 0x7b, 0x36, 0xae, 0xbd,
  0x2d, 0xa8, 0x09, 0x3d, 0xb4, 0xb6, 0x08, 0xbe, 0xff, 0xe9, 0x2b, 0x3e,
  0x54, 0x3c, 0x40, 0xbe, 0x20, 0x5b, 0x56, 0x3e, 0x40, 0xfb, 0xbd, 0xbd,
  0xcf, 0x39, 0x07, 0xbe, 0x42, 0xa4, 0x8d, 0x3e, 0x74, 0xd2, 0x84, 0x3e,
  0xdb, 0xb0, 0x17, 0x3d, 0x6a, 0x95, 0x57, 0xbd, 0x8b, 0x51, 0xa0, 0xbb,
  0x80, 0x5b, 0x32, 0xbe, 0x59, 0x3a, 0x9c, 0x3e, 0x50, 0x6b, 0xb1, 0xbd,
  0xeb, 0x27, 0x11, 0x3c, 0xe6, 0x08, 0x24, 0x3e, 0x59, 0x78, 0x19, 0xbd,
  0xa8, 0x44, 0x96, 0xbc, 0xbb, 0x83, 0x36, 0x3d, 0xcc, 0x4b, 0xf7, 0x38,
  0xd8, 0x22, 0x09, 0xbe, 0xe3, 0xb8, 0x74, 0x3d, 0x1b, 0xd1, 0x98, 0x3d,
  0x3e, 0xeb, 0xb1, 0x3d, 0x65, 0x01, 0xd8, 0xbc, 0xf3, 0x62, 0x48, 0x3d,
  0x65, 0xdd, 0x20, 0x3e, 0xa5, 0xb7, 0xbb, 0xbd, 0x1c, 0xed, 0x0c, 0x3e,
  0xf6, 0x6f, 0x4c, 0x3e, 0x55, 0x8b, 0x9e, 0x3d, 0xd6, 0xd3, 0x53, 0xbc,
  0xbf, 0xe4, 0x2f, 0x3d, 0xfb, 0x3b, 0xc4, 0xbd, 0x5c, 0x5c, 0x27, 0x3c,
  0xea, 0xf8, 0xa7, 0xbe, 0xca, 0x2e, 0x0d, 0x3e, 0xbe, 0xbb, 0x61, 0x3b,
  0x0c, 0xd7, 0xc9, 0xbe, 0xbd, 0xe2, 0x59, 0xbe, 0xd4, 0x96, 0x00, 0xbd,
  0x6b, 0xe4, 0x8a, 0xbe, 0xbe, 0x8a, 0x65, 0xbe, 0x3e, 0x91, 0x89, 0x3d,
  0x37, 0x81, 0x80, 0x3c, 0x68, 0xcd, 0x17, 0xbd, 0xb1, 0xeb, 0xde, 0xbc,
  0xca, 0x77, 0xc4, 0x3d, 0x36, 0x43, 0x8d, 0x3d, 0xb7, 0x81, 0x87, 0xbd,
  0x68, 0x61, 0xd6, 0xbe, 0xd7, 0x54, 0xaf, 0xbe, 0x60, 0x24, 0xce, 0x3d,
  0x1c, 0xe8, 0xe9, 0xbe, 0x70, 0x20, 0x60, 0xbd, 0x33, 0xff, 0x9d, 0x3d,
  0x21, 0xc7, 0xf2, 0xbd, 0x6b, 0x7e, 0x8b, 0xbe, 0x37, 0xc9, 0x05, 0xbd,
  0x44, 0x5a, 0x85, 0xbe, 0x3e, 0x2f, 0xd4, 0x3e, 0x58, 0x28, 0xe1, 0xbe,
  0x1e, 0x48, 0xf0, 0x3d, 0x4d, 0xf0, 0x21, 0x3e, 0x00, 0x78, 0x36, 0xbe,
  0x17, 0xfb, 0x34, 0xbe, 0xa3, 0xa5, 0xe1, 0xbd, 0x6c, 0x8a, 0xaf, 0xbd,
  0x96, 0x4b, 0xc7, 0xbd, 0xc3, 0x60, 0xa6, 0x3b, 0xe7, 0x6c, 0x87, 0xbe,
  0x7e, 0xdf, 0x4d, 0xbe, 0x2c, 0xef, 0x31, 0xbd, 0x77, 0xe7, 0x5e, 0x3e,
  0x16, 0x6d, 0x74, 0x3c, 0x06, 0xd5, 0x09, 0xbe, 0x6a, 0xa5, 0xd4, 0xbc,
  0xf2, 0xde, 0x3f, 0x3e, 0xb4, 0x3f, 0x9d, 0x3e, 0x74, 0x89, 0x1d, 0xbe,
  0x07, 0xc6, 0xd2, 0xbd, 0xcc, 0xd9, 0xc0, 0x3c, 0xb7, 0x68, 0x01, 0xbe,
  0xc8, 0xe7, 0xd0, 0x3e, 0x36, 0x34, 0xe3, 0x3d, 0x9d, 0xec, 0x87, 0xbe,
  0x9b, 0x0f, 0x75, 0x3e, 0xd9, 0x2c, 0xf7, 0x3d, 0x9d, 0x78, 0x1a, 0xbd,
  0x4d, 0x44, 0x00, 0x3c, 0x30, 0x2f, 0xa2, 0xbc, 0xe8, 0x39, 0x4e, 0x3d,
  0x05, 0x93, 0x73, 0x3e, 0x0b, 0xd2, 0x05, 0x3d, 0x2d, 0x8b, 0x34, 0xbe,
  0x79, 0x65, 0x15, 0xbe, 0x19, 0x95, 0xb8, 0x3c, 0x88, 0x9e, 0xb9, 0xbc,
  0x45, 0x00, 0x96, 0xbc, 0x4b, 0xa4, 0x34, 0xbe, 0x8f, 0x72, 0x9e, 0xbe,
  0x7b, 0x94, 0x25, 0x3e, 0x0f, 0x51, 0x42, 0xbe, 0xc4, 0x89, 0x9d, 0xbd,
  0x26, 0x1d, 0x1c, 0xbe, 0x44, 0x91, 0xc5, 0xbe, 0x13, 0x07, 0x8f, 0xbe,
  0xdb, 0xc2, 0x2a, 0xbe, 0x20, 0xa8, 0xd1, 0xbe, 0xe7, 0xfc, 0x7e, 0x3b,
  0x14, 0x0d, 0x35, 0xbe, 0xfd, 0xcb, 0x4f, 0xbe, 0x08, 0x11, 0xd5, 0xbd,
  0x5e, 0x70, 0x0b, 0xbe, 0x83, 0x6f, 0xb7, 0xbe, 0x53, 0xb1, 0x30, 0xbe,
  0x2f, 0xf4, 0x9e, 0xbe, 0xbb, 0x00, 0x9b, 0xbd, 0x7d, 0xf1, 0x25, 0xbd,
  0x9d, 0x27, 0xa8, 0xbd, 0x0a, 0x41, 0xb0, 0xbd, 0x45, 0x75, 0x56, 0x3e,
  0xce, 0x19, 0x22, 0xbe, 0xc1, 0x56, 0x57, 0xbe, 0xe8, 0x21, 0xf5, 0xbe,
  0xcd, 0xe1, 0xdf, 0xbd, 0xdd, 0xbc, 0x06, 0x3f, 0x79, 0x7d, 0xb4, 0x3e,
  0x5c, 0xf1, 0x38, 0x3b, 0x11, 0x45, 0xcc, 0x3e, 0xd7, 0xcd, 0x41, 0xbd,
  0x10, 0xc9, 0x7d, 0xbe, 0x27, 0x52, 0xe3, 0xbe, 0xdd, 0x27, 0x5c, 0xbe,
  0x91, 0xf5, 0xeb, 0xbd, 0x17, 0x77, 0xcb, 0xbd, 0x40, 0xf4, 0x4a, 0xbe,
  0x91, 0x80, 0x0c, 0x3e, 0x26, 0x77, 0xb9, 0xbe, 0xca, 0x0f, 0x8c, 0xbf,
  0x61, 0x25, 0x95, 0xbf, 0x4f, 0x2d, 0xa8, 0xbe, 0xa8, 0xe2, 0xe2, 0x3e,
  0xf6, 0xb3, 0xc5, 0x3d, 0x5f, 0x03, 0xfe, 0xbd, 0x6c, 0x2b, 0xb5, 0x3e,
  0x50, 0x0e, 0x45, 0xbe, 0xab, 0x06, 0x3c, 0x3d, 0x58, 0x12, 0x54, 0x3b,
  0x70, 0x6e, 0x10, 0x3e, 0xb5, 0x22, 0x7a, 0xbd, 0x05, 0xea, 0xff, 0xbc,
  0x57, 0xb9, 0x82, 0xbe, 0x7e, 0x79, 0x9e, 0xbe, 0x26, 0xd7, 0xa8, 0xbd,
  0x60, 0x18, 0x05, 0x3f, 0xfd, 0x30, 0x49, 0x3e, 0xf7, 0x44, 0xd4, 0xbc,
  0xe0, 0x3c, 0x4e, 0xbe, 0x41, 0x84, 0xb7, 0xbc, 0x5a, 0x08, 0x35, 0xbe,
  0xdc, 0x31, 0xa1, 0xbe, 0xf6, 0x6a, 0x13, 0xbe, 0xfe, 0x64, 0x6b, 0xbe,
  0x34, 0x99, 0x2f, 0xbd, 0x4a, 0x04, 0xdf, 0xbe, 0x42, 0xb0, 0xb5, 0xbe,
  0x91, 0x11, 0xdb, 0xbe, 0xfa, 0x22, 0xce, 0xbd, 0x3f, 0x8b, 0x64, 0xbe,
  0x09, 0x58, 0x38, 0xbe, 0xc1, 0x57, 0x32, 0xbd, 0xe4, 0x25, 0xfe, 0xbc,
  0x61, 0x29, 0x14, 0x3e, 0xb9, 0xd0, 0xde, 0xbe, 0x26, 0xbb, 0xf7, 0xbe,
  0x05, 0x6b, 0x9e, 0xbd, 0x91, 0x46, 0x5f, 0x3c, 0x51, 0x5d, 0x9f, 0xbd,
  0x00, 0x5c, 0x23, 0xbe, 0xd6, 0xf8, 0x94, 0xbc, 0xb2, 0xbb, 0x57, 0x3d,
  0xcf, 0xd0, 0xe3, 0x3d, 0x59, 0x1e, 0xcd, 0xbd, 0xec, 0xbd, 0xcd, 0xbd,
  0x0e, 0xd8, 0xf6, 0x3e, 0x19, 0xef, 0xce, 0x3e, 0x91, 0x0b, 0xb0, 0xbd,
  0x25, 0xc2, 0xbc, 0xbd, 0x92, 0xfd, 0x67, 0xbd, 0xdb, 0x03, 0x2a, 0x3c,
  0x43, 0xb2, 0x48, 0xbe, 0x3a, 0xda, 0x0f, 0xbe, 0x12, 0xaa, 0xe9, 0x3e,
  0x38, 0x0d, 0x38, 0xbd, 0xb1, 0x2b, 0x85, 0xbd, 0xd3, 0x4b, 0x59, 0xbd,
  0xc5, 0x22, 0x6e, 0xbd, 0x8a, 0x46, 0xee, 0x3c, 0xd9, 0x0e, 0x90, 0xbe,
  0x2f, 0x8f, 0x93, 0x3c, 0x73, 0x29, 0x62, 0xbe, 0x7e, 0x78, 0xae, 0x3d,
  0xc4, 0xc1, 0x59, 0xbd, 0x02, 0xa5, 0x59, 0xbd, 0x23, 0xf0, 0x59, 0x3e,
  0x22, 0xda, 0xae, 0xbd, 0xb7, 0x63, 0x64, 0xbe, 0x8f, 0xcb, 0x62, 0x3e,
  0xa8, 0x94, 0xe9, 0x3c, 0x63, 0xb8, 0xbc, 0x3e, 0xfa, 0x91, 0x09, 0x3d,
  0xe9, 0x31, 0x1e, 0xbe, 0x08, 0xa3, 0x53, 0x3d, 0x5e, 0x90, 0xe2, 0x3c,
  0x01, 0x08, 0x85, 0xbe, 0x7a, 0x8e, 0xa8, 0xbd, 0x94, 0xe5, 0x81, 0xbd,
  0x2b, 0xc3, 0xbe, 0xbc, 0x6f, 0x8f, 0x92, 0xbd, 0xb7, 0x18, 0x71, 0xbe,
  0xc6, 0xf9, 0xe6, 0x3c, 0x05, 0x00, 0x77, 0x3d, 0x70, 0x2e, 0x08, 0xbe,
  0x1b, 0xe5, 0x63, 0xbd, 0x44, 0x96, 0x22, 0xbd, 0x9d, 0xeb, 0xf7, 0x3d,
  0x0a, 0xdf, 0xff, 0xff, 0x10, 0x00, 0x00, 0x00, 0x08, 0x00, 0x00, 0x00,
  0x1c, 0x00, 0x00, 0x00, 0x38, 0x00, 0x00, 0x00, 0x04, 0x00, 0x00, 0x00,
  0x10, 0x00, 0x00, 0x00, 0x04, 0x00, 0x00, 0x00, 0x01, 0x00, 0x00, 0x00,
  0x08, 0x00, 0x00, 0x00, 0x1a, 0x00, 0x00, 0x00, 0x73, 0x65, 0x71, 0x75,
  0x65, 0x6e, 0x74, 0x69, 0x61, 0x6c, 0x2f, 0x63, 0x6f, 0x6e, 0x76, 0x32,
  0x64, 0x5f, 0x31, 0x2f, 0x43, 0x6f, 0x6e, 0x76, 0x32, 0x44, 0x00, 0x00,
  0x04, 0xdf, 0xff, 0xff, 0xfa, 0xdf, 0xff, 0xff, 0x04, 0x00, 0x00, 0x00,
  0x80, 0x01, 0x00, 0x00, 0xda, 0x0c, 0x3a, 0x3e, 0xca, 0x6f, 0xdb, 0x3e,
  0x6c, 0xcb, 0x56, 0x3e, 0x48, 0xc1, 0x14, 0x3b, 0x58, 0x1f, 0xfc, 0xbd,
  0x98, 0x13, 0x36, 0xbc, 0x8a, 0x08, 0x33, 0xbe, 0x44, 0x3b, 0x95, 0xbe,
  0x79, 0x44, 0x36, 0xbe, 0xac, 0x26, 0x6d, 0xbd, 0x2d, 0x37, 0xc7, 0xbd,
  0xa2, 0x23, 0x90, 0xbd, 0xab, 0x12, 0xe9, 0x3d, 0x5e, 0xb9, 0x84, 0x3e,
  0xd5, 0x20, 0xc1, 0x3e, 0x86, 0x9a, 0x89, 0xbd, 0x93, 0x36, 0xed, 0xbd,
  0x77, 0xd3, 0x37, 0xbe, 0xbd, 0x0c, 0xa3, 0xbd, 0x50, 0x73, 0x48, 0xbe,
  0x6b, 0x6b, 0x82, 0xbe, 0x85, 0x25, 0x42, 0xbd, 0x3b, 0xbb, 0xac, 0xbd,
  0x70, 0x77, 0x44, 0xbd, 0x34, 0xd4, 0x27, 0x3e, 0x22, 0x34, 0xa0, 0x3d,
  0x89, 0x37, 0x8c, 0x3d, 0x7a, 0x8d, 0x01, 0x3f, 0x69, 0xb2, 0x87, 0x3d,
  0x18, 0xfe, 0x01, 0x3d, 0xa8, 0xd8, 0x90, 0xbe, 0x06, 0x6a, 0x11, 0xbe,
  0x84, 0x2f, 0x24, 0xbe, 0x40, 0xdc, 0xd2, 0xbe, 0x3c, 0x41, 0xea, 0xbd,
  0xe8, 0xc2, 0x7b, 0x3e, 0x19, 0xde, 0x06, 0x3e, 0xfa, 0x05, 0xd0, 0xbd,
  0x9a, 0xcb, 0x52, 0xbe, 0x08, 0x48, 0x18, 0xbf, 0xd6, 0x30, 0x1d, 0xbe,
  0x5a, 0xef, 0x47, 0xbe, 0xdf, 0x34, 0x3e, 0x3f, 0x59, 0xb0, 0x97, 0x3e,
  0x59, 0x9e, 0x80, 0x3e, 0x55, 0x74, 0xcc, 0xbc, 0x05, 0xe9, 0xf6, 0x3d,
  0xf8, 0x07, 0x84, 0x3d, 0x6f, 0x9d, 0xca, 0x3c, 0xf2, 0xe7, 0x14, 0xbe,
  0xee, 0x89, 0x38, 0x3c, 0x6b, 0x4d, 0xa3, 0xbd, 0x08, 0x3d, 0x57, 0xbe,
  0xe7, 0x27, 0x89, 0xbc, 0xc6, 0x93, 0x00, 0x3f, 0x29, 0x25, 0x90, 0x3e,
  0xb4, 0xa7, 0xa0, 0xbd, 0xbe, 0x23, 0xe8, 0xbd, 0x24, 0xfd, 0x03, 0x3e,
  0x0e, 0x58, 0x55, 0x3d, 0x96, 0x07, 0x03, 0xbe, 0x5f, 0xcd, 0x9e, 0x3d,
  0xc1, 0x5c, 0xde, 0x3d, 0xb6, 0xc2, 0x9f, 0xbd, 0x8e, 0x1e, 0x8f, 0x3d,
  0x54, 0xe6, 0xc8, 0xbb, 0x6a, 0x15, 0x4e, 0xbc, 0x31, 0x39, 0xa8, 0x3d,
  0x5e, 0x94, 0x5d, 0xbd, 0x2d, 0xa4, 0x2c, 0xbd, 0xa3, 0x90, 0xfb, 0x3d,
  0x53, 0xff, 0x9b, 0xbc, 0x8b, 0x13, 0x52, 0x3c, 0xe9, 0x95, 0x43, 0xbe,
  0x6d, 0x6a, 0x88, 0xbd, 0x0e, 0x39, 0x95, 0xbe, 0x03, 0x43, 0xfe, 0xbe,
  0xb8, 0xbb, 0x63, 0xbe, 0xf1, 0x7a, 0x1f, 0x3e, 0x1b, 0x1d, 0x10, 0x3e,
  0x94, 0x84, 0xe4, 0x3d, 0xb3, 0xf6, 0x79, 0x3e, 0x25, 0xff, 0x0a, 0x3f,
  0x15, 0x16, 0x1e, 0x3e, 0xda, 0xde, 0xcc, 0x3d, 0x26, 0x16, 0x7a, 0xbe,
  0x16, 0x93, 0xb5, 0x3d, 0xab, 0x66, 0x33, 0x3e, 0xfd, 0xa7, 0x54, 0xbe,
  0x3d, 0x8f, 0x60, 0x3e, 0xa4, 0x24, 0x5b, 0xbe, 0x91, 0x73, 0x1b, 0xbc,
  0x80, 0x64, 0xaa, 0x3b, 0x62, 0xcb, 0x51, 0xbe, 0xbf, 0x79, 0xa8, 0x3e,
  0x38, 0x14, 0x8a, 0xbd, 0xe2, 0xe0, 0xff, 0xff, 0x10, 0x00, 0x00, 0x00,
  0x07, 0x00, 0x00, 0x00, 0x1c, 0x00, 0x00, 0x00, 0x38, 0x00, 0x00, 0x00,
  0x04, 0x00, 0x00, 0x00, 0x08, 0x00, 0x00, 0x00, 0x04, 0x00, 0x00, 0x00,
  0x03, 0x00, 0x00, 0x00, 0x01, 0x00, 0x00, 0x00, 0x18, 0x00, 0x00, 0x00,
  0x73, 0x65, 0x71, 0x75, 0x65, 0x6e, 0x74, 0x69, 0x61, 0x6c, 0x2f, 0x63,
  0x6f, 0x6e, 0x76, 0x32, 0x64, 0x2f, 0x43, 0x6f, 0x6e, 0x76, 0x32, 0x44,
  0x00, 0x00, 0x00, 0x00, 0xdc, 0xe0, 0xff, 0xff, 0xd2, 0xe1, 0xff, 0xff,
  0x04, 0x00, 0x00, 0x00, 0xc0, 0x00, 0x00, 0x00, 0x6f, 0xae, 0xd1, 0x3c,
  0xf8, 0x00, 0x98, 0xbd, 0x62, 0x83, 0xa6, 0x3e, 0x9a, 0xa7, 0xc2, 0x3e,
  0xf8, 0xe6, 0x4c, 0x3e, 0xd1, 0xea, 0x1a, 0xbf, 0xcb, 0xd7, 0xb4, 0xbe,
  0x7d, 0xcc, 0x71, 0x3e, 0x51, 0x10, 0x63, 0x3e, 0xff, 0x7a, 0x10, 0x3e,
  0xa8, 0xd3, 0x4a, 0xbe, 0xa6, 0x3c, 0x4d, 0x3e, 0x25, 0xfc, 0x1f, 0xbe,
  0xf7, 0x21, 0xbc, 0xbe, 0x89, 0xd1, 0x71, 0x3e, 0x00, 0x15, 0x7b, 0xbe,
  0x52, 0x55, 0x95, 0xba, 0x36, 0xfd, 0x6f, 0xbd, 0xb3, 0xa5, 0xaa, 0xbd,
  0x46, 0x1a, 0xdf, 0x3e, 0x82, 0xc0, 0x2a, 0xbe, 0xde, 0x15, 0x29, 0xbe,
  0xe0, 0x2a, 0xa5, 0xbe, 0x83, 0x02, 0xab, 0x3e, 0x8e, 0x7b, 0xd9, 0x3e,
  0x11, 0x18, 0x4e, 0x3e, 0x49, 0x04, 0x8a, 0xbc, 0x3e, 0x36, 0x13, 0x3e,
  0x8c, 0x73, 0x28, 0x3d, 0xe7, 0xba, 0xc7, 0xbe, 0x74, 0x7b, 0x64, 0x3e,
  0x28, 0x8c, 0x65, 0xbe, 0x93, 0xca, 0x1d, 0xbd, 0x64, 0x87, 0x5b, 0xbb,
  0x0a, 0x58, 0x10, 0x3e, 0x94, 0xfd, 0x9e, 0xbc, 0x73, 0x39, 0xcf, 0xbe,
  0x1a, 0xfc, 0xbf, 0xbd, 0x06, 0xf6, 0xc1, 0xbe, 0x86, 0x51, 0x8b, 0x3e,
  0xfe, 0xc7, 0x80, 0xbe, 0xeb, 0x8c, 0x0a, 0x3e, 0x15, 0xe4, 0x96, 0x3e,
  0xd0, 0x94, 0x99, 0x3d, 0x41, 0xa1, 0x3e, 0x3e, 0xaf, 0xe6, 0xe0, 0xbe,
  0x4e, 0x94, 0x03, 0x3e, 0x23, 0xb9, 0x25, 0xbe, 0xfa, 0xe1, 0xff, 0xff,
  0x10, 0x00, 0x00, 0x00, 0x06, 0x00, 0x00, 0x00, 0x14, 0x00, 0x00, 0x00,
  0x30, 0x00, 0x00, 0x00, 0x02, 0x00, 0x00, 0x00, 0x03, 0x00, 0x00, 0x00,
  0x10, 0x00, 0x00, 0x00, 0x19, 0x00, 0x00, 0x00, 0x73, 0x65, 0x71, 0x75,
  0x65, 0x6e, 0x74, 0x69, 0x61, 0x6c, 0x2f, 0x64, 0x65, 0x6e, 0x73, 0x65,
  0x5f, 0x31, 0x2f, 0x4d, 0x61, 0x74, 0x4d, 0x75, 0x6c, 0x00, 0x00, 0x00,
  0xec, 0xe1, 0xff, 0xff, 0xe2, 0xe2, 0xff, 0xff, 0x04, 0x00, 0x00, 0x00,
  0x00, 0x1c, 0x00, 0x00, 0xc7, 0x98, 0xa7, 0xbc, 0x09, 0x6a, 0x0c, 0xbd,
  0x5c, 0x71, 0x78, 0xbe, 0x00, 0x73, 0xa6, 0xbc, 0x21, 0x06, 0x84, 0x3e,
  0x8c, 0x4c, 0x6f, 0xbe, 0xd3, 0x75, 0x9d, 0xbe, 0x58, 0xee, 0x22, 0xbf,
  0x49, 0x7b, 0x71, 0x3e, 0xc7, 0x08, 0xa1, 0xbd, 0xc5, 0xa1, 0x6d, 0x3d,
  0x6d, 0x15, 0x06, 0xbe, 0xd1, 0x2f, 0x93, 0xbe, 0x4a, 0x15, 0xcd, 0xbe,
  0xb9, 0xc2, 0x1b, 0x3e, 0x27, 0x02, 0xfd, 0x3d, 0x5e, 0x1d, 0x7f, 0xbd,
  0x08, 0x9e, 0x7d, 0xbd, 0xcf, 0x8a, 0x52, 0xbe, 0x41, 0x51, 0xe4, 0x3e,
  0x0b, 0x4b, 0x36, 0x3e, 0x91, 0x9b, 0x39, 0xbe, 0x52, 0x48, 0x00, 0x3f,
  0x38, 0x77, 0xbc, 0x3b, 0xc8, 0x90, 0x33, 0x3e, 0x7a, 0x4c, 0x82, 0xbd,
  0xd3, 0xa6, 0x52, 0x3d, 0x69, 0xc3, 0xae, 0x3c, 0xb6, 0x25, 0xb2, 0x3e,
  0xb8, 0xab, 0xe8, 0x3d, 0x10, 0x65, 0x17, 0xbd, 0x62, 0xc2, 0x3e, 0xbd,
  0xf0, 0x7b, 0xa7, 0x3c, 0x2a, 0xac, 0x1c, 0x3e, 0x49, 0x09, 0x0a, 0xbe,
  0xa2, 0x69, 0x0b, 0x3f, 0x8d, 0x4f, 0x2d, 0x3e, 0x07, 0x95, 0xe3, 0x3e,
  0x22, 0xb0, 0x98, 0x3d, 0x5f, 0x2f, 0x30, 0x3e, 0xf6, 0xfb, 0x92, 0x3e,
  0x00, 0xf2, 0x64, 0x3c, 0x0e, 0x98, 0x03, 0xbe, 0xbc, 0x48, 0x50, 0xbd,
  0x56, 0xd6, 0x96, 0x3d, 0x47, 0x7b, 0x9f, 0x3e, 0xa2, 0x62, 0xf6, 0xbd,
  0x78, 0x6a, 0x0f, 0xbe, 0x0f, 0x24, 0x9a, 0xbe, 0xe9, 0xde, 0xb0, 0x3e,
  0x60, 0xdb, 0x32, 0xbe, 0x40, 0x13, 0x1a, 0x3f, 0x82, 0x03, 0x0f, 0x3e,
  0x98, 0x77, 0xd2, 0x3e, 0x18, 0xc0, 0x9e, 0x3e, 0x2f, 0xc8, 0xb2, 0xbe,
  0x0a, 0xbc, 0x71, 0x3d, 0xa6, 0xef, 0xe2, 0xbc, 0x20, 0x52, 0x85, 0xbe,
  0x1e, 0xe1, 0x77, 0x3c, 0x27, 0xf4, 0xb8, 0xbe, 0xab, 0x7c, 0xdb, 0x3e,
  0x9d, 0x8e, 0x0d, 0x3e, 0xbc, 0xcd, 0x0a, 0xbe, 0x43, 0x4d, 0x21, 0x3d,
  0xc3, 0x68, 0xbc, 0x3e, 0x2c, 0x2b, 0x85, 0xbe, 0xe3, 0x85, 0x60, 0x3e,
  0xfe, 0xf8, 0x64, 0x3e, 0xe0, 0xd6, 0x09, 0x3e, 0xf8, 0xca, 0xcb, 0xbe,
  0x77, 0x32, 0x10, 0xbf, 0x17, 0x72, 0x8c, 0x3e, 0xdf, 0xba, 0xda, 0xbc,
  0xd9, 0x40, 0x96, 0xbd, 0x2e, 0x39, 0x9c, 0xbc, 0xcc, 0x55, 0xbd, 0xbe,
  0x5c, 0xf2, 0x03, 0xbe, 0xbd, 0x56, 0x7e, 0x3d, 0x9e, 0x63, 0xb4, 0xbd,
  0x31, 0xad, 0xd6, 0xbe, 0xac, 0x69, 0xe1, 0x3d, 0x36, 0x87, 0x57, 0xbe,
  0x19, 0xbc, 0xd8, 0x3d, 0xfe, 0x60, 0x67, 0x3e, 0x2b, 0xb7, 0xa9, 0xbe,
  0xff, 0x65, 0xf9, 0xbe, 0x4a, 0x54, 0x9d, 0xbe, 0xc0, 0x72, 0x06, 0x3e,
  0xf4, 0x07, 0xe4, 0xbc, 0x4b, 0xf3, 0x64, 0xbe, 0x06, 0x4d, 0x3c, 0x3d,
  0x29, 0x4c, 0xf2, 0xbd, 0x18, 0xcd, 0x8f, 0xbe, 0xf8, 0x5b, 0x29, 0x3e,
  0x02, 0xc4, 0x90, 0x3b, 0xcc, 0xb6, 0xc8, 0x3d, 0x96, 0x5a, 0x80, 0x3d,
  0x55, 0x0b, 0x77, 0xbe, 0x7d, 0xc4, 0xcf, 0x3d, 0xda, 0xb4, 0x2c, 0x3e,
  0x58, 0x8c, 0x0b, 0xbe, 0xdc, 0xc8, 0x1d, 0xbe, 0x10, 0x0e, 0x83, 0xbe,
  0x94, 0xcb, 0x2c, 0xbc, 0x56, 0x2e, 0xad, 0x3c, 0x69, 0x97, 0xe8, 0xbd,
  0xe7, 0xc7, 0xcb, 0x3c, 0xa4, 0x86, 0xed, 0xbd, 0x5c, 0x59, 0x9c, 0xbe,
  0x85, 0x7d, 0x23, 0xbc, 0xc4, 0xc2, 0xf4, 0x3c, 0x96, 0x61, 0xd4, 0xbe,
  0x30, 0x59, 0xde, 0xbe, 0x39, 0x10, 0x45, 0x3e, 0x79, 0x02, 0x43, 0xbe,
  0x48, 0x49, 0x10, 0xbf, 0xe2, 0xec, 0xf3, 0xbe, 0xf5, 0x9c, 0x2c, 0xbf,
  0x19, 0x1e, 0xcc, 0xbc, 0xd1, 0x75, 0xe9, 0xbe, 0xa5, 0x44, 0x82, 0x3c,
  0xfd, 0x40, 0x09, 0x3e, 0x33, 0x81, 0xd9, 0xbd, 0x09, 0xb1, 0xb3, 0x3e,
  0xce, 0x3f, 0x37, 0xbe, 0x74, 0x15, 0x75, 0xbe, 0x63, 0x2a, 0x86, 0xbd,
  0xf6, 0xec, 0xbb, 0x3a, 0x1d, 0x8c, 0x48, 0x3e, 0x9e, 0x38, 0xe8, 0x3e,
  0x7c, 0xb7, 0x0c, 0xbf, 0xf0, 0xda, 0xe2, 0xbe, 0xac, 0x69, 0xea, 0x3c,
  0x77, 0x3b, 0xda, 0xbc, 0xf5, 0x1b, 0x4c, 0x3d, 0x82, 0x5c, 0xa9, 0xbe,
  0x04, 0xe9, 0x93, 0x3d, 0x75, 0x50, 0xa2, 0x3d, 0x1a, 0xe9, 0x4c, 0x3d,
  0x4b, 0xc5, 0xd8, 0x3d, 0xa2, 0xd6, 0x28, 0xbe, 0x24, 0x3a, 0x8e, 0xbc,
  0x58, 0x09, 0xb2, 0x3d, 0x25, 0x19, 0xb2, 0x3e, 0x86, 0xa5, 0x5a, 0x3d,
  0x2e, 0x25, 0xfb, 0x3e, 0xa1, 0x7f, 0x14, 0xbe, 0x0f, 0x59, 0xc2, 0xbe,
  0xa0, 0x37, 0xab, 0x3d, 0xde, 0x1a, 0xe3, 0x3d, 0xcc, 0xcd, 0x28, 0x3e,
  0x77, 0x23, 0x02, 0xbe, 0x22, 0x7a, 0x53, 0x3d, 0x67, 0x3b, 0x04, 0xbd,
  0x51, 0x8a, 0xce, 0x3d, 0x75, 0xd1, 0x0f, 0x3e, 0x16, 0x41, 0x9b, 0xbd,
  0xa5, 0xd8, 0x9b, 0x3b, 0x93, 0x6c, 0xcd, 0x3d, 0x27, 0xda, 0x19, 0x3f,
  0xa6, 0xa7, 0xfc, 0x3d, 0xa4, 0x47, 0xa1, 0x3e, 0x50, 0x9c, 0x30, 0xbe,
  0x16, 0x19, 0xcc, 0xbe, 0x5c, 0x0e, 0x4a, 0x3e, 0x0b, 0xde, 0xae, 0x3e,
  0xbf, 0xea, 0x40, 0x3d, 0x63, 0x36, 0x1d, 0xbd, 0x76, 0x88, 0x72, 0x3d,
  0x71, 0xff, 0xa4, 0x3d, 0x52, 0xa8, 0xab, 0x3d, 0x42, 0x1f, 0x19, 0xbd,
  0x6a, 0x92, 0x57, 0x3d, 0x57, 0xa3, 0xf6, 0xbd, 0x5c, 0x3f, 0xfc, 0x3c,
  0x35, 0x61, 0x88, 0x3e, 0x11, 0x4b, 0x87, 0xbb, 0xbf, 0xb4, 0xae, 0x3e,
  0x9b, 0xaa, 0xc0, 0xbe, 0x15, 0x48, 0xbd, 0xbe, 0x1e, 0xf7, 0x94, 0x3d,
  0x38, 0xa3, 0x62, 0xbd, 0x46, 0x79, 0x5d, 0x3d, 0x2f, 0x6d, 0xb3, 0xbe,
  0xcd, 0x5a, 0x53, 0x3d, 0xb4, 0xcb, 0x71, 0x3c, 0x58, 0x25, 0xf2, 0x3c,
  0x7d, 0x8f, 0xe6, 0xbc, 0x3c, 0x7e, 0x83, 0xbe, 0xf8, 0x2e, 0x27, 0xbe,
  0x4f, 0xa1, 0x51, 0x3d, 0x1a, 0xcd, 0x32, 0x3c, 0x27, 0xa3, 0xe6, 0xbe,
  0xd4, 0x75, 0x85, 0x3e, 0x33, 0x93, 0x6e, 0xbf, 0x50, 0xff, 0xd4, 0xbe,
  0x41, 0x65, 0xcd, 0xbd, 0xfb, 0xf8, 0xd0, 0x3c, 0xf0, 0xc3, 0xef, 0x3a,
  0x1b, 0x12, 0xb1, 0xbe, 0xbf, 0xbc, 0x52, 0x3d, 0xab, 0x79, 0x15, 0x3e,
  0xa6, 0x4e, 0x93, 0x3b, 0x0c, 0xe7, 0x56, 0xbe, 0xb4, 0xbf, 0xca, 0xbe,
  0x84, 0x78, 0xcb, 0xbe, 0xf9, 0x78, 0x67, 0x3d, 0x50, 0x6d, 0x0a, 0xbe,
  0x06, 0x6e, 0x6c, 0xbe, 0x78, 0x3a, 0x3b, 0x3e, 0xbb, 0xc8, 0x76, 0xbe,
  0x6c, 0x77, 0x42, 0xbe, 0x3c, 0x63, 0x0b, 0x3e, 0xb6, 0xc1, 0x3c, 0x3d,
  0x0b, 0xff, 0xb6, 0xbd, 0x74, 0xc1, 0xf0, 0x3c, 0x1b, 0xd9, 0x32, 0x3d,
  0xfd, 0x39, 0x64, 0x3d, 0x08, 0xf7, 0x25, 0xbe, 0x4c, 0x65, 0xc6, 0xbe,
  0x5a, 0x72, 0xe3, 0xbd, 0x40, 0x9e, 0x1d, 0x3d, 0xfd, 0x63, 0x98, 0x3d,
  0xe6, 0x63, 0x54, 0xbe, 0x09, 0x65, 0x6a, 0xbe, 0x16, 0x08, 0x19, 0xbe,
  0xb0, 0xda, 0xf4, 0xbd, 0xa2, 0x5b, 0x6b, 0xbe, 0xff, 0x74, 0x4c, 0xbe,
  0xc6, 0x42, 0xd9, 0xbd, 0xd7, 0x18, 0x1b, 0xbe, 0xa3, 0x97, 0x22, 0x3e,
  0xd1, 0xde, 0xfb, 0xbd, 0x11, 0x78, 0x08, 0xbe, 0x4f, 0xf1, 0x82, 0xbe,
  0x00, 0x9f, 0xff, 0x3d, 0x06, 0x6e, 0xe3, 0x3d, 0x69, 0x2c, 0xbb, 0xbd,
  0x3f, 0x7d, 0xbf, 0xbd, 0x21, 0x04, 0x2e, 0xbe, 0x5c, 0xa7, 0xbf, 0x3d,
  0x22, 0xe6, 0x07, 0x3e, 0x35, 0x88, 0x1d, 0xbd, 0x33, 0xea, 0xef, 0x3b,
  0x99, 0x7a, 0xe6, 0x3d, 0xe5, 0xac, 0x49, 0xbe, 0xe5, 0xbd, 0x02, 0x3d,
  0x72, 0x16, 0x01, 0xbe, 0x10, 0x48, 0x88, 0x39, 0xec, 0x7e, 0x49, 0xbe,
  0x34, 0xd4, 0x49, 0xbe, 0x81, 0x8d, 0x72, 0xbe, 0x88, 0x79, 0x22, 0x3e,
  0x58, 0xa1, 0x0a, 0xbe, 0x54, 0x14, 0xfc, 0x3b, 0x5e, 0x16, 0x54, 0x3d,
  0x0f, 0x33, 0x51, 0x3e, 0xaa, 0x84, 0x9b, 0xbc, 0xcb, 0x53, 0x9c, 0x3d,
  0x28, 0x39, 0x02, 0xbe, 0x75, 0x45, 0x1e, 0x3e, 0x5e, 0x6c, 0x9f, 0x3d,
  0x8b, 0x7d, 0x9a, 0xbd, 0xe3, 0x73, 0x5c, 0xbe, 0x55, 0x40, 0x74, 0xbe,
  0x66, 0x38, 0xc1, 0x3d, 0xed, 0xc3, 0x05, 0x3c, 0x7b, 0x80, 0xd1, 0xbd,
  0x51, 0x5e, 0x64, 0xbe, 0xc7, 0x4b, 0x3c, 0xbd, 0x9b, 0xbd, 0x5c, 0xbe,
  0xb8, 0x3f, 0x49, 0xbe, 0x2d, 0x9b, 0xae, 0x3d, 0x8b, 0x63, 0x1d, 0x3d,
  0x62, 0x9d, 0xf7, 0x3d, 0xda, 0x6b, 0x86, 0x3d, 0xfc, 0x2c, 0x19, 0x3e,
  0x16, 0xbf, 0x18, 0x3d, 0x11, 0xbb, 0xd3, 0x3d, 0xd7, 0xac, 0x69, 0xbe,
  0xcb, 0x23, 0x88, 0x3d, 0x2e, 0xc3, 0x4d, 0xbe, 0xad, 0x1a, 0xa4, 0xbe,
  0xa9, 0x32, 0x06, 0x3e, 0x63, 0xbf, 0xaa, 0x3d, 0xe2, 0x9d, 0x11, 0xbe,
  0xa9, 0x78, 0xc3, 0xbd, 0xdc, 0x1f, 0x88, 0xbe, 0xde, 0xe7, 0x36, 0xbe,
  0x72, 0x5c, 0x9a, 0x3c, 0x41, 0xcc, 0xe3, 0x3d, 0x0c, 0x77, 0x74, 0xbb,
  0xc5, 0x7f, 0x8b, 0x3d, 0x96, 0x1a, 0xba, 0xbb, 0x1b, 0xfb, 0x29, 0xbe,
  0xe4, 0x25, 0x1e, 0x3d, 0xc7, 0xab, 0x8f, 0xbd, 0x7e, 0xce, 0xcd, 0xbd,
  0x4b, 0x5b, 0x35, 0xbe, 0x73, 0x3b, 0x2a, 0xbc, 0xa6, 0x3f, 0x21, 0xbe,
  0x1f, 0x44, 0xab, 0x3d, 0x1c, 0xc5, 0xe4, 0x3d, 0x70, 0x1f, 0x29, 0xbe,
  0x79, 0x69, 0x5a, 0x3d, 0xe1, 0x0d, 0xe0, 0x3b, 0xa3, 0x96, 0x91, 0xbd,
  0xbd, 0x0c, 0x4b, 0xbe, 0xa7, 0x06, 0xe8, 0x3d, 0x3c, 0xaf, 0x40, 0x3d,
  0x30, 0x6a, 0xaf, 0xbd, 0xe4, 0x66, 0x9d, 0xbd, 0x92, 0xc5, 0xfe, 0xbd,
  0x08, 0xfa, 0x3c, 0xbe, 0xc3, 0x38, 0x2e, 0xbe, 0x2c, 0x5a, 0xba, 0x3d,
  0x8c, 0xb3, 0xa1, 0x3c, 0x1b, 0x5c, 0x4e, 0x3e, 0x78, 0x27, 0x86, 0xbe,
  0x4e, 0xcb, 0xf9, 0xbd, 0x2e, 0xa9, 0xa5, 0xbd, 0x43, 0x4a, 0x5d, 0xbe,
  0xe9, 0x40, 0x3a, 0x3e, 0xf1, 0xab, 0x48, 0xbe, 0xd5, 0x69, 0x48, 0xbe,
  0x31, 0x85, 0x61, 0xbe, 0x6b, 0x52, 0xaf, 0xbd, 0xcc, 0x6f, 0xb7, 0x3d,
  0x9d, 0x3d, 0x8d, 0xbe, 0x52, 0x12, 0x93, 0xbd, 0x6f, 0xa6, 0xef, 0xbd,
  0x1e, 0x5c, 0x40, 0xbe, 0x68, 0x96, 0x5a, 0xbe, 0xbf, 0xb9, 0x07, 0xbe,
  0x0d, 0x60, 0x7d, 0xbe, 0xf9, 0xdf, 0x85, 0xbd, 0xbe, 0xde, 0x03, 0x3d,
  0x68, 0xfb, 0x80, 0xbd, 0x13, 0xf6, 0x9e, 0xbe, 0x90, 0xcd, 0x73, 0xbe,
  0xa7, 0xae, 0x48, 0xbe, 0x1f, 0x43, 0xb2, 0xbd, 0x6e, 0x8d, 0x32, 0xbe,
  0x95, 0x91, 0xed, 0x3c, 0x41, 0x66, 0x3c, 0xbe, 0x09, 0x6c, 0x49, 0x3e,
  0xf6, 0xab, 0x88, 0xbe, 0x13, 0x53, 0xbe, 0xbc, 0x12, 0xac, 0xcb, 0xbd,
  0x6a, 0x6d, 0x61, 0xbe, 0x33, 0xe3, 0x1a, 0xbf, 0x55, 0x49, 0x04, 0xbe,
  0x8b, 0xbb, 0x28, 0xbe, 0x4f, 0xf0, 0xb5, 0x3d, 0xb1, 0x0d, 0xa9, 0x3a,
  0x13, 0xb5, 0xae, 0xbc, 0xff, 0x71, 0x01, 0x3d, 0xd5, 0xb9, 0x77, 0xbe,
  0xf5, 0x8b, 0x1b, 0x3e, 0x54, 0x5c, 0x26, 0xbe, 0x38, 0x48, 0xa8, 0xbe,
  0xe8, 0x1b, 0x9f, 0x3e, 0x1c, 0x77, 0x23, 0xbe, 0x68, 0x19, 0xdc, 0x3c,
  0xc5, 0xe7, 0xf9, 0x3d, 0xc5, 0x7e, 0x8e, 0xbe, 0xa7, 0xa2, 0x01, 0xbf,
  0xcb, 0x5c, 0x67, 0xbe, 0xc6, 0x02, 0x61, 0x3d, 0x2d, 0x67, 0x5a, 0xbd,
  0x68, 0x80, 0x92, 0xbe, 0x37, 0x7c, 0xeb, 0xbc, 0x97, 0x04, 0x06, 0x3e,
  0xfb, 0x77, 0x6c, 0x3d, 0x1f, 0xcf, 0x4d, 0xbd, 0x50, 0x12, 0x4d, 0xbd,
  0x83, 0xe5, 0x69, 0xbe, 0xbc, 0xc3, 0x9e, 0x3d, 0xd7, 0xd8, 0xc0, 0xbe,
  0xd5, 0xcf, 0x69, 0xbe, 0xc1, 0xa1, 0x22, 0xbe, 0x26, 0x7a, 0x16, 0xbe,
  0x30, 0x71, 0xae, 0xbe, 0x49, 0xe1, 0x60, 0xbd, 0x5d, 0x7d, 0xc9, 0xbd,
  0x7a, 0xf3, 0x9d, 0xbd, 0x87, 0x1e, 0xba, 0xbe, 0x47, 0x5f, 0x98, 0xbd,
  0x33, 0x3a, 0x90, 0xbe, 0xa8, 0xa0, 0xc7, 0xbd, 0xfb, 0x38, 0x83, 0x3d,
  0x58, 0xc7, 0x8f, 0x3a, 0x19, 0xf7, 0xc4, 0xbe, 0x1a, 0xed, 0x83, 0x3d,
  0x67, 0xf2, 0xe6, 0xbe, 0x57, 0x4b, 0x48, 0x3e, 0x20, 0x35, 0x03, 0xbe,
  0x27, 0x2f, 0x6d, 0xbe, 0x38, 0xfe, 0x81, 0xbe, 0x20, 0xa6, 0x5b, 0xbe,
  0xec, 0x01, 0xc5, 0xbc, 0x1e, 0xfd, 0x89, 0xbd, 0xda, 0xe7, 0x12, 0x3e,
  0xe1, 0x9f, 0xda, 0x3d, 0x31, 0xfc, 0x3b, 0x3c, 0xe9, 0xad, 0x8a, 0x3e,
  0xfc, 0x86, 0xb6, 0x3d, 0xb1, 0x1c, 0x17, 0x3c, 0xec, 0x53, 0x24, 0xbe,
  0x35, 0xc1, 0x8c, 0x3c, 0x26, 0xc2, 0x11, 0xbe, 0xce, 0x72, 0xdb, 0x3e,
  0x78, 0x72, 0x10, 0x3e, 0x1e, 0xb8, 0x70, 0x3e, 0xb5, 0x7a, 0x26, 0xbf,
  0x4f, 0xae, 0x1f, 0xbc, 0x72, 0xc8, 0x97, 0x3d, 0xcc, 0x92, 0x83, 0x3d,
  0xa6, 0xe3, 0xa8, 0x3d, 0xe3, 0xcd, 0x6f, 0xbd, 0x48, 0xba, 0x7a, 0x3e,
  0x57, 0x01, 0xa9, 0x3e, 0xb1, 0x2a, 0x90, 0xbd, 0xce, 0x93, 0x20, 0xbd,
  0xed, 0xab, 0x48, 0xbd, 0x13, 0x23, 0x64, 0xbe, 0x7e, 0x86, 0xce, 0x3d,
  0x63, 0x37, 0xa6, 0x3e, 0xb2, 0x19, 0x95, 0x3e, 0x05, 0x17, 0xed, 0xbd,
  0xe2, 0xbe, 0x91, 0xbd, 0xde, 0x2a, 0x91, 0xbc, 0x69, 0x6c, 0x00, 0x3d,
  0x35, 0x53, 0x0e, 0x3d, 0x1f, 0x80, 0x5b, 0x3e, 0x67, 0x6d, 0xdf, 0x3c,
  0x8b, 0x17, 0x97, 0x3c, 0xa3, 0x00, 0xa2, 0x3d, 0xac, 0x48, 0xf3, 0xbd,
  0x3b, 0xa3, 0x09, 0x3d, 0x1e, 0x63, 0x2b, 0xbd, 0x3d, 0xf4, 0x81, 0x3d,
  0x23, 0x93, 0xdd, 0x3c, 0x7f, 0x76, 0x6d, 0xbe, 0xc8, 0x74, 0x58, 0x3e,
  0x78, 0x34, 0x2c, 0xbd, 0x24, 0x2b, 0xc0, 0xbd, 0x64, 0x0e, 0x6c, 0xbe,
  0x32, 0x7f, 0x62, 0xbc, 0xff, 0xe4, 0x04, 0xbe, 0x5e, 0xc6, 0xd4, 0x3d,
  0x00, 0x71, 0xb6, 0xbd, 0x4c, 0x06, 0x06, 0xbe, 0x64, 0xde, 0xa6, 0xbd,
  0xd6, 0x28, 0x37, 0xbe, 0x80, 0x60, 0xf7, 0x3d, 0xb2, 0x46, 0xaa, 0xbc,
  0xbc, 0x34, 0x81, 0xbd, 0x47, 0xd6, 0x8f, 0xbe, 0x6d, 0x69, 0x97, 0x3d,
  0x84, 0xa1, 0xcf, 0xbd, 0x4c, 0xeb, 0xb8, 0xbd, 0x36, 0xec, 0x85, 0xbe,
  0xb6, 0xdb, 0xd2, 0xbc, 0x57, 0xd2, 0x55, 0xbe, 0x1a, 0xf4, 0x3d, 0xbd,
  0xf9, 0xb4, 0x1f, 0xbe, 0x35, 0xfa, 0x1d, 0xbe, 0xb7, 0x03, 0xfc, 0xbd,
  0x42, 0xd9, 0xdb, 0x3d, 0xaa, 0x53, 0x89, 0xbe, 0x74, 0x64, 0xfd, 0xbd,
  0xce, 0xa1, 0x53, 0xbe, 0x2a, 0x73, 0x20, 0x3e, 0x76, 0x64, 0x89, 0xbd,
  0x01, 0x84, 0xa7, 0xbd, 0x03, 0x4d, 0x3d, 0xbe, 0xf2, 0x13, 0x05, 0x3e,
  0x34, 0x9d, 0x2d, 0xbe, 0x31, 0x10, 0x47, 0xbd, 0xc1, 0xbb, 0x4f, 0x3e,
  0xf0, 0xa3, 0xc1, 0xb8, 0x55, 0xcb, 0x23, 0xbe, 0x05, 0x47, 0x51, 0xbe,
  0x05, 0x03, 0xda, 0x3d, 0x72, 0xe4, 0xb7, 0xbd, 0x84, 0x1b, 0x3e, 0xbd,
  0x6d, 0xba, 0x21, 0xbe, 0xe2, 0xb9, 0x88, 0x3d, 0x1f, 0x3a, 0x8a, 0xbd,
  0xdd, 0x63, 0xcd, 0xbd, 0xcc, 0xf7, 0xb9, 0x3d, 0x59, 0x2c, 0x48, 0x3e,
  0x00, 0x54, 0xea, 0xbc, 0x05, 0x13, 0xf2, 0xbd, 0x16, 0xe7, 0xd4, 0x3d,
  0x7d, 0x19, 0x9b, 0x3d, 0xbf, 0x44, 0xc3, 0xbb, 0x28, 0x0a, 0x26, 0xbe,
  0x16, 0x69, 0xd0, 0x3b, 0x7f, 0x04, 0xe8, 0x3d, 0x5b, 0xf9, 0x90, 0xbd,
  0x27, 0x9d, 0x37, 0xbd, 0xc9, 0x3e, 0x8a, 0xbd, 0xca, 0xb6, 0xe4, 0xbd,
  0xb3, 0xe4, 0x55, 0x3d, 0x3e, 0x2a, 0x8c, 0xbe, 0xd9, 0x3a, 0x63, 0xbd,
  0x20, 0xdf, 0x2c, 0xbc, 0x1d, 0x41, 0x7c, 0xbc, 0x07, 0xec, 0xde, 0xbb,
  0xe3, 0x2a, 0xdc, 0x3d, 0x62, 0x2d, 0xa3, 0xbd, 0x9a, 0x5d, 0x35, 0x3e,
  0xba, 0x07, 0x50, 0xbc, 0x9f, 0x6a, 0x6f, 0xbe, 0x47, 0x25, 0x00, 0x3e,
  0x83, 0x0c, 0xda, 0xbd, 0xd2, 0x40, 0x5c, 0xbe, 0xbe, 0x0a, 0xba, 0x3d,
  0x81, 0x07, 0xc4, 0xbd, 0x83, 0x66, 0x22, 0xbe, 0xca, 0x8b, 0x78, 0xbd,
  0x71, 0x34, 0xeb, 0xbd, 0x3f, 0x96, 0xc3, 0x3d, 0x74, 0xff, 0x37, 0xbe,
  0xf1, 0x02, 0x81, 0x3d, 0x3d, 0x8c, 0x1c, 0x3d, 0x3b, 0xac, 0xa4, 0x3c,
  0x6c, 0x5d, 0xc2, 0x3d, 0x98, 0xe2, 0xf4, 0x3d, 0x77, 0xa2, 0x5e, 0x3d,
  0xab, 0xdc, 0x54, 0xbe, 0x5d, 0x01, 0x8f, 0x3c, 0xcb, 0x65, 0x89, 0xbd,
  0xce, 0xcc, 0x4a, 0x3d, 0xcd, 0x22, 0xf6, 0xbd, 0x53, 0x34, 0x0f, 0xbe,
  0x27, 0x41, 0x67, 0xbe, 0x90, 0xb5, 0x21, 0xbd, 0xd9, 0x37, 0x38, 0xbe,
  0x01, 0xbb, 0x47, 0xbe, 0x0e, 0x04, 0x1c, 0xbe, 0x30, 0x03, 0x72, 0xbe,
  0xca, 0xd0, 0xc5, 0xbd, 0x48, 0xef, 0x2b, 0xbc, 0x41, 0xe7, 0xaf, 0xbd,
  0x90, 0xf1, 0x60, 0xbd, 0xc8, 0xfb, 0x0c, 0x3e, 0x5f, 0xfe, 0x84, 0xbd,
  0xaa, 0x23, 0x17, 0xbe, 0x61, 0x57, 0xdb, 0xbd, 0x7b, 0xee, 0x78, 0xbe,
  0xd8, 0x00, 0x5e, 0xbe, 0xce, 0x9b, 0xa5, 0x3d, 0x0e, 0x2a, 0xde, 0xbc,
  0xf2, 0x37, 0x5c, 0xbd, 0xe3, 0xcd, 0x17, 0x3d, 0x28, 0xec, 0x85, 0xbd,
  0x28, 0x77, 0xf7, 0x3b, 0x60, 0x88, 0xe7, 0xbd, 0x3e, 0x08, 0xef, 0xbd,
  0x63, 0x0e, 0x1c, 0x3d, 0xbf, 0x8a, 0xc9, 0xbc, 0xcf, 0xe6, 0x29, 0xbe,
  0x43, 0xa7, 0x12, 0x3d, 0xca, 0xa4, 0x81, 0xbe, 0xeb, 0x5a, 0xb0, 0x3c,
  0x2d, 0xd5, 0x53, 0xbe, 0xf8, 0x40, 0xa2, 0x3e, 0xc8, 0xe4, 0x8a, 0xbe,
  0x55, 0x6e, 0x27, 0x3e, 0xf5, 0x9b, 0x64, 0xbe, 0xc0, 0xc3, 0x12, 0xbe,
  0xd8, 0x4a, 0x43, 0xbe, 0x6f, 0xa2, 0x6b, 0xbe, 0x7a, 0x56, 0x1f, 0xbe,
  0x82, 0xe5, 0x2c, 0x3e, 0x3a, 0x41, 0x0d, 0xbb, 0x43, 0x6d, 0xe0, 0x3c,
  0xa6, 0x01, 0x3f, 0xbd, 0xaa, 0xca, 0x04, 0x3e, 0x96, 0x5f, 0x60, 0x3e,
  0x92, 0x72, 0x46, 0xbe, 0x48, 0xbc, 0xaa, 0xbe, 0x99, 0x34, 0x1c, 0xbe,
  0x85, 0xfd, 0x3a, 0xbe, 0x9b, 0x1e, 0x4e, 0x3e, 0x55, 0x66, 0x8d, 0xbd,
  0xd8, 0x3e, 0x52, 0x3d, 0x9d, 0x3a, 0x1b, 0x3e, 0x34, 0x23, 0x1a, 0xbe,
  0xe3, 0xf3, 0x01, 0xbe, 0xab, 0x1e, 0x08, 0xbd, 0x00, 0xcc, 0xe9, 0xbd,
  0x4c, 0xf5, 0xba, 0xbd, 0xcd, 0x1e, 0x42, 0x3e, 0xf2, 0xe9, 0x0d, 0x3e,
  0x1d, 0x45, 0x6a, 0x3e, 0x2e, 0x0b, 0xb2, 0x3c, 0xfb, 0x9c, 0x94, 0x3d,
  0x4f, 0x03, 0x0b, 0x3e, 0xd2, 0x06, 0x6a, 0xbe, 0x7a, 0x31, 0x75, 0xbd,
  0x1e, 0x43, 0x2d, 0x3e, 0x87, 0xd2, 0x76, 0x3c, 0x5c, 0x81, 0xaf, 0x3b,
  0x2e, 0xd7, 0x94, 0xbc, 0x76, 0x9e, 0xcb, 0xbd, 0x5e, 0x46, 0x1f, 0x3d,
  0x86, 0xa0, 0x5e, 0xbe, 0xc8, 0x8b, 0x11, 0x3e, 0xf4, 0x07, 0x45, 0x3e,
  0x5e, 0x5b, 0xee, 0xbc, 0x9c, 0xbf, 0xc7, 0x3d, 0x90, 0xad, 0x31, 0xbe,
  0x9d, 0x5c, 0x6e, 0xbe, 0x06, 0x04, 0xd5, 0x3d, 0x56, 0x80, 0x88, 0xbe,
  0xab, 0x1b, 0xb5, 0x3d, 0x70, 0xd4, 0x98, 0xbc, 0x00, 0xdd, 0xe4, 0xbd,
  0xb9, 0x4d, 0x84, 0xbe, 0x42, 0x87, 0x1d, 0xbe, 0x1e, 0xe5, 0xe7, 0xbd,
  0xa3, 0xb2, 0x54, 0xbe, 0xe5, 0xce, 0x7b, 0x3b, 0x67, 0x17, 0x49, 0xbe,
  0xe7, 0x5c, 0x8e, 0x3e, 0x2d, 0xa9, 0x16, 0x3e, 0x76, 0x91, 0x7c, 0xbd,
  0x06, 0xcb, 0x07, 0xbe, 0x25, 0xc3, 0x75, 0x3d, 0x9f, 0x06, 0x98, 0x3e,
  0xb6, 0xdf, 0x04, 0xbd, 0x5a, 0x81, 0x45, 0xbe, 0xdb, 0xcb, 0x20, 0xbe,
  0x2e, 0xe6, 0x27, 0xbe, 0x01, 0xa3, 0x89, 0x3d, 0xa0, 0xf2, 0x9f, 0xbc,
  0xe9, 0xe0, 0x2f, 0xbc, 0xcf, 0x37, 0x32, 0x3c, 0x55, 0x20, 0x8b, 0x3d,
  0x1e, 0x7d, 0x62, 0x3d, 0x3f, 0x8f, 0xe4, 0x3d, 0x3b, 0x89, 0x51, 0x3e,
  0xb9, 0x77, 0xc5, 0xbd, 0x35, 0x80, 0x1a, 0xbd, 0xe4, 0x67, 0x68, 0xbd,
  0x6d, 0x79, 0xdf, 0x3d, 0xeb, 0x2a, 0xb0, 0xbe, 0x9e, 0xc6, 0x3b, 0xbe,
  0xb8, 0x4d, 0x71, 0x3d, 0xd6, 0x69, 0x8e, 0xbd, 0x3d, 0x4e, 0x80, 0xbe,
  0xe3, 0xae, 0x51, 0xbd, 0xb0, 0x72, 0x5d, 0xbc, 0xe9, 0x5d, 0x8a, 0xbe,
  0xec, 0xe4, 0x28, 0x3d, 0xa2, 0x8a, 0xe5, 0xbd, 0xf8, 0x87, 0x05, 0x3d,
  0xa1, 0xc6, 0x95, 0x3d, 0xe9, 0xd5, 0xdf, 0x3c, 0x17, 0xc3, 0xd3, 0xbd,
  0x4a, 0xa8, 0x1b, 0xbe, 0x52, 0x84, 0x5b, 0x3e, 0x12, 0x98, 0x7f, 0xbe,
  0x6b, 0xc2, 0x6e, 0x3b, 0xa1, 0xb2, 0x07, 0xbe, 0xd7, 0x7c, 0x45, 0xbc,
  0x43, 0xce, 0xd3, 0xbc, 0xf2, 0xeb, 0x4e, 0x3e, 0x05, 0x83, 0xb2, 0x3d,
  0x94, 0x05, 0xc8, 0xbd, 0xef, 0xcb, 0xb6, 0x3d, 0x7b, 0x39, 0xf8, 0xbd,
  0xb2, 0xfc, 0xb7, 0x3e, 0xc1, 0x05, 0xaf, 0x3e, 0x0f, 0xd2, 0xc7, 0x3d,
  0x28, 0x74, 0x95, 0x3c, 0x87, 0x76, 0x97, 0x3d, 0x83, 0xfd, 0x01, 0xbf,
  0xfd, 0xc0, 0xc3, 0x3d, 0x0a, 0x18, 0x88, 0xbd, 0x1f, 0x44, 0x70, 0x3e,
  0x48, 0xa3, 0x49, 0xbe, 0x3c, 0x27, 0x3e, 0xbe, 0xb0, 0x01, 0x01, 0xbd,
  0x32, 0x8f, 0xac, 0x3e, 0x35, 0xf4, 0xb3, 0xbc, 0x06, 0xa1, 0x54, 0xbe,
  0x62, 0x60, 0xe1, 0xbd, 0x05, 0x77, 0x92, 0x3e, 0x6a, 0xbf, 0x1e, 0xbd,
  0x21, 0x32, 0x07, 0xbe, 0x15, 0xb4, 0xa0, 0xbc, 0x10, 0x5d, 0x4e, 0x3c,
  0x9c, 0xc3, 0x68, 0x3d, 0x7f, 0x28, 0x0d, 0xbd, 0xef, 0x66, 0x01, 0xbe,
  0x99, 0x7e, 0x93, 0x3d, 0xdf, 0x4f, 0x8a, 0x3d, 0x68, 0x2a, 0x4d, 0xbe,
  0x4a, 0xe7, 0xc6, 0xbe, 0x0e, 0x1e, 0x92, 0xbe, 0xc6, 0x6f, 0xed, 0xbe,
  0x96, 0xba, 0x13, 0xbf, 0x4e, 0x82, 0x9f, 0xbd, 0x4b, 0xe5, 0x81, 0xbe,
  0xfd, 0x7d, 0x0d, 0xbe, 0x94, 0xc3, 0x6e, 0xbe, 0x7b, 0xd9, 0x5c, 0xbd,
  0x2e, 0xd0, 0x5b, 0xbd, 0xc6, 0xf3, 0x04, 0x3c, 0x06, 0xa0, 0x2f, 0xbe,
  0xb6, 0xdc, 0xc0, 0xbd, 0xbf, 0xa0, 0x89, 0xbe, 0xeb, 0x9b, 0xdd, 0xbd,
  0x79, 0x68, 0xe3, 0x3d, 0x97, 0xa1, 0xeb, 0xbe, 0xa8, 0x15, 0xe7, 0xbe,
  0x54, 0xd9, 0x79, 0xbe, 0x2a, 0xfb, 0x2b, 0xbf, 0x36, 0xde, 0xe6, 0xbe,
  0x63, 0xc1, 0xfe, 0xbe, 0xe9, 0x03, 0xa1, 0xbe, 0x5c, 0xf0, 0x6e, 0xbd,
  0x67, 0xd3, 0x9b, 0xbe, 0xac, 0xf9, 0x31, 0xbd, 0x6c, 0x28, 0x15, 0x3e,
  0x72, 0x3a, 0x05, 0xbe, 0xa9, 0x92, 0xce, 0xbe, 0x23, 0xb7, 0xa1, 0xbe,
  0x9b, 0x1e, 0x5c, 0xbe, 0xc7, 0xbf, 0xf9, 0x3c, 0xda, 0x43, 0x94, 0xbe,
  0x55, 0x45, 0xae, 0xbe, 0x7c, 0x10, 0x8a, 0xbd, 0x3a, 0xaa, 0xce, 0xbe,
  0xc1, 0x6b, 0x22, 0xbe, 0x10, 0x51, 0xaa, 0xbe, 0xfd, 0x99, 0x81, 0xbe,
  0x46, 0x94, 0xc3, 0x3c, 0x59, 0x87, 0xb8, 0xbd, 0x8e, 0xf8, 0x65, 0xbd,
  0x48, 0xc6, 0x2a, 0x3e, 0x03, 0x6b, 0x01, 0xbe, 0xd6, 0x93, 0x7f, 0x3e,
  0xa0, 0x0b, 0x5c, 0xbd, 0xaf, 0x0e, 0x0c, 0x3e, 0xb6, 0xf3, 0x42, 0xbd,
  0xc7, 0xe2, 0xe3, 0xbd, 0x4d, 0xf1, 0x3d, 0xbc, 0xf5, 0x59, 0x1d, 0x3e,
  0xee, 0x20, 0xed, 0x3b, 0x7b, 0x3e, 0x9a, 0xbc, 0xe9, 0x10, 0x26, 0xbe,
  0xa5, 0x6a, 0xe0, 0x3e, 0xc0, 0x43, 0xc9, 0x3c, 0xa4, 0xfe, 0x6d, 0xbe,
  0x6d, 0x78, 0x40, 0xbd, 0x14, 0x93, 0x67, 0x3d, 0x39, 0xba, 0x1c, 0xbc,
  0x9f, 0xd6, 0x71, 0x3e, 0xe3, 0xe0, 0xcf, 0x3e, 0xec, 0x89, 0xdd, 0x3c,
  0xdc, 0x3a, 0x0d, 0xbd, 0xf5, 0x48, 0x14, 0x3e, 0x9a, 0x42, 0x39, 0xbd,
  0x17, 0x33, 0x86, 0x3d, 0xa2, 0x52, 0xb6, 0x3d, 0x44, 0xf9, 0x07, 0xbe,
  0xdc, 0x93, 0x8a, 0xbb, 0x85, 0x5f, 0xf8, 0x3d, 0x00, 0x49, 0x04, 0x3e,
  0x5f, 0x7f, 0x0b, 0xbd, 0x90, 0x1b, 0x8c, 0xbc, 0xa8, 0xb8, 0xa6, 0x3d,
  0xf0, 0x09, 0x8a, 0x3c, 0x05, 0x6a, 0xbe, 0x3e, 0x10, 0xa2, 0x56, 0x3e,
  0x2e, 0xed, 0x14, 0xbd, 0x27, 0xb5, 0xea, 0xbc, 0xa6, 0x0a, 0x32, 0xbe,
  0xab, 0x58, 0x38, 0xbe, 0x59, 0xb0, 0x99, 0xbe, 0x27, 0x40, 0x37, 0xbe,
  0x3a, 0x34, 0x06, 0xbe, 0x8e, 0x7c, 0xa4, 0xbe, 0xae, 0x96, 0x37, 0xbe,
  0xba, 0xba, 0x0d, 0xbe, 0x41, 0x74, 0x7e, 0xbe, 0x96, 0x9b, 0x70, 0xbe,
  0x27, 0x91, 0xb2, 0xbd, 0x45, 0x62, 0xb5, 0xbe, 0x5a, 0xe9, 0x8f, 0xbe,
  0x9c, 0x7f, 0x34, 0xbe, 0x6e, 0x64, 0x97, 0xbe, 0xb3, 0x69, 0x27, 0xbf,
  0x10, 0x2d, 0x75, 0xbd, 0x41, 0x3d, 0x4f, 0xbe, 0xd2, 0xfb, 0xf9, 0xbe,
  0x88, 0x75, 0x65, 0xbd, 0xa4, 0x2f, 0x65, 0xbe, 0x99, 0xb7, 0x24, 0x3d,
  0x67, 0x1a, 0x67, 0xbd, 0x15, 0x97, 0xdd, 0xbd, 0x09, 0x1c, 0xbe, 0xbd,
  0xb6, 0x12, 0xc2, 0xbd, 0xb8, 0x4c, 0x29, 0xbe, 0xfa, 0xca, 0xf2, 0xbe,
  0x4a, 0x63, 0xb3, 0xbe, 0x3b, 0xdd, 0xb5, 0xbc, 0x40, 0xbe, 0x67, 0xbe,
  0xa5, 0xf6, 0xd6, 0xbe, 0xab, 0xc7, 0xb2, 0xbd, 0x84, 0x04, 0xf2, 0x3d,
  0x73, 0x24, 0xe5, 0xbd, 0x83, 0x57, 0x90, 0xbe, 0x77, 0x05, 0x2d, 0xbd,
  0x06, 0xd5, 0x5c, 0xbd, 0xff, 0x36, 0x52, 0xbe, 0x50, 0x81, 0x83, 0xbd,
  0xf9, 0xf9, 0x1b, 0xbd, 0xe5, 0xe5, 0xf8, 0xbd, 0x6e, 0xe9, 0x15, 0x3e,
  0x55, 0x9d, 0xef, 0xbe, 0x60, 0xcf, 0xa6, 0xbe, 0x06, 0x26, 0x3c, 0xbe,
  0x81, 0x28, 0xf7, 0xbc, 0x5b, 0x16, 0x03, 0xbf, 0x79, 0xb5, 0x70, 0xbe,
  0xe1, 0x35, 0xa9, 0xbe, 0x32, 0xfb, 0x19, 0xbf, 0x78, 0x4f, 0x0a, 0xbf,
  0xe4, 0xe1, 0x11, 0xbe, 0x3b, 0x2b, 0xb1, 0x3d, 0xbc, 0xc7, 0x57, 0xbe,
  0x37, 0x37, 0x94, 0xbd, 0xc7, 0xad, 0x5f, 0x3d, 0x81, 0x94, 0x2b, 0xbe,
  0x6d, 0x4d, 0x45, 0xbd, 0x3d, 0x2d, 0x08, 0xbf, 0x68, 0xbc, 0x7f, 0x3e,
  0xea, 0x0e, 0x8e, 0xbe, 0xda, 0x34, 0x10, 0xbe, 0x2b, 0x1a, 0xcd, 0xbe,
  0x0e, 0x6d, 0x7e, 0xbe, 0x17, 0x8e, 0x56, 0xbd, 0x78, 0x45, 0x1b, 0xbe,
  0x91, 0x42, 0x7a, 0x3d, 0x38, 0x35, 0x77, 0x3d, 0x48, 0x3c, 0xcf, 0x3d,
  0x91, 0x25, 0x82, 0x3e, 0xb9, 0x53, 0x1c, 0x3e, 0x30, 0x97, 0xc8, 0xbd,
  0xbe, 0x7f, 0x93, 0xbd, 0x72, 0x81, 0xc4, 0x3b, 0xc3, 0x70, 0x0b, 0xbe,
  0x07, 0xcc, 0xc5, 0x3e, 0xb6, 0x52, 0x93, 0x3e, 0x51, 0x19, 0xb5, 0xbc,
  0xec, 0xfd, 0xe4, 0xbe, 0xbf, 0x18, 0x04, 0x3e, 0x87, 0xdd, 0x6e, 0xbc,
  0x32, 0x15, 0x9e, 0x3d, 0xbf, 0x33, 0x1e, 0x3d, 0xac, 0xbb, 0xca, 0xbd,
  0x5a, 0x61, 0x83, 0x3e, 0x84, 0x69, 0xdb, 0x3e, 0x81, 0x8e, 0xf8, 0x3d,
  0xe6, 0xec, 0xca, 0xbc, 0x0b, 0x75, 0x5b, 0x3d, 0x62, 0x46, 0x1f, 0xbe,
  0xeb, 0x56, 0x2d, 0x3c, 0x1d, 0xef, 0x9f, 0x3e, 0x38, 0x56, 0x35, 0x3e,
  0x02, 0xb4, 0xc7, 0xbd, 0x97, 0x5b, 0xad, 0xbd, 0xc9, 0x01, 0xfb, 0x3c,
  0xe9, 0x27, 0x2c, 0x3d, 0x81, 0xa5, 0xae, 0x3d, 0x20, 0x16, 0x66, 0x3e,
  0x27, 0x2a, 0x36, 0xbd, 0xe4, 0x3c, 0xdb, 0x3d, 0x99, 0x1f, 0x8b, 0x3e,
  0xae, 0x6c, 0xa9, 0x3d, 0x21, 0xd8, 0x9e, 0x3d, 0x20, 0x29, 0x2f, 0x3d,
  0x51, 0xbd, 0x9e, 0xbc, 0xf4, 0x51, 0x48, 0x3e, 0x7e, 0x04, 0xc2, 0x3e,
  0xe9, 0x90, 0x88, 0x3e, 0xa3, 0xbf, 0xf7, 0xbc, 0x04, 0xcb, 0xf1, 0xbd,
  0x4a, 0x96, 0x93, 0xbd, 0xc6, 0x68, 0xda, 0x3d, 0x01, 0xfd, 0x5b, 0x3d,
  0x0a, 0xd3, 0xcf, 0xbd, 0x80, 0x3a, 0x7a, 0xbe, 0x57, 0x76, 0xa5, 0xbd,
  0x58, 0x6a, 0x10, 0xbe, 0x59, 0xeb, 0x8a, 0xbe, 0xe3, 0xd7, 0x36, 0xbd,
  0x64, 0x9a, 0x8f, 0x3c, 0x5e, 0xf6, 0x82, 0xbd, 0xe9, 0x5f, 0x73, 0xbe,
  0x49, 0x9c, 0x0a, 0x3e, 0xc5, 0xe9, 0xe0, 0xbc, 0xf3, 0x55, 0x13, 0xbd,
  0xdd, 0x5e, 0x3d, 0x3b, 0xe5, 0x3b, 0x19, 0x3e, 0xfa, 0x97, 0x17, 0xbd,
  0x1c, 0x2c, 0x4d, 0xbe, 0x97, 0x4c, 0x37, 0xbe, 0xe2, 0x0d, 0x51, 0xbe,
  0x1e, 0x49, 0xc3, 0xbd, 0x0b, 0x61, 0xb4, 0x3d, 0xdb, 0xdc, 0x05, 0x3e,
  0xf3, 0x6a, 0xef, 0xbd, 0xb2, 0x54, 0x31, 0xbe, 0xe5, 0xef, 0x8a, 0x3d,
  0x28, 0x2e, 0xa7, 0xbe, 0xa8, 0xcf, 0x42, 0x3d, 0x85, 0x71, 0x0b, 0xbd,
  0x29, 0x33, 0x89, 0x3d, 0x0b, 0xef, 0x5c, 0x3d, 0x9c, 0x14, 0x37, 0xbd,
  0x75, 0x87, 0x07, 0x3e, 0x61, 0x25, 0xc4, 0x3d, 0xa2, 0x87, 0x5d, 0xbe,
  0xfc, 0xba, 0x81, 0xbe, 0x80, 0xfc, 0x29, 0x3e, 0xda, 0x5f, 0x84, 0xbd,
  0x9e, 0x0a, 0x5e, 0xbe, 0xed, 0x62, 0x2c, 0x3d, 0xb1, 0x8d, 0xec, 0xbd,
  0xb9, 0x86, 0x48, 0xbe, 0x1d, 0xdb, 0x0d, 0xbd, 0x66, 0xf5, 0xc5, 0x3d,
  0x6e, 0xa3, 0x55, 0xbe, 0xf2, 0x2f, 0xba, 0xbc, 0x90, 0xfe, 0xbd, 0x3c,
  0xe1, 0xa3, 0x85, 0xbe, 0x72, 0x40, 0x8a, 0x3d, 0x63, 0xf7, 0x10, 0x3d,
  0xaa, 0xcb, 0x20, 0xbe, 0x7c, 0xdd, 0x39, 0x3e, 0x3d, 0xf7, 0x0e, 0xbe,
  0x6a, 0xe4, 0x32, 0x3e, 0xb6, 0x71, 0xd9, 0x3d, 0xd6, 0xd4, 0x16, 0xbd,
  0xe5, 0x66, 0x6d, 0xbe, 0x00, 0x24, 0x27, 0x3e, 0xbe, 0x7c, 0x73, 0xbe,
  0x5d, 0xab, 0x08, 0x3e, 0xb7, 0x2f, 0x97, 0xbd, 0x48, 0xed, 0x72, 0xbe,
  0x1c, 0x92, 0xae, 0xbd, 0xc1, 0xcb, 0x69, 0xbe, 0xd5, 0x0e, 0xc4, 0x3c,
  0x97, 0x10, 0xdf, 0xbd, 0x2c, 0xec, 0x80, 0x3d, 0xe8, 0x47, 0xef, 0xbd,
  0xfb, 0xe9, 0xbb, 0xbd, 0x77, 0x3e, 0x45, 0xbe, 0x3b, 0x52, 0x62, 0xbd,
  0xeb, 0x3d, 0xdb, 0x3d, 0x92, 0x36, 0x19, 0xbd, 0x4b, 0x31, 0x53, 0x3c,
  0x89, 0xba, 0x8e, 0xbe, 0x24, 0x42, 0x0f, 0xbe, 0x45, 0x91, 0x93, 0xbc,
  0xf0, 0x3f, 0x86, 0xbc, 0xe8, 0x23, 0x50, 0x3d, 0xca, 0xe3, 0x28, 0xbe,
  0x60, 0x0e, 0xca, 0xbc, 0x8c, 0xd0, 0x02, 0xbe, 0xca, 0x40, 0xe3, 0x3c,
  0xbf, 0x48, 0xe4, 0x3c, 0xb8, 0x78, 0x30, 0x3d, 0x09, 0xdf, 0x31, 0x3e,
  0x92, 0xb8, 0x00, 0x3d, 0x63, 0xdc, 0x52, 0x3d, 0x8d, 0xbd, 0x6a, 0xbe,
  0x9e, 0x49, 0x02, 0x3e, 0x92, 0x9b, 0x55, 0xbe, 0x4f, 0x3d, 0x03, 0xbe,
  0x74, 0x12, 0xfb, 0x3c, 0xe3, 0xac, 0xbc, 0x3d, 0xcd, 0x69, 0xee, 0xbd,
  0x4a, 0x9c, 0xfb, 0xbd, 0x99, 0x0e, 0x27, 0xbe, 0xfb, 0xcd, 0xa8, 0xbc,
  0x3a, 0x02, 0xba, 0x3c, 0x33, 0xe9, 0x40, 0xbe, 0x60, 0x9a, 0x39, 0x3d,
  0xcb, 0xc9, 0x3d, 0x3d, 0x4b, 0x9c, 0x54, 0x3c, 0xff, 0xa4, 0x70, 0xbd,
  0xd2, 0x71, 0xa7, 0xbd, 0x3a, 0x8c, 0xd8, 0xbd, 0x87, 0x39, 0xae, 0xbd,
  0xab, 0x3f, 0xc7, 0x3d, 0x67, 0xb0, 0x19, 0xbe, 0x4f, 0xf9, 0x95, 0xbd,
  0xb2, 0xaf, 0x34, 0xbe, 0x58, 0xd5, 0xac, 0x3d, 0xba, 0x00, 0xcd, 0x3d,
  0x9c, 0xb9, 0xc9, 0x3d, 0x48, 0x62, 0x68, 0x3d, 0x4c, 0xd5, 0x02, 0x3d,
  0x3b, 0x72, 0x7b, 0x3e, 0x57, 0x27, 0x69, 0x3e, 0x56, 0xab, 0x5f, 0x3e,
  0xba, 0x32, 0x19, 0xbe, 0x6b, 0x8a, 0xee, 0xbc, 0x80, 0x11, 0x77, 0x3d,
  0xcd, 0xb2, 0x19, 0x3e, 0x84, 0xbd, 0x8b, 0x3d, 0x82, 0xf2, 0x55, 0x3e,
  0xb6, 0x47, 0xd2, 0xbd, 0xa6, 0xb3, 0x56, 0xbe, 0xc2, 0x4a, 0x1b, 0xbd,
  0x42, 0x5d, 0x43, 0xbe, 0xf6, 0x03, 0xb7, 0xbd, 0x18, 0x70, 0x2f, 0x3d,
  0xa6, 0x3f, 0x4f, 0xbc, 0xb5, 0xf0, 0xea, 0x3d, 0x6e, 0x81, 0x92, 0x3d,
  0xf9, 0x55, 0xb0, 0xbe, 0x0f, 0x45, 0xff, 0x3b, 0x6a, 0x47, 0x09, 0x3d,
  0x0f, 0x74, 0xa5, 0x3d, 0x2f, 0x21, 0x2e, 0xbe, 0x62, 0x65, 0x8c, 0xbb,
  0xa4, 0x62, 0xc9, 0xbd, 0xe6, 0x34, 0x89, 0x3e, 0x62, 0xe7, 0x66, 0xbe,
  0xa4, 0xb4, 0x93, 0x3d, 0x53, 0x78, 0x6c, 0xbe, 0x51, 0x9b, 0x44, 0xbe,
  0x72, 0xe4, 0xb8, 0xbe, 0xbd, 0x5b, 0x81, 0xbd, 0x6d, 0xde, 0x96, 0xbe,
  0x43, 0x71, 0x87, 0xbe, 0xf3, 0x22, 0x51, 0xbe, 0xfe, 0x7f, 0xa1, 0xbd,
  0x98, 0xc9, 0x0c, 0xbe, 0xf3, 0x19, 0x02, 0x3e, 0x44, 0xae, 0x52, 0xbc,
  0xaf, 0xe3, 0x7c, 0x3e, 0x22, 0x87, 0xb9, 0xbc, 0x15, 0x87, 0xc4, 0xbd,
  0x1e, 0xa6, 0x80, 0x3e, 0x86, 0x24, 0x14, 0xbe, 0x19, 0x31, 0x22, 0xbe,
  0x00, 0x8e, 0x0f, 0xbd, 0xa7, 0x51, 0x50, 0xbe, 0xd9, 0x14, 0xda, 0xbe,
  0xfe, 0xb5, 0x8b, 0xbe, 0xc9, 0xf8, 0xed, 0x3d, 0x26, 0xa6, 0x0b, 0x3d,
  0x30, 0x29, 0xde, 0x3d, 0xad, 0x16, 0x50, 0xbd, 0x87, 0x57, 0xd6, 0x3d,
  0xcf, 0xe3, 0x61, 0xbe, 0x06, 0xdd, 0x00, 0x3e, 0x02, 0x9a, 0x24, 0xbe,
  0x49, 0x4c, 0xb2, 0xbd, 0x2d, 0x4a, 0x02, 0x3e, 0x96, 0x23, 0x9a, 0xbd,
  0xc3, 0x75, 0x3a, 0xbe, 0xcf, 0xf0, 0x69, 0xbe, 0xff, 0xef, 0x4f, 0xbd,
  0x04, 0xa1, 0x21, 0xbd, 0x7b, 0xc2, 0x71, 0xbd, 0x9e, 0xcb, 0x02, 0x3c,
  0x44, 0x1f, 0x23, 0xbd, 0xef, 0x87, 0xfc, 0x3d, 0xa0, 0xd9, 0xc9, 0xbd,
  0x86, 0xfb, 0xd1, 0x3c, 0xe4, 0x1e, 0x01, 0x3e, 0xc3, 0xfa, 0x6a, 0x3d,
  0x44, 0x11, 0xee, 0x3d, 0xf7, 0x8a, 0xef, 0xbd, 0x0f, 0x18, 0xcd, 0x3c,
  0x01, 0x7e, 0x4a, 0xbe, 0xe6, 0x4c, 0x88, 0xbe, 0xfa, 0x0c, 0x13, 0xbd,
  0x9a, 0x6a, 0x94, 0xbd, 0xf9, 0xef, 0x2d, 0xbc, 0x1a, 0x3b, 0x3a, 0xbe,
  0x5b, 0xf0, 0xec, 0xbd, 0x00, 0x42, 0x8f, 0xbe, 0xd1, 0x89, 0x10, 0xbe,
  0xde, 0x9f, 0xbf, 0xbd, 0x5d, 0x61, 0x32, 0x3e, 0x34, 0xd4, 0x3b, 0xbe,
  0x94, 0xf6, 0x0a, 0xbe, 0xd3, 0xdf, 0x4e, 0x3d, 0xec, 0x25, 0x65, 0x3d,
  0x8c, 0xd2, 0x00, 0xbd, 0xcd, 0x13, 0x8e, 0xbd, 0x11, 0xcb, 0x5e, 0x3c,
  0x8f, 0x08, 0xb5, 0xbd, 0x4f, 0x4f, 0x0b, 0xbe, 0xc5, 0xbf, 0x23, 0xbd,
  0xea, 0x74, 0x5d, 0x3d, 0x4a, 0x57, 0xcd, 0x3d, 0x4f, 0xf5, 0xa0, 0xbe,
  0xd6, 0x40, 0x47, 0x3c, 0xeb, 0x9e, 0x96, 0x3c, 0x95, 0xa9, 0x0d, 0x3d,
  0xde, 0x95, 0xf4, 0xbd, 0xb9, 0xc3, 0x60, 0xbd, 0xaa, 0x46, 0xa5, 0x3d,
  0x2b, 0xa9, 0x83, 0xbc, 0xe6, 0x69, 0x5e, 0xbb, 0xaf, 0x0b, 0x36, 0xbe,
  0x29, 0x8b, 0x4c, 0x3d, 0x5e, 0x28, 0x1f, 0x3e, 0x52, 0x38, 0xe9, 0x3d,
  0x80, 0x50, 0x10, 0xbe, 0x5d, 0xcb, 0x25, 0xbe, 0xf1, 0x5f, 0x75, 0xbe,
  0x33, 0x9e, 0x8e, 0xbe, 0xc7, 0x8e, 0xc6, 0xbd, 0x46, 0xc7, 0x84, 0xbd,
  0xca, 0xae, 0xba, 0xbc, 0x07, 0xfd, 0x38, 0xbe, 0x34, 0x7b, 0xe3, 0xbd,
  0x4a, 0x98, 0xc8, 0xbd, 0xe4, 0x52, 0xcc, 0x3d, 0x6b, 0x8d, 0x5e, 0xbe,
  0x9a, 0x16, 0x20, 0x3b, 0xcd, 0xf3, 0x8a, 0xbd, 0xfa, 0x4b, 0x17, 0xbe,
  0x91, 0x6e, 0xb5, 0x3d, 0x06, 0x39, 0xf2, 0x3c, 0xf7, 0x03, 0xfa, 0x3c,
  0xb5, 0xfb, 0x27, 0xbe, 0xd4, 0x0a, 0x3a, 0xbe, 0xd0, 0x3f, 0x53, 0xbe,
  0xdb, 0x0b, 0x33, 0xbd, 0xb0, 0x88, 0xdd, 0x3c, 0xdb, 0xc5, 0x90, 0xbe,
  0xaf, 0x8b, 0x8d, 0x3d, 0x93, 0x9a, 0x59, 0xbe, 0xfa, 0x98, 0x89, 0xbc,
  0xda, 0x34, 0x94, 0xbe, 0x71, 0x6e, 0x0f, 0xbe, 0x47, 0x96, 0x22, 0xbd,
  0x8c, 0xb3, 0xc5, 0x3d, 0x09, 0xdf, 0xe0, 0xbd, 0x4d, 0x1e, 0x65, 0xbe,
  0x1b, 0x40, 0x88, 0x3d, 0x5e, 0xf4, 0xc7, 0x3b, 0x10, 0x3a, 0x28, 0xbe,
  0x9e, 0xfe, 0x96, 0xbd, 0xcc, 0x5e, 0xa7, 0x3b, 0x98, 0x0b, 0x07, 0x3d,
  0x75, 0x65, 0xb6, 0xbe, 0xdc, 0xf8, 0x50, 0xbe, 0xa2, 0xa4, 0x63, 0xbe,
  0xac, 0xa1, 0x85, 0x3d, 0x62, 0xce, 0x02, 0x3e, 0x68, 0x6e, 0x6d, 0x3d,
  0xee, 0x35, 0xb3, 0xbd, 0x7e, 0xbf, 0x57, 0xbe, 0x7b, 0x10, 0x8b, 0xbd,
  0xb4, 0x7d, 0xa2, 0x3d, 0x42, 0x3c, 0x0d, 0xbc, 0xa0, 0x1f, 0x85, 0xbd,
  0x61, 0x09, 0xc2, 0xbd, 0xc6, 0x74, 0x21, 0xbe, 0x3a, 0xd7, 0xa1, 0xbe,
  0xc6, 0x2b, 0xc4, 0xbd, 0x6d, 0x51, 0xb0, 0xbe, 0x00, 0x79, 0x5f, 0xbe,
  0x25, 0x1f, 0x25, 0xbe, 0x34, 0x29, 0x34, 0xbe, 0xcb, 0xd8, 0x3b, 0xbe,
  0x5b, 0x89, 0x0d, 0xbd, 0x92, 0xee, 0xe2, 0x3d, 0xc6, 0x68, 0x4e, 0xbe,
  0x92, 0xcd, 0xa6, 0x3a, 0x07, 0x86, 0x52, 0xbe, 0x05, 0xd7, 0x0f, 0xbe,
  0x8f, 0xa8, 0x90, 0x3d, 0x8a, 0xed, 0x5b, 0xbd, 0x13, 0x13, 0xb0, 0xbd,
  0xf6, 0x49, 0xd6, 0xbd, 0x64, 0xe6, 0xa6, 0x3d, 0x5a, 0x9e, 0x3c, 0xbe,
  0x96, 0xfc, 0x60, 0xbe, 0x68, 0x6c, 0x34, 0x3e, 0xe5, 0x2c, 0x96, 0x3d,
  0xe9, 0x7b, 0x1d, 0xbe, 0x9b, 0x2c, 0x8a, 0x3d, 0x07, 0x42, 0x29, 0x3e,
  0x4e, 0xa9, 0x35, 0xbe, 0xf5, 0x53, 0xec, 0xbd, 0x1d, 0x44, 0x61, 0xbd,
  0xa7, 0x5d, 0x52, 0xbe, 0x2f, 0x23, 0x8a, 0x3c, 0x59, 0x3d, 0x54, 0xbd,
  0x9c, 0xe4, 0x81, 0xbe, 0xf5, 0xb4, 0xad, 0xbd, 0xba, 0x2f, 0x43, 0x3e,
  0xa2, 0x30, 0x02, 0xbe, 0xe7, 0xba, 0xfe, 0xbd, 0xed, 0xa8, 0x2e, 0xbd,
  0x46, 0xc8, 0x9a, 0xbc, 0xdc, 0x50, 0x32, 0x3d, 0xfc, 0x0a, 0x67, 0x3c,
  0xf4, 0xe7, 0x6f, 0xbd, 0xcd, 0xed, 0x40, 0xbe, 0x64, 0x29, 0x8c, 0x3d,
  0xb3, 0xf0, 0x7d, 0xbe, 0x81, 0x21, 0xae, 0xbd, 0xd3, 0x0a, 0xf7, 0x3d,
  0xc5, 0xeb, 0x1e, 0xbd, 0xd7, 0x01, 0x41, 0xbe, 0x3c, 0xc2, 0x28, 0xbe,
  0x56, 0xc8, 0x22, 0x3d, 0x5f, 0x09, 0x45, 0xbe, 0xde, 0x0c, 0x00, 0xbe,
  0x42, 0x55, 0x0c, 0xbe, 0x48, 0x26, 0xc6, 0xbd, 0xa3, 0xe1, 0x95, 0xbc,
  0x9e, 0x69, 0x19, 0xbe, 0x03, 0x9c, 0xb7, 0xbc, 0xd4, 0xfe, 0x3f, 0xbe,
  0xe2, 0x79, 0xbf, 0xbd, 0xe8, 0xb6, 0x81, 0x3e, 0x34, 0x65, 0xcf, 0xbe,
  0xea, 0xf5, 0x3b, 0xbe, 0x5b, 0x0b, 0xed, 0xbe, 0x75, 0x66, 0xa3, 0x3e,
  0x64, 0x56, 0x61, 0xbe, 0xf6, 0x2c, 0x27, 0xbd, 0xfa, 0x32, 0x40, 0xbe,
  0x76, 0x6b, 0xa8, 0xbe, 0x22, 0x0f, 0x86, 0xbe, 0x21, 0xde, 0x41, 0x3e,
  0xa2, 0x60, 0x49, 0xbc, 0x25, 0x60, 0x91, 0xbe, 0xcd, 0x9a, 0x2c, 0xbd,
  0x00, 0xdf, 0xc9, 0x3d, 0x37, 0x1b, 0x8e, 0x3e, 0x14, 0xf6, 0x23, 0x3e,
  0x18, 0xeb, 0x04, 0x3e, 0xd7, 0x10, 0xe1, 0x3d, 0x45, 0x4d, 0xce, 0xbd,
  0xb1, 0x5d, 0x5d, 0x3e, 0x7a, 0x24, 0x8b, 0xbe, 0xee, 0xcd, 0x89, 0xbd,
  0xe0, 0x6f, 0x85, 0xbc, 0xea, 0x68, 0x7b, 0xbc, 0x66, 0x69, 0x13, 0x3e,
  0x73, 0xb5, 0xf0, 0x3b, 0xdb, 0x28, 0x2c, 0xbd, 0xcf, 0xb1, 0x07, 0xbd,
  0x6a, 0xcf, 0x11, 0x3e, 0x3b, 0xc9, 0x1d, 0xbe, 0xf9, 0xda, 0x25, 0x3f,
  0x9a, 0xd0, 0x1c, 0x3c, 0x51, 0xde, 0x29, 0x3e, 0x9b, 0x8a, 0xa4, 0x3e,
  0xca, 0x96, 0x47, 0xbe, 0xe4, 0x88, 0xd4, 0x3d, 0xc9, 0xad, 0x07, 0xbe,
  0x88, 0x30, 0x46, 0xbd, 0x16, 0x7b, 0x6a, 0xbd, 0x3e, 0x39, 0xc9, 0x3c,
  0x7f, 0x14, 0x1a, 0x3e, 0xb1, 0xb6, 0x04, 0x3e, 0x58, 0xed, 0x9d, 0xbc,
  0x13, 0x80, 0xef, 0xbc, 0xfe, 0x82, 0x25, 0x3f, 0xa9, 0x15, 0x88, 0xbe,
  0x33, 0xcb, 0xbe, 0x3e, 0x43, 0x55, 0x3b, 0x3e, 0xc3, 0x3e, 0x83, 0x3e,
  0x45, 0x9a, 0x83, 0x3d, 0x0b, 0x8f, 0x57, 0xbe, 0x75, 0x97, 0x43, 0xbd,
  0xde, 0x82, 0xd6, 0x3c, 0x5d, 0x79, 0x9f, 0xbe, 0xfe, 0x93, 0x4c, 0x3d,
  0x8d, 0xd6, 0x8e, 0xbe, 0xe8, 0x3e, 0x51, 0x3e, 0x7d, 0xa6, 0x25, 0x3e,
  0x7f, 0x0d, 0xac, 0x3d, 0xd7, 0x25, 0xa3, 0xbd, 0xa0, 0xa5, 0x47, 0x3e,
  0x8e, 0xa2, 0x77, 0xbe, 0x8d, 0xd9, 0xeb, 0x3d, 0x62, 0x37, 0x8e, 0x3e,
  0xa7, 0xe9, 0x2a, 0xbe, 0x1b, 0x8e, 0xd7, 0xbd, 0xcf, 0xe5, 0x75, 0xbe,
  0x85, 0xe2, 0xcb, 0x3e, 0x17, 0xa2, 0x27, 0xbe, 0x85, 0xfd, 0x92, 0x3b,
  0xf5, 0x83, 0x1f, 0xbe, 0x02, 0x29, 0x35, 0x3c, 0x77, 0xeb, 0xf6, 0xbd,
  0x79, 0xf6, 0x9e, 0x3e, 0x70, 0xa8, 0x37, 0xbd, 0xb0, 0xfc, 0xde, 0xbd,
  0xc9, 0xde, 0xc3, 0xbd, 0xd7, 0xda, 0x18, 0xbe, 0x0a, 0x29, 0x96, 0x3d,
  0xd7, 0x0d, 0x29, 0x3e, 0xdc, 0xb9, 0xee, 0xbd, 0x09, 0xe9, 0x95, 0xbd,
  0x27, 0x9f, 0x68, 0xbe, 0xe9, 0x63, 0xbd, 0x3e, 0x91, 0xe1, 0x61, 0xbe,
  0x1e, 0xef, 0x13, 0xbe, 0xa6, 0x83, 0xa4, 0x3b, 0x2f, 0x41, 0xa8, 0xbd,
  0xb7, 0x31, 0x88, 0x3c, 0xe9, 0x33, 0x21, 0xbe, 0x4b, 0xe1, 0x93, 0x3d,
  0x8b, 0xb7, 0x25, 0xbe, 0xfc, 0x41, 0x9e, 0x3c, 0x07, 0x5d, 0x7c, 0xbd,
  0x03, 0xc7, 0x28, 0x3e, 0x3e, 0x54, 0x8a, 0xbe, 0xd7, 0x44, 0xfd, 0xbd,
  0x0c, 0x0b, 0x02, 0xbe, 0x2e, 0x19, 0x59, 0xbe, 0x75, 0xe0, 0x0c, 0xbe,
  0x8e, 0xb4, 0x16, 0xbd, 0x61, 0xc9, 0x2c, 0x3e, 0x8c, 0x56, 0x8f, 0xbd,
  0x48, 0x7d, 0xbb, 0xb9, 0xca, 0x54, 0xf4, 0xbd, 0xf5, 0x9b, 0x95, 0xbd,
  0xdb, 0x3f, 0xae, 0xbd, 0xc2, 0xe6, 0x01, 0xbe, 0xb3, 0xd2, 0xb3, 0x3d,
  0x2b, 0x5c, 0xa3, 0xbb, 0x9c, 0x7b, 0xab, 0x3b, 0xd0, 0x52, 0x01, 0xbe,
  0x11, 0x31, 0x00, 0xbd, 0x77, 0xeb, 0xbc, 0xbd, 0x61, 0x52, 0x82, 0xbe,
  0x63, 0x2c, 0x35, 0xbe, 0xe8, 0x55, 0x8a, 0xbe, 0xf0, 0x5b, 0x7e, 0x3d,
  0xd6, 0x7a, 0x3b, 0xbe, 0xca, 0x56, 0xd4, 0xba, 0x12, 0x22, 0xea, 0xbd,
  0x2e, 0x07, 0x0d, 0x3d, 0x10, 0x23, 0x60, 0xbe, 0x5b, 0xfb, 0xde, 0x3d,
  0xe8, 0x7d, 0xc3, 0x3d, 0xf9, 0x4e, 0x61, 0xbd, 0x6d, 0xf1, 0xad, 0x3d,
  0x3d, 0xd4, 0xec, 0xbd, 0x22, 0x76, 0x3a, 0xbe, 0x07, 0x78, 0x18, 0x3d,
  0xcc, 0x82, 0xd9, 0x3b, 0x83, 0x48, 0xd2, 0xbd, 0x29, 0x6c, 0x6e, 0xbe,
  0xa5, 0x73, 0xb3, 0xbd, 0xb1, 0x67, 0x4f, 0xbd, 0xce, 0xfd, 0xf6, 0xbd,
  0x8b, 0x14, 0x4a, 0x3e, 0xf2, 0x90, 0x0c, 0x3d, 0x3b, 0xaf, 0x17, 0x3d,
  0x69, 0x94, 0x32, 0x3d, 0x71, 0x9a, 0xc2, 0x3d, 0x9c, 0xd8, 0xcf, 0x3d,
  0xaa, 0x13, 0xcb, 0xbd, 0x59, 0xbc, 0x27, 0xbe, 0x31, 0xbb, 0x08, 0x3e,
  0x65, 0x02, 0xeb, 0x3d, 0x23, 0x2b, 0x2b, 0xbe, 0x87, 0x20, 0x95, 0x3d,
  0x5b, 0x91, 0x06, 0xbe, 0x30, 0x44, 0x17, 0xbe, 0x16, 0xc2, 0x52, 0xbe,
  0xd2, 0xc1, 0x43, 0x3e, 0xee, 0xfc, 0x10, 0x3d, 0x73, 0xf9, 0x59, 0xbe,
  0x21, 0x61, 0x03, 0x3e, 0x49, 0x38, 0x3e, 0xbc, 0xad, 0xc5, 0x10, 0xbe,
  0xce, 0x01, 0xf2, 0x3d, 0x55, 0xbd, 0x20, 0xbd, 0x2e, 0xa7, 0x45, 0xbe,
  0x73, 0x03, 0x3d, 0x3d, 0x44, 0x72, 0x33, 0x3e, 0xfb, 0xff, 0x0c, 0xbe,
  0x4f, 0xe2, 0x53, 0xbd, 0xfb, 0x90, 0x80, 0xbe, 0x16, 0xf6, 0x07, 0x3e,
  0xc6, 0x7e, 0x35, 0xbe, 0x38, 0x7e, 0x46, 0xbe, 0xf2, 0x87, 0x55, 0xbe,
  0xd3, 0xae, 0x14, 0x3d, 0x3f, 0xff, 0x6a, 0x3c, 0xd2, 0x4a, 0xf6, 0x3d,
  0xfb, 0x47, 0x21, 0xbe, 0x69, 0x06, 0xac, 0x3d, 0x87, 0x24, 0x53, 0xbe,
  0xab, 0x8a, 0x84, 0x3d, 0xa3, 0x3f, 0x39, 0xbe, 0xb8, 0x25, 0x0d, 0xbe,
  0xbd, 0x01, 0x2c, 0xbe, 0xc6, 0xf4, 0x9a, 0xbd, 0x72, 0x4d, 0x8e, 0xbe,
  0x3f, 0xe8, 0x07, 0xbd, 0xcd, 0xb1, 0x5f, 0xbe, 0x89, 0x42, 0xbd, 0xbd,
  0xd7, 0xda, 0x07, 0xbe, 0x77, 0xc7, 0xae, 0x3c, 0x2f, 0x9b, 0x23, 0xbe,
  0x8a, 0x16, 0xa3, 0xbd, 0xcc, 0x54, 0x67, 0x3a, 0xa3, 0x0e, 0x3f, 0xbe,
  0xce, 0xcb, 0xef, 0x3d, 0xa5, 0x91, 0x8c, 0xbe, 0xe6, 0xee, 0x1e, 0x3e,
  0x21, 0xb3, 0xae, 0xbc, 0x43, 0x18, 0x98, 0xbe, 0xee, 0xc6, 0x88, 0x3d,
  0xab, 0xa3, 0xfc, 0x3c, 0xd6, 0x58, 0x3d, 0x3e, 0x3b, 0x7b, 0x2b, 0xbe,
  0x1b, 0x7c, 0xe9, 0x3b, 0xef, 0xf3, 0x84, 0xbd, 0x50, 0x29, 0xdc, 0xbd,
  0xb9, 0x31, 0x81, 0xbd, 0x74, 0x7d, 0x69, 0x3d, 0x4f, 0x00, 0x2c, 0xbe,
  0x82, 0xa8, 0x32, 0x3e, 0x82, 0xc6, 0x1a, 0x3e, 0xa8, 0xb3, 0x6d, 0xbe,
  0x87, 0x11, 0x6c, 0xbe, 0xd9, 0x7c, 0x1a, 0xbe, 0x48, 0xd3, 0xc5, 0xbd,
  0x51, 0x7a, 0x69, 0xbe, 0xd4, 0x43, 0xba, 0x3c, 0xad, 0xa6, 0x80, 0x3e,
  0xab, 0x6f, 0x35, 0xbe, 0xa6, 0x9a, 0x55, 0xbb, 0x4f, 0xc9, 0x21, 0x3c,
  0x1f, 0x23, 0x23, 0x3d, 0x00, 0x24, 0xa8, 0xbe, 0x93, 0xea, 0x2f, 0xbe,
  0xfa, 0x13, 0x58, 0xbc, 0x0d, 0xb8, 0x50, 0xbe, 0xac, 0x65, 0xe5, 0x3c,
  0x72, 0xe0, 0xa8, 0x3d, 0xb8, 0x28, 0xf7, 0xbd, 0x97, 0x34, 0xf5, 0xbd,
  0x36, 0x90, 0x97, 0xbe, 0x41, 0x3c, 0xa7, 0x3e, 0x28, 0xf7, 0xb8, 0xbc,
  0x5c, 0xd7, 0x79, 0xbe, 0x18, 0x2a, 0x4c, 0xbd, 0xb1, 0x1b, 0xa6, 0xbd,
  0x5e, 0x74, 0x56, 0xbe, 0x30, 0x66, 0x1e, 0x3e, 0x68, 0xff, 0x28, 0x3e,
  0xd0, 0x12, 0x30, 0xbe, 0x43, 0x5a, 0x0a, 0xbe, 0x34, 0xfa, 0x14, 0xbe,
  0xeb, 0xa7, 0x9a, 0x3e, 0xfe, 0x1c, 0x17, 0x3e, 0x52, 0xc6, 0x6a, 0xbe,
  0x25, 0x4d, 0x5c, 0x3e, 0xe9, 0xce, 0x9b, 0x3d, 0x5d, 0xf6, 0x19, 0x3e,
  0x2d, 0xe9, 0xd6, 0xbd, 0x92, 0xea, 0x2f, 0xbe, 0x60, 0xcf, 0xfc, 0xbd,
  0xb3, 0x89, 0xb5, 0xbc, 0xed, 0xfb, 0x1f, 0xbe, 0xb1, 0x3d, 0x09, 0x3e,
  0xad, 0x8a, 0x1c, 0x3c, 0x4e, 0xfe, 0x01, 0xbe, 0xf5, 0xd4, 0xb6, 0x3e,
  0xe6, 0x04, 0x37, 0xbe, 0xd8, 0x1b, 0x04, 0x3f, 0xa5, 0x8b, 0x90, 0x3d,
  0x18, 0x29, 0xf4, 0x3e, 0x70, 0x8c, 0xa0, 0x3e, 0x92, 0x94, 0x20, 0x3e,
  0x61, 0x83, 0x95, 0x3e, 0xdd, 0xb4, 0xab, 0xbc, 0xdd, 0xb1, 0x3c, 0xbe,
  0x86, 0x13, 0x04, 0x3e, 0xe6, 0x01, 0xff, 0x3d, 0x79, 0x47, 0xb7, 0x3e,
  0x32, 0x77, 0xad, 0x3e, 0xe6, 0xf4, 0xa7, 0xbe, 0xa3, 0x7b, 0x6f, 0xbe,
  0xeb, 0x97, 0x04, 0x3f, 0x4f, 0x84, 0x48, 0xbe, 0x94, 0x0a, 0xe4, 0x3e,
  0x7f, 0xf2, 0xa7, 0x3e, 0x1a, 0xe3, 0xce, 0x3e, 0x96, 0x24, 0x98, 0x3d,
  0xe4, 0x18, 0x77, 0xbe, 0xed, 0xf2, 0x96, 0x3e, 0x3b, 0x9d, 0x9c, 0x3d,
  0xa2, 0x36, 0x12, 0xbe, 0x3c, 0xae, 0xaa, 0x3d, 0x96, 0x48, 0x13, 0xbe,
  0x8d, 0x67, 0xae, 0x3e, 0x37, 0xb0, 0x9d, 0x3a, 0xae, 0xc9, 0x29, 0x3c,
  0xe2, 0x2c, 0x6f, 0xbc, 0xe0, 0x4f, 0x93, 0x3e, 0x18, 0x67, 0xc2, 0xbe,
  0x34, 0x02, 0x9c, 0x3d, 0xb5, 0x53, 0xbc, 0x3e, 0x9b, 0x7f, 0xb8, 0x3b,
  0x8d, 0x2d, 0x97, 0xbe, 0xb1, 0x2f, 0x80, 0xbe, 0x18, 0xab, 0x9f, 0x3e,
  0x56, 0x3e, 0xf2, 0xbc, 0x92, 0xb4, 0x32, 0xbd, 0x19, 0xa7, 0xa8, 0xbd,
  0x6d, 0xbf, 0xdb, 0xbe, 0x4e, 0x4e, 0xbb, 0xbd, 0x6a, 0x96, 0xcb, 0xbc,
  0x6b, 0x3b, 0x88, 0xbc, 0x36, 0x9a, 0x95, 0xbe, 0xdb, 0x39, 0x25, 0x3e,
  0x1e, 0x03, 0xcd, 0xbe, 0x1b, 0x79, 0x0b, 0x3e, 0xae, 0xc1, 0xcf, 0x3e,
  0x04, 0x67, 0x0d, 0xbe, 0xa8, 0x66, 0x73, 0xbe, 0xe3, 0x9b, 0x07, 0xbe,
  0xc0, 0x8e, 0x9a, 0x3e, 0x4d, 0x81, 0xe6, 0xbb, 0xb7, 0xf4, 0x55, 0xbd,
  0x2a, 0xf1, 0x41, 0xbd, 0x68, 0x0e, 0xdb, 0xbe, 0x4c, 0xa7, 0x94, 0xbe,
  0x74, 0x1f, 0x98, 0x3e, 0x3a, 0x4c, 0xd6, 0xbc, 0xbb, 0xf8, 0xbf, 0x3c,
  0xe6, 0xd6, 0x07, 0x3e, 0x06, 0xe6, 0x7f, 0xbe, 0x8b, 0xbe, 0xf0, 0x3d,
  0xa3, 0xbe, 0x0a, 0xbd, 0x6a, 0xc5, 0x35, 0xbe, 0xbf, 0xe3, 0x3a, 0xbe,
  0x5d, 0x2a, 0x38, 0xbe, 0x2f, 0x63, 0x95, 0xbd, 0xfa, 0x20, 0xa0, 0xbd,
  0x58, 0x00, 0xe4, 0xbd, 0x2e, 0x34, 0xb3, 0xbd, 0x76, 0x79, 0x5b, 0xbe,
  0x7e, 0xfa, 0xfe, 0xbd, 0x70, 0x3d, 0xd1, 0x3a, 0xf8, 0xd2, 0x02, 0xbc,
  0x6a, 0x7f, 0x89, 0xbe, 0x2c, 0x05, 0x88, 0x3d, 0x38, 0x52, 0x22, 0xbe,
  0x51, 0x1e, 0x0d, 0x3d, 0x99, 0x26, 0xac, 0x3d, 0x5a, 0x57, 0x81, 0x3d,
  0x66, 0x3d, 0x69, 0x3c, 0x69, 0x0d, 0x86, 0xbe, 0xef, 0xc5, 0x1f, 0xbe,
  0x22, 0x2d, 0xcb, 0x3d, 0xfb, 0x56, 0x50, 0x3e, 0x28, 0xc2, 0xca, 0xbd,
  0x32, 0x2b, 0x9d, 0xbe, 0xff, 0xe3, 0x64, 0x3c, 0x99, 0x4d, 0x50, 0xbb,
  0xca, 0xa1, 0x9d, 0xbd, 0xe6, 0x15, 0x0d, 0xbe, 0x58, 0xb9, 0x96, 0xbd,
  0x93, 0x7b, 0x2b, 0x3e, 0x8e, 0x50, 0xd5, 0x3a, 0x7f, 0xaa, 0x6a, 0xbe,
  0x04, 0x2a, 0xf4, 0xbd, 0x1e, 0xe8, 0x57, 0xbe, 0x80, 0xe1, 0xc6, 0xbd,
  0xb3, 0x97, 0x86, 0xbd, 0x79, 0x0d, 0x55, 0xbe, 0x24, 0x2f, 0xdd, 0xbd,
  0xa2, 0xff, 0x61, 0x3d, 0x19, 0xf3, 0xaf, 0xbd, 0xf4, 0x8a, 0x2e, 0x3e,
  0x20, 0xa2, 0x91, 0xbd, 0xaf, 0x78, 0x27, 0xbd, 0xf3, 0xe6, 0x9c, 0xbd,
  0x77, 0x37, 0xf3, 0x3d, 0xe0, 0x46, 0x65, 0x3d, 0x33, 0x49, 0x57, 0x3e,
  0x42, 0x26, 0x85, 0xbe, 0x48, 0x10, 0x72, 0xbe, 0x08, 0x14, 0x7c, 0x3c,
  0x78, 0xba, 0x94, 0xbe, 0x01, 0x53, 0x72, 0xb8, 0x2f, 0xb0, 0x8d, 0xbe,
  0xb6, 0x56, 0x84, 0x3c, 0x26, 0xad, 0x26, 0x3d, 0x52, 0x0e, 0xc6, 0x3d,
  0x1e, 0xe5, 0x98, 0x3d, 0x25, 0xb6, 0x3c, 0x3e, 0x04, 0xe5, 0x0b, 0xbe,
  0x87, 0xa3, 0x55, 0xbe, 0x8e, 0x46, 0x78, 0x3d, 0xd4, 0x98, 0xb8, 0xbb,
  0x0b, 0x94, 0x21, 0xbe, 0xc9, 0x57, 0x9e, 0x3e, 0x99, 0xb3, 0x1d, 0xba,
  0xf3, 0x6f, 0x98, 0xbd, 0xbe, 0xc8, 0x79, 0xbe, 0x9d, 0x98, 0x07, 0xbe,
  0xde, 0x2c, 0x68, 0xbe, 0xb2, 0x13, 0x23, 0xbe, 0x2a, 0x01, 0x33, 0xbe,
  0xd4, 0x82, 0xde, 0x3d, 0x42, 0xa1, 0x8c, 0x3d, 0xea, 0x5f, 0x0c, 0xbe,
  0xe2, 0xe7, 0x0d, 0x3e, 0x1b, 0x43, 0x13, 0xbe, 0xdc, 0x80, 0x66, 0x3e,
  0x91, 0x6d, 0x02, 0xbe, 0x73, 0xe3, 0x89, 0x3d, 0x97, 0x80, 0x41, 0x3c,
  0xed, 0xa5, 0xaa, 0xbb, 0xe9, 0xef, 0xa8, 0xbd, 0xef, 0xc0, 0xde, 0xbe,
  0xbb, 0x0a, 0x82, 0xbe, 0x5e, 0xb7, 0x12, 0xbe, 0x2e, 0x0d, 0xb3, 0x3d,
  0x67, 0x4e, 0x39, 0xbe, 0x9b, 0xe5, 0x13, 0xbd, 0x30, 0xc5, 0x28, 0x3c,
  0x88, 0xca, 0xd0, 0xbb, 0x20, 0x49, 0x91, 0xbd, 0x7b, 0xd4, 0xa5, 0xbe,
  0x9f, 0xd6, 0x36, 0x3e, 0xd6, 0xc9, 0x7a, 0xbe, 0xbc, 0x01, 0x36, 0x3d,
  0xfa, 0x2c, 0x58, 0x3e, 0x13, 0x9c, 0x41, 0xbe, 0xb4, 0x6b, 0xa7, 0xbd,
  0x85, 0x80, 0x62, 0xbe, 0xd9, 0x16, 0x02, 0x3d, 0xf7, 0x5b, 0x0d, 0xbe,
  0xbb, 0xf9, 0x0e, 0xbe, 0x30, 0xee, 0x80, 0xbd, 0x05, 0xc1, 0x22, 0xbe,
  0xbc, 0x2c, 0x3d, 0xbe, 0x5f, 0x64, 0x08, 0x3e, 0x9a, 0xdd, 0xbc, 0x3d,
  0xef, 0x9b, 0xe1, 0xbd, 0x77, 0xeb, 0x11, 0x3d, 0x78, 0xda, 0xfb, 0xbd,
  0x0e, 0xc2, 0xc3, 0x3d, 0xfe, 0x24, 0x4e, 0x3e, 0x3a, 0x6b, 0x14, 0xbe,
  0xcf, 0xfe, 0xeb, 0xbd, 0x50, 0xaa, 0x68, 0xbd, 0xbf, 0x23, 0x5c, 0x3d,
  0x2b, 0x53, 0xcb, 0xbd, 0x7f, 0x03, 0xfd, 0xbc, 0xa8, 0xb1, 0xd3, 0x3d,
  0x1e, 0xc8, 0x65, 0x3d, 0x57, 0x83, 0x9a, 0xbc, 0x92, 0x29, 0xef, 0xbc,
  0x55, 0x3d, 0xba, 0x3c, 0x97, 0xae, 0x7e, 0xbe, 0x87, 0x75, 0xfd, 0xbe,
  0xce, 0xed, 0x36, 0x3e, 0x6a, 0xc8, 0x3f, 0xbe, 0xe6, 0x24, 0x28, 0xbf,
  0xda, 0xd9, 0x01, 0xbf, 0x97, 0x4d, 0x12, 0xbf, 0xb5, 0x4d, 0x08, 0xbc,
  0x6f, 0x17, 0x16, 0xbf, 0x1f, 0x78, 0xd8, 0x3c, 0xe5, 0x23, 0xf5, 0x3d,
  0x41, 0x75, 0xf2, 0xbd, 0x53, 0x6c, 0xd4, 0x3e, 0x88, 0x15, 0x26, 0xbe,
  0x58, 0xa9, 0x8c, 0xbe, 0xe7, 0x0e, 0x9b, 0xbd, 0x98, 0x75, 0x2b, 0xbc,
  0xcd, 0xd6, 0x01, 0x3e, 0x4e, 0x73, 0xf0, 0x3e, 0xaa, 0x62, 0xa1, 0xbe,
  0xe3, 0x5a, 0xd9, 0xbe, 0x49, 0xbc, 0x01, 0x3c, 0x5a, 0xa0, 0xd2, 0xbd,
  0xe9, 0xc3, 0x62, 0x3e, 0xc5, 0x27, 0xcb, 0xbe, 0x13, 0xc9, 0x8d, 0x3d,
  0x3e, 0xcb, 0x58, 0x3d, 0x3d, 0x69, 0x88, 0x3d, 0xc6, 0x47, 0x34, 0xbd,
  0xce, 0xfa, 0x84, 0xbe, 0x89, 0x93, 0x97, 0xbd, 0xbe, 0x7e, 0xb7, 0x3d,
  0xd3, 0xe7, 0xc4, 0x3e, 0x6a, 0x26, 0xa2, 0xbd, 0x82, 0x27, 0x15, 0x3f,
  0xd6, 0x51, 0xaf, 0x3d, 0x8d, 0xe6, 0x9b, 0xbe, 0xb7, 0x99, 0x2d, 0x3e,
  0xd8, 0xd5, 0xb1, 0x3e, 0x8c, 0xdd, 0x53, 0x3d, 0xb1, 0xb5, 0x9f, 0xbd,
  0x38, 0x14, 0x47, 0x3d, 0x4d, 0xcf, 0xfe, 0x3d, 0xef, 0x8b, 0x1d, 0x3d,
  0xe3, 0x80, 0xaf, 0x3d, 0xcb, 0xb1, 0x85, 0x3b, 0xdd, 0xe9, 0xc7, 0xbc,
  0xbb, 0x24, 0x7f, 0x3d, 0x1a, 0x2f, 0xe5, 0x3e, 0x45, 0xf9, 0x58, 0x3e,
  0x23, 0x93, 0x07, 0x3f, 0x7a, 0xac, 0x14, 0xbe, 0xc8, 0x38, 0x3c, 0xbd,
  0x19, 0xaf, 0x9f, 0x3e, 0x3c, 0x88, 0x6b, 0x3e, 0xdc, 0x08, 0x0f, 0x3e,
  0xcc, 0xcd, 0x19, 0x3d, 0xb3, 0x86, 0x4b, 0x3d, 0x75, 0x62, 0x82, 0x3e,
  0x20, 0xfb, 0x53, 0x3d, 0xf3, 0xe8, 0x83, 0xbd, 0xa8, 0xbc, 0x89, 0x3e,
  0xc5, 0xbc, 0x11, 0xbe, 0xdc, 0x68, 0x9a, 0x3c, 0x73, 0xf3, 0x85, 0x3e,
  0xdb, 0x51, 0x35, 0x3d, 0x86, 0x88, 0xbb, 0x3e, 0x73, 0x5d, 0x82, 0xbe,
  0x71, 0x9e, 0x82, 0xbe, 0x6f, 0x3b, 0x47, 0x3d, 0x2b, 0x55, 0x0b, 0x3d,
  0x05, 0xb0, 0xd4, 0xbc, 0xe8, 0xd5, 0x8a, 0xbe, 0x47, 0x82, 0x28, 0x3d,
  0x67, 0xd8, 0x1e, 0x3e, 0x00, 0x46, 0x1a, 0x3c, 0x68, 0x85, 0x87, 0xbd,
  0x3f, 0x72, 0x43, 0xbc, 0x35, 0xe6, 0x99, 0xbe, 0xe7, 0x1b, 0x6b, 0x3d,
  0xe0, 0xa7, 0xdb, 0x3d, 0x7a, 0x50, 0x11, 0xbf, 0xc1, 0xc9, 0xaa, 0x3e,
  0x4a, 0x22, 0x0e, 0xbf, 0xf4, 0x60, 0xd0, 0xbe, 0xbd, 0xe1, 0xc3, 0xbc,
  0x7e, 0x72, 0x64, 0x3c, 0xa8, 0x1d, 0x84, 0x3d, 0x93, 0x84, 0xa3, 0xbe,
  0x82, 0x78, 0x24, 0x3d, 0x9a, 0xfe, 0x93, 0x3d, 0x18, 0xb4, 0xe7, 0xbc,
  0x81, 0xac, 0x17, 0xbe, 0x7c, 0x6b, 0x5c, 0xbe, 0x6b, 0x18, 0xa7, 0xbe,
  0x4b, 0x84, 0x28, 0x3d, 0x0d, 0x0d, 0x44, 0xbd, 0xbf, 0xe1, 0x84, 0xbe,
  0xa7, 0xb2, 0x01, 0x3e, 0x3d, 0x28, 0x27, 0xbe, 0xf3, 0x3f, 0x07, 0xbe,
  0x3e, 0x85, 0xba, 0x3d, 0xbf, 0x90, 0x31, 0x3d, 0xe1, 0xda, 0x53, 0xbd,
  0x1e, 0x1e, 0x81, 0x3c, 0x79, 0xe7, 0x1b, 0x3d, 0xaf, 0x0d, 0x40, 0x3e,
  0x63, 0x36, 0xc8, 0xbd, 0x8f, 0x29, 0xc0, 0xbe, 0x1d, 0x54, 0xa3, 0xbe,
  0x6c, 0x0f, 0x57, 0x3d, 0x2c, 0xb6, 0xf3, 0x3c, 0x4a, 0xfe, 0xff, 0xff,
  0x10, 0x00, 0x00, 0x00, 0x05, 0x00, 0x00, 0x00, 0x14, 0x00, 0x00, 0x00,
  0x2c, 0x00, 0x00, 0x00, 0x02, 0x00, 0x00, 0x00, 0x10, 0x00, 0x00, 0x00,
  0x70, 0x00, 0x00, 0x00, 0x17, 0x00, 0x00, 0x00, 0x73, 0x65, 0x71, 0x75,
  0x65, 0x6e, 0x74, 0x69, 0x61, 0x6c, 0x2f, 0x64, 0x65, 0x6e, 0x73, 0x65,
  0x2f, 0x4d, 0x61, 0x74, 0x4d, 0x75, 0x6c, 0x00, 0x38, 0xfe, 0xff, 0xff,
  0x2e, 0xff, 0xff, 0xff, 0x04, 0x00, 0x00, 0x00, 0x08, 0x00, 0x00, 0x00,
  0xff, 0xff, 0xff, 0xff, 0x70, 0x00, 0x00, 0x00, 0x00, 0x00, 0x0e, 0x00,
  0x18, 0x00, 0x08, 0x00, 0x07, 0x00, 0x0c, 0x00, 0x10, 0x00, 0x14, 0x00,
  0x0e, 0x00, 0x00, 0x00, 0x00, 0x00, 0x00, 0x02, 0x10, 0x00, 0x00, 0x00,
  0x04, 0x00, 0x00, 0x00, 0x10, 0x00, 0x00, 0x00, 0x2c, 0x00, 0x00, 0x00,
  0x01, 0x00, 0x00, 0x00, 0x02, 0x00, 0x00, 0x00, 0x18, 0x00, 0x00, 0x00,
  0x73, 0x65, 0x71, 0x75, 0x65, 0x6e, 0x74, 0x69, 0x61, 0x6c, 0x2f, 0x66,
  0x6c, 0x61, 0x74, 0x74, 0x65, 0x6e, 0x2f, 0x43, 0x6f, 0x6e, 0x73, 0x74,
  0x00, 0x00, 0x00, 0x00, 0xa0, 0xfe, 0xff, 0xff, 0x96, 0xff, 0xff, 0xff,
  0x04, 0x00, 0x00, 0x00, 0x0c, 0x00, 0x00, 0x00, 0x3e, 0xe5, 0x02, 0x3e,
  0x6f, 0x68, 0xb1, 0xbf, 0x5b, 0x3c, 0xa4, 0x3e, 0x0a, 0xff, 0xff, 0xff,
  0x10, 0x00, 0x00, 0x00, 0x03, 0x00, 0x00, 0x00, 0x10, 0x00, 0x00, 0x00,
  0x3c, 0x00, 0x00, 0x00, 0x01, 0x00, 0x00, 0x00, 0x03, 0x00, 0x00, 0x00,
  0x29, 0x00, 0x00, 0x00, 0x73, 0x65, 0x71, 0x75, 0x65, 0x6e, 0x74, 0x69,
  0x61, 0x6c, 0x2f, 0x64, 0x65, 0x6e, 0x73, 0x65, 0x5f, 0x31, 0x2f, 0x42,
  0x69, 0x61, 0x73, 0x41, 0x64, 0x64, 0x2f, 0x52, 0x65, 0x61, 0x64, 0x56,
  0x61, 0x72, 0x69, 0x61, 0x62, 0x6c, 0x65, 0x4f, 0x70, 0x00, 0x00, 0x00,
  0x60, 0xff, 0xff, 0xff, 0x00, 0x00, 0x06, 0x00, 0x08, 0x00, 0x04, 0x00,
  0x06, 0x00, 0x00, 0x00, 0x04, 0x00, 0x00, 0x00, 0x40, 0x00, 0x00, 0x00,
  0x69, 0x4a, 0xa8, 0xbf, 0x5c, 0x6f, 0x00, 0xbc, 0xeb, 0x5f, 0x62, 0xbe,
  0x39, 0x9d, 0x23, 0xbf, 0x0c, 0xe2, 0x09, 0xbe, 0x98, 0x51, 0x24, 0xbe,
  0x93, 0x67, 0x04, 0xc0, 0xd6, 0xde, 0x37, 0xbf, 0x3a, 0x7f, 0x06, 0xbe,
  0x75, 0x58, 0x02, 0xbf, 0xc1, 0x75, 0x49, 0xbe, 0xd2, 0xe0, 0xae, 0xbe,
  0xde, 0xc4, 0x0e, 0xbe, 0x6b, 0x7b, 0x27, 0xbf, 0xba, 0x7a, 0x47, 0xbe,
  0x09, 0x15, 0xa6, 0xbb, 0xae, 0xff, 0xff, 0xff, 0x10, 0x00, 0x00, 0x00,
  0x02, 0x00, 0x00, 0x00, 0x10, 0x00, 0x00, 0x00, 0x3c, 0x00, 0x00, 0x00,
  0x01, 0x00, 0x00, 0x00, 0x10, 0x00, 0x00, 0x00, 0x27, 0x00, 0x00, 0x00,
  0x73, 0x65, 0x71, 0x75, 0x65, 0x6e, 0x74, 0x69, 0x61, 0x6c, 0x2f, 0x64,
  0x65, 0x6e, 0x73, 0x65, 0x2f, 0x42, 0x69, 0x61, 0x73, 0x41, 0x64, 0x64,
  0x2f, 0x52, 0x65, 0x61, 0x64, 0x56, 0x61, 0x72, 0x69, 0x61, 0x62, 0x6c,
  0x65, 0x4f, 0x70, 0x00, 0x04, 0x00, 0x06, 0x00, 0x04, 0x00, 0x00, 0x00,
  0x00, 0x00, 0x0e, 0x00, 0x14, 0x00, 0x04, 0x00, 0x00, 0x00, 0x08, 0x00,
  0x0c, 0x00, 0x10, 0x00, 0x0e, 0x00, 0x00, 0x00, 0x10, 0x00, 0x00, 0x00,
  0x01, 0x00, 0x00, 0x00, 0x1c, 0x00, 0x00, 0x00, 0x2c, 0x00, 0x00, 0x00,
  0x04, 0x00, 0x00, 0x00, 0x01, 0x00, 0x00, 0x00, 0x40, 0x00, 0x00, 0x00,
  0x03, 0x00, 0x00, 0x00, 0x01, 0x00, 0x00, 0x00, 0x0c, 0x00, 0x00, 0x00,
  0x63, 0x6f, 0x6e, 0x76, 0x32, 0x64, 0x5f, 0x69, 0x6e, 0x70, 0x75, 0x74,
  0x00, 0x00, 0x00, 0x00, 0xfc, 0xff, 0xff, 0xff, 0x04, 0x00, 0x04, 0x00,
  0x04, 0x00, 0x00, 0x00
};


unsigned int model_tflite_len = 12316;// Fill the int in `src/model.cc` here
