#include "magic_wand_model_data.h"


// We need to keep the data array aligned on some architectures.

#ifdef __has_attribute

#define HAVE_ATTRIBUTE(x) __has_attribute(x)

#else

#define HAVE_ATTRIBUTE(x) 0

#endif

#if HAVE_ATTRIBUTE(aligned) || (defined(__GNUC__) && !defined(__clang__))

#define DATA_ALIGN_ATTRIBUTE __attribute__((aligned(4)))

#else

#define DATA_ALIGN_ATTRIBUTE

#endif


const unsigned char g_magic_wand_model_data[] DATA_ALIGN_ATTRIBUTE = {

  // Paste the data of the char array in `src/model.cc` here
  
  0x08, 0x00, 0x00, 0x00, 0x54, 0x46, 0x4c, 0x33, 0x62, 0xff, 0xff, 0xff,
  0x03, 0x00, 0x00, 0x00, 0x10, 0x00, 0x00, 0x00, 0x24, 0x00, 0x00, 0x00,
  0x78, 0x00, 0x00, 0x00, 0x24, 0x00, 0x00, 0x00, 0x05, 0x00, 0x00, 0x00,
  0x78, 0x05, 0x00, 0x00, 0xb0, 0x04, 0x00, 0x00, 0xe0, 0x02, 0x00, 0x00,
  0x60, 0x02, 0x00, 0x00, 0x54, 0x01, 0x00, 0x00, 0x01, 0x00, 0x00, 0x00,
  0x78, 0x00, 0x00, 0x00, 0x13, 0x00, 0x00, 0x00, 0x18, 0x30, 0x00, 0x00,
  0x14, 0x30, 0x00, 0x00, 0x20, 0x2f, 0x00, 0x00, 0xa8, 0x2e, 0x00, 0x00,
  0x3c, 0x2e, 0x00, 0x00, 0xec, 0x11, 0x00, 0x00, 0x98, 0x10, 0x00, 0x00,
  0xbc, 0x0e, 0x00, 0x00, 0x60, 0x06, 0x00, 0x00, 0xfc, 0x05, 0x00, 0x00,
  0x78, 0x05, 0x00, 0x00, 0xec, 0x2f, 0x00, 0x00, 0xe8, 0x2f, 0x00, 0x00,
  0xe4, 0x2f, 0x00, 0x00, 0xe0, 0x2f, 0x00, 0x00, 0xdc, 0x2f, 0x00, 0x00,
  0xd8, 0x2f, 0x00, 0x00, 0xd4, 0x2f, 0x00, 0x00, 0xd0, 0x2f, 0x00, 0x00,
  0x0f, 0x00, 0x00, 0x00, 0x4d, 0x4c, 0x49, 0x52, 0x20, 0x43, 0x6f, 0x6e,
  0x76, 0x65, 0x72, 0x74, 0x65, 0x64, 0x2e, 0x00, 0x00, 0x00, 0x0e, 0x00,
  0x18, 0x00, 0x04, 0x00, 0x08, 0x00, 0x0c, 0x00, 0x10, 0x00, 0x14, 0x00,
  0x0e, 0x00, 0x00, 0x00, 0x14, 0x00, 0x00, 0x00, 0x5c, 0x00, 0x00, 0x00,
  0x60, 0x00, 0x00, 0x00, 0x64, 0x00, 0x00, 0x00, 0x84, 0x00, 0x00, 0x00,
  0x12, 0x00, 0x00, 0x00, 0x48, 0x2f, 0x00, 0x00, 0xe4, 0x2e, 0x00, 0x00,
  0x3c, 0x2e, 0x00, 0x00, 0xd8, 0x2d, 0x00, 0x00, 0x70, 0x2d, 0x00, 0x00,
  0x1c, 0x11, 0x00, 0x00, 0xc0, 0x0f, 0x00, 0x00, 0xe4, 0x0d, 0x00, 0x00,
  0xa0, 0x05, 0x00, 0x00, 0x3c, 0x05, 0x00, 0x00, 0xb0, 0x04, 0x00, 0x00,
  0xe8, 0x03, 0x00, 0x00, 0x38, 0x03, 0x00, 0x00, 0xa4, 0x02, 0x00, 0x00,
  0x10, 0x02, 0x00, 0x00, 0x90, 0x01, 0x00, 0x00, 0xfc, 0x00, 0x00, 0x00,
  0x80, 0x00, 0x00, 0x00, 0x01, 0x00, 0x00, 0x00, 0x00, 0x00, 0x00, 0x00,
  0x01, 0x00, 0x00, 0x00, 0x11, 0x00, 0x00, 0x00, 0x08, 0x00, 0x00, 0x00,
  0x1c, 0x04, 0x00, 0x00, 0x58, 0x03, 0x00, 0x00, 0xc8, 0x02, 0x00, 0x00,
  0x24, 0x02, 0x00, 0x00, 0xac, 0x01, 0x00, 0x00, 0x10, 0x01, 0x00, 0x00,
  0x94, 0x00, 0x00, 0x00, 0x10, 0x00, 0x00, 0x00, 0x04, 0x00, 0x00, 0x00,
  0x6d, 0x61, 0x69, 0x6e, 0x00, 0x00, 0x00, 0x00, 0x8e, 0xff, 0xff, 0xff,
  0x00, 0x00, 0x00, 0x09, 0x04, 0x00, 0x00, 0x00, 0x1c, 0x00, 0x00, 0x00,
  0x10, 0x00, 0x00, 0x00, 0x04, 0x00, 0x00, 0x00, 0x0a, 0xd2, 0xff, 0xff,
  0x00, 0x00, 0x80, 0x3f, 0x01, 0x00, 0x00, 0x00, 0x11, 0x00, 0x00, 0x00,
  0x01, 0x00, 0x00, 0x00, 0x10, 0x00, 0x00, 0x00, 0xf6, 0xfb, 0xff, 0xff,
  0x00, 0x00, 0x00, 0x19, 0x01, 0x00, 0x00, 0x00, 0x8a, 0xd1, 0xff, 0xff,
  0x10, 0x00, 0x00, 0x00, 0x12, 0x00, 0x00, 0x00, 0x14, 0x00, 0x00, 0x00,
  0x20, 0x00, 0x00, 0x00, 0x02, 0x00, 0x00, 0x00, 0x01, 0x00, 0x00, 0x00,
  0x04, 0x00, 0x00, 0x00, 0x08, 0x00, 0x00, 0x00, 0x49, 0x64, 0x65, 0x6e,
  0x74, 0x69, 0x74, 0x79, 0x00, 0x00, 0x00, 0x00, 0xc4, 0xd1, 0xff, 0xff,
  0x00, 0x00, 0x0e, 0x00, 0x18, 0x00, 0x08, 0x00, 0x0c, 0x00, 0x10, 0x00,
  0x07, 0x00, 0x14, 0x00, 0x0e, 0x00, 0x00, 0x00, 0x00, 0x00, 0x00, 0x08,
  0x03, 0x00, 0x00, 0x00, 0x18, 0x00, 0x00, 0x00, 0x0c, 0x00, 0x00, 0x00,
  0x04, 0x00, 0x00, 0x00, 0x98, 0xd1, 0xff, 0xff, 0x01, 0x00, 0x00, 0x00,
  0x10, 0x00, 0x00, 0x00, 0x03, 0x00, 0x00, 0x00, 0x0f, 0x00, 0x00, 0x00,
  0x05, 0x00, 0x00, 0x00, 0x02, 0x00, 0x00, 0x00, 0x02, 0xd2, 0xff, 0xff,
  0x10, 0x00, 0x00, 0x00, 0x11, 0x00, 0x00, 0x00, 0x14, 0x00, 0x00, 0x00,
  0x30, 0x00, 0x00, 0x00, 0x02, 0x00, 0x00, 0x00, 0x01, 0x00, 0x00, 0x00,
  0x04, 0x00, 0x00, 0x00, 0x1a, 0x00, 0x00, 0x00, 0x73, 0x65, 0x71, 0x75,
  0x65, 0x6e, 0x74, 0x69, 0x61, 0x6c, 0x2f, 0x64, 0x65, 0x6e, 0x73, 0x65,
  0x5f, 0x31, 0x2f, 0x42, 0x69, 0x61, 0x73, 0x41, 0x64, 0x64, 0x00, 0x00,
  0xf4, 0xd1, 0xff, 0xff, 0xd6, 0xfd, 0xff, 0xff, 0x00, 0x00, 0x00, 0x08,
  0x03, 0x00, 0x00, 0x00, 0x24, 0x00, 0x00, 0x00, 0x18, 0x00, 0x00, 0x00,
  0x0c, 0x00, 0x00, 0x00, 0x00, 0x00, 0x06, 0x00, 0x08, 0x00, 0x07, 0x00,
  0x06, 0x00, 0x00, 0x00, 0x00, 0x00, 0x00, 0x01, 0x01, 0x00, 0x00, 0x00,
  0x0f, 0x00, 0x00, 0x00, 0x03, 0x00, 0x00, 0x00, 0x0e, 0x00, 0x00, 0x00,
  0x04, 0x00, 0x00, 0x00, 0x01, 0x00, 0x00, 0x00, 0xfe, 0xfc, 0xff, 0xff,
  0x00, 0x00, 0x00, 0x09, 0x01, 0x00, 0x00, 0x00, 0x92, 0xd2, 0xff, 0xff,
  0x10, 0x00, 0x00, 0x00, 0x10, 0x00, 0x00, 0x00, 0x14, 0x00, 0x00, 0x00,
  0x2c, 0x00, 0x00, 0x00, 0x02, 0x00, 0x00, 0x00, 0x01, 0x00, 0x00, 0x00,
  0x10, 0x00, 0x00, 0x00, 0x15, 0x00, 0x00, 0x00, 0x73, 0x65, 0x71, 0x75,
  0x65, 0x6e, 0x74, 0x69, 0x61, 0x6c, 0x2f, 0x64, 0x65, 0x6e, 0x73, 0x65,
  0x2f, 0x52, 0x65, 0x6c, 0x75, 0x00, 0x00, 0x00, 0xd8, 0xd2, 0xff, 0xff,
  0x00, 0x00, 0x0a, 0x00, 0x10, 0x00, 0x04, 0x00, 0x08, 0x00, 0x0c, 0x00,
  0x0a, 0x00, 0x00, 0x00, 0x02, 0x00, 0x00, 0x00, 0x10, 0x00, 0x00, 0x00,
  0x04, 0x00, 0x00, 0x00, 0x01, 0x00, 0x00, 0x00, 0x0e, 0x00, 0x00, 0x00,
  0x02, 0x00, 0x00, 0x00, 0x0d, 0x00, 0x00, 0x00, 0x03, 0x00, 0x00, 0x00,
  0x7a, 0xfd, 0xff, 0xff, 0x00, 0x00, 0x00, 0x16, 0x01, 0x00, 0x00, 0x00,
  0x0e, 0xd3, 0xff, 0xff, 0x10, 0x00, 0x00, 0x00, 0x0f, 0x00, 0x00, 0x00,
  0x14, 0x00, 0x00, 0x00, 0x30, 0x00, 0x00, 0x00, 0x02, 0x00, 0x00, 0x00,
  0x01, 0x00, 0x00, 0x00, 0x70, 0x00, 0x00, 0x00, 0x1a, 0x00, 0x00, 0x00,
  0x73, 0x65, 0x71, 0x75, 0x65, 0x6e, 0x74, 0x69, 0x61, 0x6c, 0x2f, 0x66,
  0x6c, 0x61, 0x74, 0x74, 0x65, 0x6e, 0x2f, 0x52, 0x65, 0x73, 0x68, 0x61,
  0x70, 0x65, 0x00, 0x00, 0x00, 0xd3, 0xff, 0xff, 0xe2, 0xfe, 0xff, 0xff,
  0x00, 0x00, 0x00, 0x05, 0x01, 0x00, 0x00, 0x00, 0x38, 0x00, 0x00, 0x00,
  0x2c, 0x00, 0x00, 0x00, 0x14, 0x00, 0x00, 0x00, 0x00, 0x00, 0x0e, 0x00,
  0x14, 0x00, 0x00, 0x00, 0x10, 0x00, 0x0c, 0x00, 0x08, 0x00, 0x04, 0x00,
  0x0e, 0x00, 0x00, 0x00, 0x03, 0x00, 0x00, 0x00, 0x01, 0x00, 0x00, 0x00,
  0x03, 0x00, 0x00, 0x00, 0x01, 0x00, 0x00, 0x00, 0x01, 0x00, 0x00, 0x00,
  0x0d, 0x00, 0x00, 0x00, 0x01, 0x00, 0x00, 0x00, 0x0c, 0x00, 0x00, 0x00,
  0x9e, 0xd3, 0xff, 0xff, 0x10, 0x00, 0x00, 0x00, 0x0e, 0x00, 0x00, 0x00,
  0x1c, 0x00, 0x00, 0x00, 0x40, 0x00, 0x00, 0x00, 0x04, 0x00, 0x00, 0x00,
  0x01, 0x00, 0x00, 0x00, 0x07, 0x00, 0x00, 0x00, 0x01, 0x00, 0x00, 0x00,
  0x10, 0x00, 0x00, 0x00, 0x22, 0x00, 0x00, 0x00, 0x73, 0x65, 0x71, 0x75,
  0x65, 0x6e, 0x74, 0x69, 0x61, 0x6c, 0x2f, 0x6d, 0x61, 0x78, 0x5f, 0x70,
  0x6f, 0x6f, 0x6c, 0x69, 0x6e, 0x67, 0x32, 0x64, 0x5f, 0x31, 0x2f, 0x4d,
  0x61, 0x78, 0x50, 0x6f, 0x6f, 0x6c, 0x00, 0x00, 0xa0, 0xd3, 0xff, 0xff,
  0xc2, 0xfe, 0xff, 0xff, 0x00, 0x00, 0x00, 0x01, 0x24, 0x00, 0x00, 0x00,
  0x18, 0x00, 0x00, 0x00, 0x04, 0x00, 0x00, 0x00, 0xb4, 0xfe, 0xff, 0xff,
  0x01, 0x00, 0x00, 0x00, 0x01, 0x00, 0x00, 0x00, 0x00, 0x00, 0x00, 0x01,
  0x01, 0x00, 0x00, 0x00, 0x0c, 0x00, 0x00, 0x00, 0x03, 0x00, 0x00, 0x00,
  0x0b, 0x00, 0x00, 0x00, 0x07, 0x00, 0x00, 0x00, 0x09, 0x00, 0x00, 0x00,
  0x2e, 0xd4, 0xff, 0xff, 0x10, 0x00, 0x00, 0x00, 0x0d, 0x00, 0x00, 0x00,
  0x1c, 0x00, 0x00, 0x00, 0x2c, 0x00, 0x00, 0x00, 0x04, 0x00, 0x00, 0x00,
  0x01, 0x00, 0x00, 0x00, 0x15, 0x00, 0x00, 0x00, 0x01, 0x00, 0x00, 0x00,
  0x10, 0x00, 0x00, 0x00, 0x0c, 0x00, 0x00, 0x00, 0x74, 0x66, 0x6c, 0x2e,
  0x63, 0x6f, 0x6e, 0x76, 0x5f, 0x32, 0x64, 0x31, 0x00, 0x00, 0x00, 0x00,
  0x74, 0xd4, 0xff, 0xff, 0x00, 0x00, 0x0e, 0x00, 0x1a, 0x00, 0x08, 0x00,
  0x0c, 0x00, 0x10, 0x00, 0x07, 0x00, 0x14, 0x00, 0x0e, 0x00, 0x00, 0x00,
  0x00, 0x00, 0x00, 0x05, 0x01, 0x00, 0x00, 0x00, 0x3c, 0x00, 0x00, 0x00,
  0x30, 0x00, 0x00, 0x00, 0x14, 0x00, 0x00, 0x00, 0x00, 0x00, 0x0e, 0x00,
  0x18, 0x00, 0x17, 0x00, 0x10, 0x00, 0x0c, 0x00, 0x08, 0x00, 0x04, 0x00,
  0x0e, 0x00, 0x00, 0x00, 0x03, 0x00, 0x00, 0x00, 0x03, 0x00, 0x00, 0x00,
  0x03, 0x00, 0x00, 0x00, 0x03, 0x00, 0x00, 0x00, 0x00, 0x00, 0x00, 0x01,
  0x01, 0x00, 0x00, 0x00, 0x0b, 0x00, 0x00, 0x00, 0x01, 0x00, 0x00, 0x00,
  0x0a, 0x00, 0x00, 0x00, 0x46, 0xff, 0xff, 0xff, 0x00, 0x00, 0x00, 0x11,
  0x01, 0x00, 0x00, 0x00, 0xda, 0xd4, 0xff, 0xff, 0x10, 0x00, 0x00, 0x00,
  0x0c, 0x00, 0x00, 0x00, 0x1c, 0x00, 0x00, 0x00, 0x40, 0x00, 0x00, 0x00,
  0x04, 0x00, 0x00, 0x00, 0x01, 0x00, 0x00, 0x00, 0x15, 0x00, 0x00, 0x00,
  0x01, 0x00, 0x00, 0x00, 0x08, 0x00, 0x00, 0x00, 0x20, 0x00, 0x00, 0x00,
  0x73, 0x65, 0x71, 0x75, 0x65, 0x6e, 0x74, 0x69, 0x61, 0x6c, 0x2f, 0x6d,
  0x61, 0x78, 0x5f, 0x70, 0x6f, 0x6f, 0x6c, 0x69, 0x6e, 0x67, 0x32, 0x64,
  0x2f, 0x4d, 0x61, 0x78, 0x50, 0x6f, 0x6f, 0x6c, 0x00, 0x00, 0x00, 0x00,
  0x34, 0xd5, 0xff, 0xff, 0x00, 0x00, 0x0e, 0x00, 0x14, 0x00, 0x00, 0x00,
  0x08, 0x00, 0x0c, 0x00, 0x07, 0x00, 0x10, 0x00, 0x0e, 0x00, 0x00, 0x00,
  0x00, 0x00, 0x00, 0x01, 0x30, 0x00, 0x00, 0x00, 0x24, 0x00, 0x00, 0x00,
  0x10, 0x00, 0x00, 0x00, 0x0c, 0x00, 0x10, 0x00, 0x00, 0x00, 0x04, 0x00,
  0x08, 0x00, 0x0f, 0x00, 0x0c, 0x00, 0x00, 0x00, 0x01, 0x00, 0x00, 0x00,
  0x01, 0x00, 0x00, 0x00, 0x00, 0x00, 0x00, 0x01, 0x01, 0x00, 0x00, 0x00,
  0x0a, 0x00, 0x00, 0x00, 0x03, 0x00, 0x00, 0x00, 0x00, 0x00, 0x00, 0x00,
  0x06, 0x00, 0x00, 0x00, 0x08, 0x00, 0x00, 0x00, 0x00, 0x00, 0x0a, 0x00,
  0x0c, 0x00, 0x07, 0x00, 0x00, 0x00, 0x08, 0x00, 0x0a, 0x00, 0x00, 0x00,
  0x00, 0x00, 0x00, 0x03, 0x01, 0x00, 0x00, 0x00, 0x9e, 0xd5, 0xff, 0xff,
  0x10, 0x00, 0x00, 0x00, 0x0b, 0x00, 0x00, 0x00, 0x1c, 0x00, 0x00, 0x00,
  0x28, 0x00, 0x00, 0x00, 0x04, 0x00, 0x00, 0x00, 0x01, 0x00, 0x00, 0x00,
  0x40, 0x00, 0x00, 0x00, 0x03, 0x00, 0x00, 0x00, 0x08, 0x00, 0x00, 0x00,
  0x0b, 0x00, 0x00, 0x00, 0x74, 0x66, 0x6c, 0x2e, 0x63, 0x6f, 0x6e, 0x76,
  0x5f, 0x32, 0x64, 0x00, 0x88, 0xd5, 0xff, 0xff, 0x7e, 0xd6, 0xff, 0xff,
  0x04, 0x00, 0x00, 0x00, 0x40, 0x00, 0x00, 0x00, 0xbb, 0x34, 0x5f, 0xbe,
  0xcc, 0x8c, 0x69, 0x3d, 0x3b, 0x5f, 0xc6, 0xbe, 0xfa, 0x3b, 0x08, 0xbe,
  0x8d, 0x50, 0x7d, 0xbd, 0xfb, 0x5d, 0x7b, 0x3f, 0x84, 0xf4, 0x25, 0x3e,
  0x2b, 0xd9, 0x1d, 0x3e, 0x2c, 0x7f, 0xc4, 0x3d, 0xfd, 0x2d, 0x9c, 0x3f,
  0xb3, 0x18, 0xfa, 0x3c, 0xed, 0x6d, 0x75, 0x3f, 0x67, 0x07, 0x6e, 0xbe,
  0xbe, 0x04, 0x84, 0xbe, 0xdb, 0x12, 0x81, 0x3e, 0xd3, 0x89, 0x30, 0xbf,
  0x26, 0xd6, 0xff, 0xff, 0x10, 0x00, 0x00, 0x00, 0x0a, 0x00, 0x00, 0x00,
  0x10, 0x00, 0x00, 0x00, 0x20, 0x00, 0x00, 0x00, 0x01, 0x00, 0x00, 0x00,
  0x10, 0x00, 0x00, 0x00, 0x0d, 0x00, 0x00, 0x00, 0x73, 0x74, 0x64, 0x2e,
  0x63, 0x6f, 0x6e, 0x73, 0x74, 0x61, 0x6e, 0x74, 0x31, 0x00, 0x00, 0x00,
  0x08, 0xd6, 0xff, 0xff, 0xfe, 0xd6, 0xff, 0xff, 0x04, 0x00, 0x00, 0x00,
  0x20, 0x00, 0x00, 0x00, 0x5b, 0x89, 0x18, 0xbf, 0xd3, 0x61, 0x0f, 0x3e,
  0x83, 0x19, 0x01, 0x3e, 0x5e, 0xd4, 0xf3, 0xbe, 0xf4, 0xaf, 0xc9, 0x3c,
  0xed, 0x0d, 0x6d, 0x3d, 0x3e, 0x62, 0xb8, 0xbd, 0x0b, 0xf1, 0x56, 0x3f,
  0x86, 0xd6, 0xff, 0xff, 0x10, 0x00, 0x00, 0x00, 0x09, 0x00, 0x00, 0x00,
  0x10, 0x00, 0x00, 0x00, 0x20, 0x00, 0x00, 0x00, 0x01, 0x00, 0x00, 0x00,
  0x08, 0x00, 0x00, 0x00, 0x0c, 0x00, 0x00, 0x00, 0x73, 0x74, 0x64, 0x2e,
  0x63, 0x6f, 0x6e, 0x73, 0x74, 0x61, 0x6e, 0x74, 0x00, 0x00, 0x00, 0x00,
  0x68, 0xd6, 0xff, 0xff, 0x5e, 0xd7, 0xff, 0xff, 0x04, 0x00, 0x00, 0x00,
  0x00, 0x08, 0x00, 0x00, 0x4c, 0xbb, 0xaf, 0x3c, 0xa3, 0x84, 0xe7, 0xbe,
  0xe3, 0x96, 0x04, 0xbf, 0x39, 0x88, 0x3b, 0xbd, 0x09, 0x55, 0x03, 0xbe,
  0x92, 0x34, 0x24, 0xbe, 0xec, 0xb2, 0xc1, 0xbe, 0x9d, 0xd5, 0x63, 0xbd,
  0xf1, 0x77, 0x3f, 0xba, 0x61, 0x0c, 0x5e, 0xbd, 0x47, 0x15, 0xbe, 0xbe,
  0x68, 0xf3, 0xfe, 0x3d, 0xc3, 0x09, 0x01, 0x3f, 0x8c, 0xd6, 0x3c, 0x3e,
  0xb4, 0x01, 0x19, 0xbe, 0x26, 0x08, 0x2c, 0xbe, 0xe5, 0x5d, 0x65, 0x3e,
  0x49, 0xcb, 0x34, 0x3e, 0x21, 0x67, 0x7d, 0xbd, 0x79, 0x1d, 0xb1, 0x3e,
  0x5a, 0xd8, 0x65, 0x3e, 0x65, 0xfe, 0x6b, 0xbe, 0xed, 0xa1, 0x73, 0x3e,
  0x26, 0xf8, 0x5a, 0x3d, 0xb4, 0x21, 0x22, 0xbe, 0x08, 0x80, 0xb9, 0x3d,
  0x03, 0xb7, 0x8f, 0x3e, 0xb6, 0xd5, 0xc1, 0x3d, 0x2b, 0xee, 0xd5, 0xbd,
  0x05, 0xd2, 0x7c, 0xbe, 0x64, 0xaf, 0x96, 0x3e, 0xa7, 0xd6, 0x2f, 0xbe,
  0x5c, 0x45, 0x91, 0x3c, 0x72, 0x49, 0x08, 0x3e, 0xb6, 0xc9, 0x65, 0x3e,
  0x33, 0x1f, 0x1c, 0xbe, 0xd9, 0x62, 0x34, 0x3d, 0xb9, 0x60, 0x1c, 0xbd,
  0xc9, 0x61, 0xf0, 0xbc, 0xf9, 0x3d, 0x4e, 0x3e, 0x71, 0x7c, 0x6c, 0x3e,
  0xb9, 0x37, 0x85, 0x3d, 0x43, 0x20, 0x89, 0x3e, 0x2a, 0x29, 0xa8, 0x3d,
  0x74, 0xcb, 0xb8, 0x3e, 0xa2, 0xb1, 0x96, 0x3d, 0x6e, 0x5c, 0x07, 0xbb,
  0x6a, 0xe4, 0x1e, 0x3e, 0xda, 0x14, 0x22, 0xbd, 0x16, 0x9e, 0x9e, 0xbc,
  0x8f, 0x8e, 0xd8, 0x3d, 0x12, 0x01, 0xb0, 0x3c, 0xb8, 0x9c, 0xd3, 0x3c,
  0x63, 0xec, 0x37, 0x3e, 0x91, 0x26, 0xc5, 0x3d, 0xcb, 0x1d, 0x92, 0x3d,
  0x07, 0x54, 0x00, 0xbc, 0xe0, 0x16, 0x18, 0x3e, 0xdb, 0xe6, 0x8d, 0x3e,
  0x93, 0x35, 0xde, 0x3d, 0x39, 0x51, 0x27, 0x3e, 0x1e, 0x97, 0x32, 0x3e,
  0xc8, 0x0a, 0x1f, 0x3e, 0xae, 0x03, 0x76, 0x3e, 0x99, 0xc6, 0xa7, 0xbe,
  0x41, 0x11, 0x15, 0xbe, 0x98, 0xa1, 0x8f, 0x3d, 0xd6, 0x3c, 0xc2, 0xbd,
  0x73, 0x78, 0x60, 0xbe, 0xd0, 0x21, 0x05, 0xbf, 0x47, 0xf8, 0x6c, 0x3e,
  0x35, 0xf5, 0x0b, 0xbe, 0x6e, 0x92, 0x47, 0xbe, 0x22, 0x1d, 0x86, 0xbe,
  0xf5, 0xa9, 0x7d, 0x3c, 0x5c, 0x19, 0xbb, 0xbd, 0x27, 0xa4, 0xff, 0xbd,
  0x80, 0xed, 0xc4, 0xbe, 0x8d, 0xcc, 0x9d, 0x3e, 0x0c, 0x53, 0x2b, 0xbe,
  0xdd, 0x3c, 0x98, 0x3e, 0xda, 0x13, 0x5f, 0xbe, 0xf2, 0xea, 0x77, 0xbe,
  0x6b, 0x87, 0x8e, 0xbe, 0x1a, 0xc5, 0xc5, 0xbb, 0x03, 0xab, 0x19, 0x3e,
  0xfd, 0x8c, 0x49, 0xbe, 0x58, 0x96, 0x0c, 0x3e, 0x05, 0x11, 0x16, 0x3f,
  0x2a, 0x85, 0xa3, 0xba, 0xd6, 0x0f, 0x6c, 0xbe, 0xf6, 0xd5, 0x59, 0x3e,
  0xc7, 0x73, 0xb3, 0x3e, 0xfd, 0x0a, 0xf1, 0x3d, 0x11, 0x09, 0x4c, 0xbd,
  0x2c, 0x02, 0xae, 0xbc, 0xf2, 0x5d, 0x72, 0x3d, 0x8e, 0x17, 0x55, 0x3e,
  0x66, 0x8b, 0x55, 0x3e, 0x85, 0x17, 0xa8, 0xbd, 0x1b, 0x6b, 0xeb, 0xbd,
  0x2f, 0x6c, 0x80, 0xbd, 0x86, 0x96, 0x4f, 0x3e, 0x0b, 0x47, 0x99, 0xbe,
  0x36, 0x3a, 0x65, 0xbe, 0xe8, 0x34, 0x26, 0xbc, 0xd1, 0xbf, 0xa5, 0x3d,
  0xb3, 0x14, 0xbc, 0xbd, 0x37, 0x1e, 0xb7, 0xbe, 0xc3, 0xaa, 0x30, 0x3e,
  0x84, 0x35, 0x74, 0xbe, 0x28, 0xd3, 0x29, 0x3d, 0xac, 0x95, 0x45, 0xbe,
  0xa3, 0xe1, 0x34, 0x3d, 0xf0, 0x50, 0x8b, 0x3e, 0xc5, 0xb2, 0x00, 0xbe,
  0x8c, 0x7f, 0x94, 0x3e, 0x25, 0xf5, 0x63, 0x3e, 0xe0, 0xa8, 0xd3, 0x3d,
  0x6f, 0xd1, 0xc5, 0x3d, 0xc9, 0x95, 0x83, 0xbe, 0x91, 0xec, 0xc8, 0xbd,
  0xaa, 0xd5, 0x46, 0xbe, 0x5b, 0x5d, 0xa2, 0xbe, 0x14, 0x92, 0x1a, 0xbe,
  0x52, 0xe6, 0x21, 0x3e, 0x33, 0x89, 0x14, 0x3e, 0x3d, 0xc8, 0x74, 0xbe,
  0x35, 0x61, 0xe9, 0x3d, 0xf4, 0x42, 0xd2, 0xbe, 0xe0, 0x95, 0x38, 0xbe,
  0x30, 0xeb, 0x75, 0xbe, 0xcb, 0x09, 0xbd, 0xbc, 0x42, 0x31, 0x49, 0x3e,
  0x12, 0x5b, 0xa5, 0xbe, 0x96, 0x8c, 0x91, 0xbd, 0xf4, 0xc8, 0x87, 0xbd,
  0xa2, 0xf4, 0x1b, 0x3b, 0xf4, 0x61, 0xa0, 0x3d, 0x6e, 0x1f, 0xc8, 0xbd,
  0x0f, 0xf8, 0x4a, 0x3e, 0x3e, 0xd9, 0xd3, 0x3d, 0x4b, 0xc2, 0x7e, 0xbe,
  0x30, 0xef, 0x88, 0x3e, 0xaa, 0xc0, 0x94, 0xbe, 0x20, 0xed, 0x8a, 0x3e,
  0x25, 0x76, 0x02, 0xbe, 0x24, 0xfc, 0xe0, 0xbb, 0x6a, 0xd3, 0x42, 0x3e,
  0xed, 0xf8, 0x48, 0x3d, 0xe7, 0x25, 0xbe, 0x3c, 0x8f, 0x12, 0xf8, 0x3c,
  0x03, 0xf4, 0x9c, 0x3e, 0x14, 0x1f, 0x15, 0xbe, 0x9f, 0x63, 0x01, 0x3e,
  0xb3, 0x97, 0x0c, 0x3e, 0xb8, 0x9a, 0x7d, 0x3e, 0x5d, 0xf6, 0x17, 0xbd,
  0x4b, 0x2d, 0x5c, 0x3e, 0x35, 0x7d, 0x21, 0x3e, 0x2a, 0x2a, 0xdf, 0xbd,
  0xdc, 0x70, 0x70, 0x3e, 0x7f, 0x49, 0x69, 0x3e, 0x1f, 0x20, 0xbc, 0xbe,
  0x8c, 0x09, 0xa7, 0xbd, 0xb9, 0xfd, 0xb6, 0x3d, 0x02, 0xcc, 0x26, 0xbe,
  0x11, 0xbb, 0x2a, 0xbe, 0xb9, 0x11, 0x83, 0xbe, 0x2c, 0x7b, 0xb6, 0x3d,
  0x74, 0xe2, 0x15, 0x3d, 0x84, 0x50, 0xce, 0xbe, 0xc3, 0xe2, 0x71, 0xbe,
  0xb9, 0x2e, 0x6b, 0x3e, 0x3e, 0x68, 0xf9, 0xbd, 0x3c, 0x82, 0x6f, 0xbd,
  0x84, 0x55, 0x21, 0xbe, 0xd4, 0x34, 0xbf, 0x3e, 0x43, 0x94, 0x05, 0xbe,
  0xe0, 0xb2, 0x8f, 0xbe, 0x7b, 0x8e, 0x02, 0x3e, 0xd7, 0x05, 0xd8, 0x3e,
  0x95, 0x67, 0xce, 0xbd, 0xe0, 0x40, 0x73, 0x3e, 0xae, 0x15, 0x1e, 0xbe,
  0x92, 0xcb, 0x17, 0x3b, 0x4e, 0x5b, 0xdd, 0x3d, 0x5a, 0x4a, 0xb0, 0xbe,
  0x0a, 0x68, 0xd1, 0x3c, 0xb2, 0x8b, 0x69, 0xbd, 0xa6, 0x7b, 0x6a, 0xbd,
  0xc2, 0x3c, 0x83, 0xbd, 0x6b, 0xf0, 0x9d, 0x3d, 0x00, 0xdc, 0x2e, 0x3d,
  0x48, 0x88, 0x34, 0xbe, 0xe9, 0x26, 0x1d, 0xbe, 0x63, 0xb7, 0x29, 0xbe,
  0x28, 0x1a, 0xed, 0xbd, 0x27, 0x1f, 0x31, 0xbd, 0x2e, 0x21, 0x4c, 0xbe,
  0x1e, 0x0c, 0xb5, 0x3e, 0xe0, 0xf4, 0x81, 0xbd, 0x2a, 0x90, 0x43, 0x3e,
  0x85, 0x34, 0x84, 0xbc, 0x56, 0x49, 0x29, 0x3e, 0x0f, 0x9c, 0x26, 0x3e,
  0x7d, 0x62, 0x3d, 0xbd, 0x98, 0x6b, 0x10, 0xbe, 0x5f, 0xbf, 0x7f, 0x3b,
  0xf2, 0xc2, 0xb2, 0x3e, 0xc3, 0xbc, 0x84, 0x3e, 0xdb, 0x1a, 0xaf, 0x3d,
  0xf6, 0x47, 0xd6, 0xbd, 0x48, 0x3c, 0x7e, 0x3c, 0x4b, 0xc9, 0xbc, 0x3d,
  0x16, 0x18, 0x5d, 0xbe, 0x0a, 0x6c, 0x37, 0xbd, 0x4c, 0xa5, 0x34, 0x3e,
  0xd4, 0x9f, 0x9c, 0x3d, 0x56, 0x28, 0x1b, 0xbd, 0x84, 0x4b, 0xed, 0xbb,
  0x53, 0xe7, 0xf0, 0x3d, 0x6e, 0x62, 0xb7, 0x3d, 0x03, 0x11, 0xe5, 0xbd,
  0x24, 0xf7, 0x1c, 0xbe, 0x4a, 0x93, 0x58, 0x3d, 0x88, 0xe1, 0x34, 0xbe,
  0xc8, 0x14, 0xb1, 0xbe, 0xd7, 0x3f, 0x69, 0x3d, 0xe5, 0x65, 0x99, 0xbe,
  0x81, 0xa6, 0x12, 0x3d, 0xe9, 0x6a, 0x02, 0xbf, 0x91, 0xa5, 0x96, 0xbd,
  0x09, 0x84, 0xfd, 0xbc, 0x73, 0x10, 0x7f, 0x3e, 0x96, 0xc3, 0xaa, 0xbe,
  0x52, 0x92, 0x15, 0xbe, 0x6d, 0xba, 0xca, 0xbe, 0x59, 0xd3, 0x98, 0xbe,
  0xe8, 0x89, 0x16, 0xbe, 0x1b, 0x9b, 0x10, 0x3e, 0xce, 0x0d, 0xde, 0xbd,
  0xa7, 0x8c, 0x77, 0xba, 0xc2, 0x6f, 0xf3, 0x3c, 0x0b, 0x85, 0x10, 0xbe,
  0x11, 0x7c, 0x51, 0xbd, 0x7e, 0x69, 0x72, 0xbd, 0x1d, 0xb2, 0x49, 0xbd,
  0x29, 0x24, 0xd7, 0x3e, 0xd4, 0x8d, 0x75, 0x3e, 0x86, 0x58, 0xc4, 0x3d,
  0x39, 0x7e, 0x94, 0x3e, 0x34, 0x93, 0x0d, 0x3e, 0x3b, 0x38, 0x38, 0x3d,
  0x24, 0xf1, 0x4a, 0xbc, 0x55, 0x5c, 0x83, 0x3d, 0xd0, 0x6e, 0x8d, 0x3d,
  0x38, 0x4b, 0x48, 0xbe, 0x96, 0xa6, 0x3c, 0x3e, 0xe8, 0x39, 0x29, 0x3e,
  0x53, 0x8e, 0xa5, 0x3e, 0x74, 0xab, 0x28, 0x3e, 0x30, 0x4a, 0xfc, 0xbd,
  0x4d, 0xd5, 0x15, 0xbe, 0x52, 0xca, 0xa3, 0x3e, 0x06, 0xf2, 0xac, 0x3e,
  0x7c, 0x7c, 0xa8, 0xbc, 0x87, 0x07, 0x6b, 0xbb, 0xd6, 0x05, 0x08, 0x3e,
  0xeb, 0x6b, 0x5b, 0x3e, 0xc9, 0xac, 0xeb, 0x3d, 0x90, 0xab, 0x8e, 0x3e,
  0x0e, 0x47, 0x96, 0x3d, 0xdb, 0x64, 0x45, 0x3e, 0xb8, 0x16, 0x93, 0xbd,
  0x13, 0x68, 0x03, 0x3e, 0x94, 0x8d, 0x13, 0xbe, 0xb3, 0xf5, 0x40, 0xbe,
  0x7c, 0xb7, 0xdf, 0x3d, 0x0c, 0xba, 0x3b, 0x3e, 0x30, 0x7d, 0x51, 0xbd,
  0xab, 0xc9, 0x1a, 0x3e, 0xbc, 0x01, 0xa0, 0x3e, 0xf2, 0xfc, 0x85, 0xbd,
  0xdb, 0x33, 0xc8, 0x3d, 0xcc, 0x7e, 0x57, 0xbd, 0x79, 0xe2, 0x9b, 0x3e,
  0x1d, 0xd8, 0x1f, 0x3e, 0x11, 0xca, 0x9e, 0xbd, 0xc7, 0x19, 0xe0, 0xbd,
  0xb8, 0x9a, 0x55, 0xbe, 0x1f, 0xb9, 0x39, 0x3e, 0x83, 0x45, 0x8f, 0xbe,
  0x95, 0x2d, 0x2f, 0xbe, 0xd5, 0x8d, 0x8c, 0x3e, 0xb1, 0x80, 0x1c, 0x3e,
  0x62, 0x16, 0x9a, 0x3e, 0x73, 0x78, 0x0e, 0xbd, 0xc2, 0xe4, 0x4e, 0xbd,
  0x36, 0x87, 0x54, 0x3c, 0xaa, 0xf9, 0x09, 0xbe, 0x75, 0x6b, 0xc9, 0xbc,
  0x90, 0x5d, 0x7e, 0xbd, 0xe3, 0x49, 0xef, 0xbd, 0x75, 0xc1, 0xa1, 0xbe,
  0xf6, 0x9e, 0x5d, 0xbd, 0x4d, 0x39, 0x09, 0xbe, 0x5c, 0x1f, 0x3f, 0xbd,
  0x65, 0xdc, 0xb0, 0xbd, 0xd7, 0xf4, 0xc6, 0x3d, 0x1f, 0x6a, 0xa5, 0xbe,
  0xc8, 0x32, 0x24, 0x3d, 0x3d, 0xd8, 0xd8, 0xbe, 0xa4, 0x64, 0x8e, 0x3d,
  0xb9, 0x3b, 0x7d, 0x3b, 0xb9, 0xb7, 0xbd, 0xbd, 0xa2, 0x3a, 0x27, 0xbc,
  0x62, 0x03, 0xc1, 0xbd, 0x05, 0x77, 0x3b, 0x3d, 0xa2, 0x00, 0x0e, 0x3e,
  0xc3, 0x0d, 0xf8, 0x3d, 0xc8, 0xdf, 0x62, 0x3e, 0x09, 0x83, 0x0c, 0x3e,
  0x5a, 0x1a, 0x54, 0x3e, 0x54, 0xd0, 0x83, 0x3e, 0xc0, 0x90, 0x22, 0xbe,
  0xce, 0x2a, 0x56, 0xbe, 0x49, 0x5d, 0x70, 0xbc, 0xff, 0x71, 0x69, 0xbe,
  0x26, 0x65, 0x95, 0xbd, 0xdb, 0x55, 0x23, 0xbd, 0x48, 0x61, 0x22, 0x3d,
  0x18, 0x8c, 0xf1, 0x3d, 0xfe, 0xd0, 0xa1, 0xbe, 0xbb, 0xf5, 0xaf, 0x3d,
  0x0f, 0x73, 0x3a, 0x3e, 0x19, 0xc9, 0x22, 0x3d, 0x38, 0x2f, 0xad, 0xbd,
  0x8a, 0x09, 0xaf, 0x3e, 0x83, 0x22, 0x72, 0xbe, 0xa2, 0x09, 0xc6, 0x3d,
  0x04, 0xce, 0xe6, 0x3b, 0x20, 0xb9, 0x62, 0x3d, 0x83, 0x94, 0xd3, 0xbd,
  0xc4, 0x61, 0xe7, 0x3d, 0x0b, 0xf6, 0x59, 0x3e, 0x1d, 0x1f, 0xd5, 0x3e,
  0xe2, 0x30, 0x6e, 0x3e, 0xab, 0x44, 0x10, 0x3d, 0x71, 0x6d, 0x02, 0x3e,
  0x35, 0xcd, 0x65, 0xbc, 0x99, 0x3f, 0xb8, 0x3d, 0x74, 0xa6, 0x32, 0x3e,
  0x5e, 0x40, 0x8c, 0xbd, 0x19, 0xcb, 0x97, 0xbe, 0xc0, 0x04, 0xca, 0x3d,
  0x12, 0xfe, 0xbf, 0x3b, 0x1a, 0x22, 0xd0, 0xbe, 0x2e, 0x5e, 0xf9, 0xbe,
  0x2a, 0x29, 0x9e, 0x3d, 0x41, 0xa0, 0x8f, 0xbe, 0xa5, 0xe7, 0x9b, 0xbe,
  0xec, 0xd2, 0xa7, 0xbd, 0x6a, 0xb1, 0x13, 0x3e, 0x52, 0x0a, 0x45, 0x3d,
  0xc2, 0x1c, 0x90, 0xbe, 0xb1, 0xe0, 0x25, 0xbd, 0xc5, 0xa1, 0x1d, 0x3c,
  0xce, 0xb4, 0xcf, 0xbd, 0xf9, 0x0a, 0xa3, 0x3e, 0x14, 0xfb, 0x10, 0xbd,
  0x56, 0xf0, 0x1a, 0xbd, 0x33, 0xf4, 0xe0, 0x3c, 0x01, 0x06, 0x97, 0xbe,
  0xf0, 0xfd, 0x08, 0xbe, 0x87, 0x85, 0x90, 0xbd, 0x24, 0xdb, 0x5b, 0x3d,
  0x9b, 0xb2, 0x44, 0x3e, 0x05, 0x12, 0x9a, 0xbe, 0x13, 0x06, 0x5e, 0xbe,
  0x78, 0x03, 0x7c, 0xbd, 0xd9, 0xb4, 0x85, 0xbe, 0xa9, 0xfe, 0x55, 0xbe,
  0x51, 0x3f, 0x85, 0x3e, 0x9b, 0xb3, 0x9b, 0x3e, 0x1c, 0xb2, 0xbe, 0x3d,
  0x72, 0xf5, 0xfc, 0x3d, 0xc3, 0x01, 0x13, 0x3e, 0x9f, 0xc4, 0x94, 0x3e,
  0x35, 0x10, 0x38, 0x3e, 0xf3, 0x15, 0x03, 0xbe, 0x4c, 0xbe, 0x49, 0xbe,
  0x37, 0x83, 0x1c, 0xbd, 0x90, 0xc4, 0x22, 0x3d, 0x8d, 0x65, 0x12, 0x3e,
  0x3b, 0xce, 0xd2, 0x3d, 0xe3, 0x60, 0xea, 0xbc, 0x4f, 0xbc, 0x1a, 0xbe,
  0x03, 0xa1, 0xfb, 0xbd, 0x9c, 0x01, 0x15, 0xbd, 0x99, 0x3c, 0x48, 0xbd,
  0x51, 0xe9, 0x4f, 0xbe, 0x0f, 0x07, 0x98, 0xbd, 0xd4, 0xd9, 0x05, 0x3e,
  0xc8, 0x69, 0x1a, 0x3e, 0x11, 0xb7, 0xd5, 0x3d, 0xb5, 0xbd, 0x55, 0x3e,
  0xa6, 0xa5, 0x91, 0x3e, 0x8b, 0x9d, 0x1c, 0x3e, 0xb0, 0xcb, 0x18, 0x3e,
  0x46, 0x6d, 0x9d, 0xbd, 0xf7, 0x2d, 0x8d, 0x3c, 0x12, 0xc4, 0x1b, 0x3e,
  0x37, 0x01, 0x2d, 0x3e, 0x62, 0xa8, 0xcb, 0x3d, 0x30, 0xcd, 0xb7, 0x3e,
  0xdb, 0x86, 0x5f, 0x3d, 0x0d, 0x06, 0xb8, 0x3d, 0xae, 0x34, 0xd3, 0xbe,
  0x81, 0xb3, 0x8d, 0xbe, 0xba, 0x6a, 0xa0, 0xbe, 0xe8, 0xac, 0x45, 0xbe,
  0xb2, 0x26, 0x9b, 0xbe, 0xbe, 0x51, 0x68, 0x3c, 0x3b, 0xdd, 0xac, 0x3e,
  0x17, 0x73, 0xc9, 0xbd, 0xfb, 0xa5, 0x95, 0xbe, 0xe0, 0xce, 0xd7, 0x3d,
  0x56, 0xd7, 0x85, 0x3e, 0xf4, 0x69, 0x5f, 0x3e, 0xff, 0x77, 0x1e, 0xbe,
  0x55, 0x00, 0x06, 0x3e, 0x41, 0xee, 0xb7, 0xbe, 0xb3, 0xa4, 0x30, 0x3e,
  0xb1, 0xa8, 0x46, 0x3e, 0xfa, 0xdd, 0xa2, 0x3e, 0x61, 0x74, 0xd7, 0x3d,
  0xe5, 0xdb, 0x7d, 0xbd, 0x8e, 0x3e, 0x19, 0x3e, 0xfd, 0x77, 0x24, 0xbe,
  0xc8, 0xc1, 0xe3, 0xbd, 0x1d, 0xac, 0x91, 0x3d, 0xc2, 0x58, 0xd8, 0x3d,
  0x23, 0xcd, 0x83, 0x3c, 0x28, 0xce, 0xfc, 0xbd, 0xea, 0xbd, 0xc3, 0xbe,
  0x12, 0x35, 0x40, 0x3e, 0x4a, 0x26, 0x34, 0x3d, 0xa6, 0x80, 0x16, 0x3d,
  0x00, 0x0e, 0x79, 0x3e, 0x2b, 0x76, 0x29, 0x3e, 0x55, 0xcc, 0xb3, 0xbe,
  0x40, 0x62, 0xc0, 0xbd, 0x3b, 0x4d, 0x14, 0xbe, 0x73, 0x94, 0x5e, 0xbd,
  0x09, 0xa7, 0x09, 0xbe, 0xb7, 0x93, 0xef, 0xbd, 0x20, 0xf4, 0x91, 0x3d,
  0xd4, 0x20, 0xfa, 0xbd, 0x10, 0x86, 0x8d, 0xbe, 0xa9, 0xd1, 0xdb, 0xbb,
  0xdf, 0x7b, 0x79, 0xbd, 0x15, 0xa6, 0x61, 0xbd, 0xf3, 0x4c, 0x79, 0xbc,
  0xc3, 0xd5, 0x4c, 0x3e, 0xc4, 0x81, 0xf7, 0xbc, 0xc3, 0xc7, 0x9a, 0x3d,
  0x66, 0x94, 0x92, 0xbe, 0x90, 0x2d, 0x75, 0x3e, 0xb8, 0xcf, 0xd4, 0x3e,
  0x2a, 0xe7, 0xeb, 0xbd, 0x57, 0x03, 0x66, 0xbe, 0xf5, 0x5e, 0x95, 0xbe,
  0xc5, 0x8d, 0x80, 0x3d, 0x2c, 0x66, 0x41, 0x3e, 0x64, 0xb3, 0x76, 0x3e,
  0xa4, 0x34, 0x9b, 0x3e, 0x7d, 0x86, 0x9d, 0xbe, 0x9d, 0x5d, 0x4b, 0x3e,
  0x06, 0xf1, 0xa6, 0xbe, 0xeb, 0x4d, 0x27, 0x3d, 0x62, 0xbb, 0xe2, 0xbd,
  0x6f, 0x0a, 0x97, 0xbe, 0xc5, 0x36, 0x9e, 0x3d, 0xaf, 0xbe, 0xdb, 0x3e,
  0xcf, 0x7c, 0x2b, 0xbe, 0xf1, 0x2e, 0x08, 0xbe, 0xa6, 0xa2, 0x94, 0xbe,
  0x44, 0xfa, 0xe8, 0xbe, 0x04, 0xd9, 0xfd, 0x3d, 0xc4, 0xe0, 0xad, 0x3d,
  0x55, 0xab, 0x82, 0x3e, 0xb4, 0xdd, 0x28, 0x3c, 0x55, 0x4b, 0x7e, 0xbe,
  0xad, 0xab, 0x69, 0xbd, 0x6a, 0xaa, 0x10, 0xbf, 0x6e, 0x7c, 0x7a, 0xbe,
  0xcc, 0x78, 0x92, 0xbd, 0x35, 0x2d, 0xb6, 0x3d, 0xad, 0x39, 0x91, 0xbe,
  0x4b, 0x21, 0xed, 0xbe, 0xa8, 0xd3, 0xd4, 0xbe, 0xe9, 0xa2, 0xf5, 0x3d,
  0xb4, 0x7d, 0x95, 0xbe, 0xd1, 0xea, 0x17, 0x3f, 0xef, 0xc8, 0x29, 0xbe,
  0xdd, 0x87, 0x73, 0xbd, 0x0c, 0xe5, 0x84, 0xbe, 0x35, 0xff, 0xe0, 0xbd,
  0x2b, 0x3c, 0x09, 0xbe, 0x4c, 0x06, 0x28, 0xba, 0x16, 0xa3, 0x09, 0x3e,
  0xc6, 0xde, 0xff, 0xff, 0x10, 0x00, 0x00, 0x00, 0x08, 0x00, 0x00, 0x00,
  0x1c, 0x00, 0x00, 0x00, 0x38, 0x00, 0x00, 0x00, 0x04, 0x00, 0x00, 0x00,
  0x10, 0x00, 0x00, 0x00, 0x04, 0x00, 0x00, 0x00, 0x01, 0x00, 0x00, 0x00,
  0x08, 0x00, 0x00, 0x00, 0x1a, 0x00, 0x00, 0x00, 0x73, 0x65, 0x71, 0x75,
  0x65, 0x6e, 0x74, 0x69, 0x61, 0x6c, 0x2f, 0x63, 0x6f, 0x6e, 0x76, 0x32,
  0x64, 0x5f, 0x31, 0x2f, 0x43, 0x6f, 0x6e, 0x76, 0x32, 0x44, 0x00, 0x00,
  0xc0, 0xde, 0xff, 0xff, 0xb6, 0xdf, 0xff, 0xff, 0x04, 0x00, 0x00, 0x00,
  0x80, 0x01, 0x00, 0x00, 0x3a, 0x54, 0x0c, 0xbe, 0x1c, 0x7e, 0x88, 0xbe,
  0x61, 0x77, 0x7a, 0xbe, 0xca, 0xfc, 0xe5, 0xba, 0xa4, 0x7a, 0x27, 0xbe,
  0x0a, 0xb4, 0xd5, 0xbd, 0xdf, 0xac, 0x3c, 0x3e, 0x84, 0x76, 0x0b, 0x3f,
  0x6c, 0xd4, 0x41, 0x3e, 0x07, 0xfb, 0x4b, 0x3e, 0xdc, 0x59, 0x03, 0x3f,
  0x28, 0x8d, 0x1d, 0x3f, 0x17, 0xfd, 0x9f, 0x3d, 0x86, 0x4d, 0x01, 0x3e,
  0xa0, 0x6a, 0x88, 0x3e, 0xf8, 0x84, 0x48, 0xbe, 0x16, 0x81, 0x0d, 0xbe,
  0xf5, 0x2c, 0xba, 0x3e, 0xa3, 0xe2, 0xbd, 0xbc, 0x8b, 0xaa, 0x33, 0xbe,
  0x66, 0xc9, 0x7d, 0x3b, 0x24, 0xdb, 0x51, 0x3d, 0xd9, 0x15, 0xc9, 0xbd,
  0x11, 0x20, 0xfa, 0x3d, 0x9c, 0x8f, 0x23, 0xbe, 0x56, 0x92, 0x69, 0xbe,
  0x83, 0x03, 0x50, 0xbd, 0x81, 0x61, 0xbb, 0xbd, 0x5f, 0x32, 0x3d, 0x3e,
  0x04, 0xaa, 0xfb, 0x3d, 0xa3, 0xb3, 0xe2, 0xbd, 0x2b, 0x1e, 0x7a, 0xbe,
  0x90, 0xf4, 0x80, 0x3d, 0x02, 0x50, 0xd1, 0x3d, 0x71, 0x39, 0xad, 0xbe,
  0x8c, 0x91, 0xd7, 0x3e, 0x16, 0xcf, 0x56, 0x3e, 0xc9, 0x2f, 0xa8, 0x3e,
  0xed, 0x3e, 0xb7, 0x3d, 0x34, 0xf0, 0xb6, 0xbd, 0x4e, 0xc2, 0x7d, 0x3d,
  0x53, 0x22, 0xc0, 0xba, 0xb7, 0xbe, 0x19, 0x3d, 0xc4, 0x0c, 0x4a, 0xbe,
  0xeb, 0xcf, 0x01, 0x3e, 0x5d, 0x19, 0x1d, 0x3e, 0x0f, 0xda, 0xa9, 0xbe,
  0xd2, 0x6a, 0xc5, 0xbe, 0xb5, 0x34, 0x8c, 0xbd, 0x6f, 0x74, 0xa4, 0x3e,
  0x56, 0x78, 0xe5, 0x3d, 0x99, 0x47, 0xa6, 0x3d, 0x69, 0x4f, 0x83, 0x3e,
  0x67, 0x14, 0x77, 0x3e, 0x29, 0x88, 0x8c, 0xbd, 0xf1, 0x6d, 0x00, 0x3d,
  0xc1, 0xc1, 0x9e, 0x3e, 0x75, 0xc3, 0xb9, 0xbd, 0x4a, 0xf2, 0x8e, 0xbe,
  0x55, 0xc1, 0x53, 0xbe, 0x05, 0x8b, 0xb5, 0xbb, 0xab, 0xec, 0x21, 0x3e,
  0xc1, 0x22, 0xe9, 0x3d, 0x3a, 0x3c, 0x01, 0xbe, 0xfd, 0xdd, 0x01, 0xbe,
  0x48, 0xb5, 0xcf, 0xbd, 0x6e, 0x08, 0x98, 0x3e, 0xc3, 0x6a, 0x38, 0xbe,
  0xc6, 0x6e, 0x88, 0x3e, 0x11, 0x89, 0x14, 0x3e, 0x21, 0x3c, 0xb1, 0x3e,
  0x7c, 0x92, 0x24, 0xbe, 0x56, 0xfd, 0xa3, 0x3d, 0xec, 0xa7, 0x7c, 0xbd,
  0xf7, 0x30, 0x63, 0x3d, 0x37, 0x8b, 0x94, 0xbd, 0x39, 0xb2, 0x72, 0xbe,
  0xcc, 0x01, 0xbb, 0x3c, 0xc0, 0x86, 0x2f, 0x3e, 0x9d, 0xa8, 0x31, 0xbd,
  0x3c, 0x30, 0xd7, 0xbd, 0x10, 0x57, 0x55, 0xbe, 0xb3, 0x37, 0x28, 0xbd,
  0xed, 0x1b, 0x5e, 0xbe, 0x7e, 0x0f, 0xba, 0x3c, 0x94, 0x85, 0x39, 0xbe,
  0x56, 0x41, 0x70, 0xbc, 0xf2, 0x9c, 0xfc, 0xbd, 0x0f, 0xf9, 0x8b, 0x3d,
  0xa1, 0x19, 0x25, 0x3e, 0x76, 0xc2, 0xe2, 0x3d, 0x3c, 0xa2, 0x83, 0x3d,
  0x5d, 0x32, 0x9a, 0x3d, 0x8c, 0xe5, 0x08, 0xbe, 0x34, 0x0d, 0x8c, 0x3e,
  0xe8, 0x13, 0x65, 0x3d, 0x9e, 0xe0, 0xff, 0xff, 0x10, 0x00, 0x00, 0x00,
  0x07, 0x00, 0x00, 0x00, 0x1c, 0x00, 0x00, 0x00, 0x38, 0x00, 0x00, 0x00,
  0x04, 0x00, 0x00, 0x00, 0x08, 0x00, 0x00, 0x00, 0x04, 0x00, 0x00, 0x00,
  0x03, 0x00, 0x00, 0x00, 0x01, 0x00, 0x00, 0x00, 0x18, 0x00, 0x00, 0x00,
  0x73, 0x65, 0x71, 0x75, 0x65, 0x6e, 0x74, 0x69, 0x61, 0x6c, 0x2f, 0x63,
  0x6f, 0x6e, 0x76, 0x32, 0x64, 0x2f, 0x43, 0x6f, 0x6e, 0x76, 0x32, 0x44,
  0x00, 0x00, 0x00, 0x00, 0x98, 0xe0, 0xff, 0xff, 0x8e, 0xe1, 0xff, 0xff,
  0x04, 0x00, 0x00, 0x00, 0x00, 0x01, 0x00, 0x00, 0x06, 0xc8, 0xb3, 0x3e,
  0x60, 0x6a, 0xee, 0x3e, 0xa8, 0x95, 0xa1, 0xbe, 0x7d, 0x5f, 0x50, 0x3f,
  0x7a, 0x95, 0x00, 0xbe, 0x14, 0x39, 0xcb, 0x3c, 0xc7, 0xe5, 0x4c, 0x3e,
  0x05, 0x60, 0x62, 0xbd, 0x46, 0x10, 0xc0, 0x3d, 0x63, 0xdd, 0xeb, 0xbe,
  0x87, 0xfb, 0xa7, 0xbe, 0xfa, 0x2e, 0xfc, 0xbe, 0xbb, 0x28, 0xbb, 0xbe,
  0xfd, 0x12, 0x0d, 0x3e, 0x93, 0x88, 0x80, 0x3e, 0xc9, 0x3c, 0x05, 0x3e,
  0x2a, 0x85, 0x8b, 0xbe, 0x24, 0x47, 0x08, 0xbf, 0x4c, 0xa0, 0x90, 0xbe,
  0xba, 0x3f, 0xdd, 0xbe, 0x6b, 0xaa, 0x4b, 0x3d, 0x26, 0x4f, 0x2c, 0xbe,
  0xf6, 0x92, 0x73, 0x3e, 0x3b, 0x50, 0xbc, 0xbe, 0x75, 0x9f, 0x37, 0xbe,
  0xc0, 0x58, 0xde, 0x3e, 0x8f, 0x2b, 0xe3, 0xbe, 0x93, 0x12, 0x1e, 0x3e,
  0x58, 0x87, 0x8d, 0xbe, 0xf8, 0x8a, 0x90, 0xbe, 0xc3, 0x6b, 0x99, 0x3e,
  0x6e, 0x4f, 0x16, 0x3e, 0x5d, 0xf2, 0xc1, 0xbe, 0xb0, 0xe1, 0x03, 0xbf,
  0x17, 0x7e, 0xbe, 0x3b, 0x72, 0xb8, 0x03, 0xbf, 0x22, 0xae, 0x01, 0xbc,
  0xf2, 0xcd, 0x47, 0xbe, 0xab, 0x4d, 0x88, 0xbb, 0xe2, 0xf6, 0xcb, 0x3e,
  0xaa, 0xdc, 0x17, 0xbf, 0x1d, 0x69, 0x7b, 0x3e, 0xd6, 0x89, 0x01, 0xbe,
  0xe7, 0x50, 0x15, 0xbe, 0x8b, 0x94, 0x4e, 0x3e, 0x31, 0x0d, 0xa4, 0x3d,
  0x77, 0x82, 0x82, 0x3d, 0x71, 0x82, 0xdc, 0x3d, 0xde, 0xf3, 0xb5, 0x3e,
  0x8c, 0x80, 0xf1, 0xbe, 0x5a, 0x43, 0xd2, 0x3e, 0x8f, 0xc5, 0xd2, 0xbe,
  0xc3, 0xdc, 0xcd, 0x3e, 0x6d, 0xc4, 0x7b, 0x3e, 0x6f, 0xff, 0x42, 0x3e,
  0xd2, 0xf3, 0x89, 0x3e, 0x46, 0x39, 0x1b, 0xbf, 0x18, 0xb2, 0xf9, 0x3e,
  0x9a, 0xed, 0x8c, 0x3e, 0x1e, 0xbf, 0xbc, 0x3d, 0x78, 0x56, 0x60, 0xbe,
  0xee, 0x3a, 0x91, 0xbe, 0x36, 0xee, 0xe2, 0xbd, 0xaf, 0x90, 0xd1, 0x3d,
  0xf6, 0xe1, 0xff, 0xff, 0x10, 0x00, 0x00, 0x00, 0x06, 0x00, 0x00, 0x00,
  0x14, 0x00, 0x00, 0x00, 0x30, 0x00, 0x00, 0x00, 0x02, 0x00, 0x00, 0x00,
  0x04, 0x00, 0x00, 0x00, 0x10, 0x00, 0x00, 0x00, 0x19, 0x00, 0x00, 0x00,
  0x73, 0x65, 0x71, 0x75, 0x65, 0x6e, 0x74, 0x69, 0x61, 0x6c, 0x2f, 0x64,
  0x65, 0x6e, 0x73, 0x65, 0x5f, 0x31, 0x2f, 0x4d, 0x61, 0x74, 0x4d, 0x75,
  0x6c, 0x00, 0x00, 0x00, 0xe8, 0xe1, 0xff, 0xff, 0xde, 0xe2, 0xff, 0xff,
  0x04, 0x00, 0x00, 0x00, 0x00, 0x1c, 0x00, 0x00, 0x6a, 0x6f, 0xcc, 0xbb,
  0x58, 0x8b, 0x9e, 0x3d, 0x8e, 0x07, 0xcb, 0xbc, 0x2b, 0x39, 0x9d, 0x3c,
  0x2f, 0x53, 0xce, 0x3b, 0x75, 0xd8, 0xd9, 0xbd, 0x51, 0xef, 0x06, 0x3c,
  0xc7, 0xaa, 0x6b, 0xbe, 0xef, 0x7c, 0xf8, 0x3d, 0xc1, 0x4f, 0x42, 0x3e,
  0xa8, 0xed, 0xf8, 0xbd, 0x46, 0x32, 0x3e, 0xbe, 0x7f, 0x66, 0x9b, 0xbd,
  0xb5, 0xe4, 0x77, 0x3d, 0xfa, 0xe8, 0x4d, 0x3e, 0x71, 0x1c, 0xcf, 0x3d,
  0xd7, 0x9d, 0x03, 0xbe, 0x7f, 0x9c, 0xeb, 0xbd, 0xf5, 0xe9, 0x9e, 0xbc,
  0x3c, 0x2a, 0xcd, 0x3c, 0xa1, 0x98, 0x6e, 0xbe, 0x72, 0x3d, 0xd5, 0x3d,
  0xac, 0x99, 0x34, 0xbe, 0x5e, 0x01, 0x5c, 0xbe, 0x7f, 0x3a, 0x9a, 0x3c,
  0x93, 0x23, 0x10, 0xbe, 0x25, 0x76, 0x42, 0xbd, 0x23, 0x53, 0x93, 0x3d,
  0x9c, 0xc9, 0x5c, 0xbe, 0x66, 0xfa, 0x59, 0xbe, 0x2b, 0x30, 0xda, 0x3d,
  0x9a, 0xed, 0x86, 0x3d, 0x94, 0x16, 0x2b, 0xbe, 0xda, 0x3c, 0xff, 0x3b,
  0x3e, 0x37, 0x05, 0xbd, 0x5a, 0xdc, 0x22, 0x3d, 0x66, 0x9f, 0x8b, 0xbe,
  0x9e, 0x1b, 0x87, 0x3b, 0x63, 0xcb, 0xe8, 0xbd, 0x19, 0x2f, 0x0b, 0x3e,
  0xe6, 0x72, 0x54, 0xbe, 0xbd, 0x49, 0x59, 0xbe, 0xff, 0xb9, 0x15, 0x3d,
  0xd3, 0x26, 0x0d, 0xbd, 0xfc, 0x65, 0x6b, 0xbe, 0x6c, 0x73, 0x06, 0x3e,
  0x40, 0x2e, 0x11, 0xbe, 0xb1, 0x0b, 0x03, 0xbe, 0x43, 0x01, 0x1c, 0x3e,
  0xbe, 0x63, 0x4e, 0xbd, 0x8f, 0x06, 0x20, 0x3c, 0x35, 0x24, 0xd4, 0x3c,
  0xea, 0x47, 0xa9, 0xbd, 0x9f, 0x1e, 0x39, 0x3b, 0xb3, 0x76, 0xba, 0xbd,
  0x4e, 0x30, 0x7e, 0xbe, 0xb4, 0xe9, 0x56, 0xbe, 0xc8, 0x01, 0x31, 0xbe,
  0xcd, 0xe2, 0x6e, 0xbe, 0x4f, 0xef, 0xed, 0xbc, 0x3e, 0x68, 0x91, 0xbd,
  0x57, 0xaf, 0x6e, 0x3c, 0x24, 0xfb, 0x22, 0xbe, 0xce, 0x40, 0x50, 0xbd,
  0x15, 0xd8, 0x8e, 0xbd, 0xb9, 0x96, 0xe8, 0xbd, 0x42, 0xd3, 0x0c, 0xbd,
  0x24, 0x85, 0x25, 0xbe, 0xa9, 0xa0, 0xdd, 0xbd, 0xdf, 0x60, 0x4f, 0xbe,
  0x57, 0xe5, 0xd6, 0x3d, 0xc7, 0x10, 0x1b, 0x3e, 0x8e, 0xf2, 0x02, 0x3c,
  0x4b, 0x0d, 0x27, 0xbe, 0xf8, 0xf1, 0x36, 0x3d, 0xdc, 0x5d, 0x5d, 0xbd,
  0x8a, 0xc8, 0xe0, 0xbd, 0x79, 0xdf, 0x95, 0x3d, 0x3a, 0xd4, 0xb6, 0xbd,
  0x22, 0x6e, 0xe3, 0xbd, 0x9c, 0x80, 0xa5, 0x3d, 0xb8, 0xc8, 0x19, 0xbb,
  0x97, 0xea, 0xb1, 0x3d, 0x23, 0x3c, 0x4c, 0x3d, 0x80, 0x9b, 0x8b, 0xbe,
  0xe3, 0xd7, 0x8e, 0xbe, 0xea, 0x30, 0x82, 0xbe, 0x98, 0x50, 0x6b, 0xbe,
  0x14, 0x94, 0x0d, 0xbe, 0xbe, 0x12, 0xe2, 0xbb, 0x94, 0x0d, 0x35, 0x3c,
  0x1b, 0x35, 0x0a, 0x3d, 0x45, 0x72, 0x69, 0xbd, 0x44, 0xbf, 0x51, 0x3d,
  0x60, 0x86, 0x09, 0xbe, 0x33, 0x1e, 0x87, 0x3d, 0xc9, 0x3c, 0xad, 0xbd,
  0x63, 0xe6, 0xbf, 0x3d, 0xdb, 0x48, 0xac, 0xbd, 0x44, 0x78, 0x85, 0xbe,
  0x65, 0xda, 0x4e, 0xbe, 0x3a, 0x79, 0xbd, 0xbd, 0xca, 0x5e, 0x35, 0xbe,
  0x22, 0x6b, 0x5a, 0xbe, 0xad, 0x85, 0x01, 0x3e, 0x33, 0x6a, 0x06, 0x3e,
  0x51, 0x97, 0xf8, 0x3c, 0x5b, 0x62, 0xa9, 0x3d, 0x92, 0xcc, 0xa9, 0xbd,
  0xed, 0x0b, 0x13, 0xbe, 0x72, 0xf4, 0x38, 0x3b, 0x08, 0x92, 0x12, 0x3e,
  0x68, 0xc5, 0x40, 0xbe, 0xaf, 0xaf, 0x85, 0xbe, 0xc1, 0xff, 0xa6, 0xbd,
  0xec, 0xc2, 0xc9, 0xbc, 0x2e, 0x58, 0x84, 0xbe, 0x55, 0x31, 0x3c, 0xbd,
  0xb5, 0x89, 0x41, 0x3d, 0xab, 0x7a, 0x77, 0xbb, 0x4a, 0xf5, 0x9a, 0xbe,
  0xbc, 0x49, 0x2b, 0x3f, 0x95, 0x07, 0xe9, 0xbd, 0xbe, 0x79, 0x2a, 0x3f,
  0x9d, 0xd8, 0x7c, 0xbe, 0xbc, 0xf8, 0xa0, 0x3d, 0x64, 0x4c, 0x45, 0x3b,
  0x85, 0xfd, 0xcc, 0x3d, 0x6a, 0x7c, 0xad, 0xbd, 0xe4, 0x2d, 0x4f, 0xbe,
  0xc2, 0x47, 0xb7, 0x3d, 0x3b, 0x53, 0xea, 0x3d, 0x0b, 0x3b, 0x43, 0x3b,
  0x8a, 0xff, 0x77, 0xbb, 0xc7, 0x23, 0x6d, 0xbe, 0x5c, 0xef, 0x60, 0x3d,
  0xdd, 0x9b, 0x81, 0xbc, 0x21, 0x91, 0xaf, 0x3f, 0xa8, 0x94, 0x26, 0xbe,
  0xcf, 0x35, 0x4c, 0x3f, 0xef, 0xff, 0x1a, 0x3d, 0x25, 0x94, 0x56, 0xbe,
  0x1b, 0xe9, 0xe3, 0x3b, 0x3b, 0x0a, 0x66, 0xbe, 0x06, 0xb4, 0xae, 0xbd,
  0x77, 0x05, 0x15, 0xbd, 0x9c, 0x9e, 0x9c, 0xbd, 0xc0, 0xca, 0x67, 0xbd,
  0x93, 0x1e, 0xa0, 0x3c, 0x16, 0x4e, 0x4d, 0x3e, 0x7b, 0x9e, 0x86, 0xbd,
  0x5c, 0x75, 0xe6, 0x3c, 0x04, 0xb8, 0x17, 0xbe, 0x61, 0xb8, 0xa4, 0x3f,
  0x57, 0x4c, 0x6b, 0xbe, 0x7d, 0xcf, 0x25, 0x3f, 0xf0, 0x5c, 0xd2, 0xbd,
  0xff, 0x7c, 0x95, 0xbd, 0x42, 0x8d, 0x92, 0xbc, 0x91, 0xf1, 0xb3, 0xbd,
  0x86, 0xed, 0xca, 0xbc, 0x0b, 0x70, 0x5d, 0xbe, 0xbf, 0xab, 0xf3, 0xbd,
  0xba, 0xcb, 0x5d, 0xbe, 0x1d, 0xe3, 0x27, 0x3d, 0xab, 0xbf, 0x7f, 0xbd,
  0x2d, 0x4f, 0xa2, 0xbd, 0x2f, 0x9d, 0x3c, 0x3d, 0x97, 0x8e, 0xf8, 0x3c,
  0xf2, 0x30, 0x93, 0x3f, 0x14, 0x30, 0x43, 0xbe, 0xb7, 0xc7, 0xf2, 0x3e,
  0x1e, 0xbb, 0xf2, 0xbd, 0xbb, 0x3b, 0x6c, 0x3d, 0x70, 0x97, 0x66, 0xbd,
  0x6c, 0x68, 0xc8, 0x3d, 0x87, 0x44, 0x24, 0x3c, 0x26, 0x6a, 0xe1, 0xbb,
  0x04, 0x4a, 0x9b, 0xbc, 0xce, 0x47, 0x25, 0xbe, 0xb4, 0x83, 0x28, 0xbe,
  0xf8, 0x65, 0x5a, 0x3e, 0x81, 0x8d, 0x80, 0xbe, 0x92, 0x0a, 0x22, 0x3d,
  0x12, 0x1c, 0xa8, 0xbd, 0xdb, 0xf9, 0x86, 0x3f, 0x6d, 0x72, 0x22, 0x3d,
  0x34, 0x2a, 0x61, 0x3e, 0x9e, 0x22, 0x84, 0xbe, 0xc7, 0xfe, 0xeb, 0xbd,
  0x73, 0x76, 0x6d, 0xbe, 0xd2, 0x44, 0xc9, 0x3d, 0x5d, 0xf1, 0x8c, 0xbe,
  0x12, 0xd1, 0x9a, 0x3d, 0x14, 0x7c, 0x8b, 0xbe, 0x3d, 0xd6, 0x39, 0xbe,
  0x34, 0xa3, 0x40, 0xbe, 0xb2, 0x83, 0x83, 0x3c, 0x53, 0xe5, 0x19, 0xbe,
  0x7c, 0x35, 0xe6, 0xbd, 0x83, 0x85, 0xa0, 0xbd, 0xd1, 0x7a, 0x93, 0x3f,
  0x49, 0xcc, 0x05, 0xbe, 0xea, 0x8f, 0xde, 0x3d, 0x9d, 0xd8, 0x81, 0xbe,
  0x5a, 0x92, 0xb2, 0x3d, 0xc4, 0x07, 0x56, 0x3d, 0x2f, 0xc9, 0x03, 0xbe,
  0x64, 0x8e, 0x04, 0xbe, 0x37, 0x69, 0x12, 0xbe, 0x9c, 0x0a, 0xb3, 0x3d,
  0x3c, 0xf3, 0x80, 0xbd, 0x06, 0x40, 0xca, 0xbb, 0xa7, 0x81, 0x65, 0x3e,
  0xc3, 0x92, 0xcd, 0x3d, 0x22, 0xa8, 0xa6, 0x3c, 0xe5, 0xa6, 0x35, 0xbe,
  0x7f, 0xd9, 0xca, 0x3e, 0x6e, 0xd1, 0x17, 0xbe, 0xe8, 0xc8, 0xfb, 0x3e,
  0x52, 0x5e, 0xd2, 0xbd, 0x6d, 0x89, 0xf7, 0x3d, 0x5a, 0x19, 0x06, 0x3e,
  0xd4, 0x53, 0x40, 0xbd, 0x2e, 0x6f, 0x86, 0xbe, 0xac, 0x8f, 0x8f, 0xbc,
  0xd3, 0x9f, 0xcb, 0x3c, 0xdd, 0x42, 0xc2, 0xbd, 0x3b, 0x52, 0x83, 0xbe,
  0x0e, 0xe0, 0x91, 0xbc, 0x9e, 0xd1, 0x90, 0xbc, 0x18, 0x4a, 0x99, 0xbd,
  0x0a, 0xc0, 0x01, 0x3c, 0xb8, 0xbb, 0x26, 0x3e, 0x7a, 0xf9, 0x00, 0x3e,
  0x98, 0x5a, 0xff, 0xbd, 0x56, 0x6a, 0x89, 0x3d, 0x41, 0xf1, 0x86, 0xbe,
  0xba, 0xb9, 0xa3, 0x3d, 0xb8, 0xfb, 0xd8, 0x3d, 0x13, 0x31, 0x44, 0x3c,
  0x2e, 0xbc, 0xaf, 0x3c, 0xa5, 0x43, 0x66, 0xbd, 0x07, 0x77, 0x28, 0xbe,
  0xea, 0x11, 0x80, 0xbd, 0xef, 0x87, 0x1c, 0xbe, 0xe3, 0xb6, 0x9b, 0xbd,
  0x17, 0x92, 0xf9, 0x3c, 0x9b, 0xed, 0x05, 0x3e, 0x8b, 0x44, 0x15, 0xbe,
  0xeb, 0x84, 0x11, 0xbe, 0xfc, 0xc6, 0x25, 0xbe, 0xe0, 0xea, 0x91, 0x3d,
  0x28, 0x53, 0xda, 0xbd, 0x00, 0x25, 0x46, 0xbe, 0xc1, 0x56, 0x6b, 0xbc,
  0xd2, 0xde, 0xc2, 0x3d, 0x3b, 0xcc, 0xa4, 0x3c, 0xc3, 0xd5, 0xc1, 0x38,
  0x66, 0xcc, 0x3d, 0xbd, 0x4a, 0x65, 0x04, 0xbe, 0x57, 0xa3, 0x02, 0xbd,
  0xb8, 0x21, 0xcc, 0x3c, 0x4d, 0x69, 0x7f, 0x3d, 0x3c, 0xc1, 0x3a, 0xbe,
  0x46, 0x84, 0xc2, 0x3d, 0x84, 0x42, 0x86, 0x3d, 0xa7, 0xb8, 0x87, 0xbc,
  0xed, 0x77, 0x82, 0xbe, 0x33, 0x54, 0xb6, 0x3d, 0xef, 0xc7, 0x4f, 0x3e,
  0xea, 0x92, 0xdf, 0x3c, 0x0f, 0x3d, 0x0b, 0x3e, 0x69, 0xc8, 0x3c, 0xbe,
  0x31, 0xb4, 0x19, 0xbc, 0x6d, 0xa1, 0x0f, 0x3e, 0x3d, 0x85, 0x6b, 0xbe,
  0xb3, 0x5d, 0x46, 0xbd, 0x4d, 0xfb, 0xac, 0x3d, 0xfa, 0xee, 0x9a, 0xbd,
  0x16, 0x60, 0x87, 0x3d, 0xe9, 0xe5, 0x91, 0xbd, 0x95, 0x1f, 0x8e, 0xbe,
  0x53, 0x1b, 0x36, 0xbe, 0x90, 0xd9, 0xac, 0xbd, 0x6a, 0xa6, 0x03, 0x3e,
  0x7b, 0xb0, 0x3b, 0x3e, 0x8b, 0xba, 0x22, 0x3e, 0x6e, 0x7f, 0x07, 0xbe,
  0x39, 0x6b, 0x0b, 0x3d, 0x7e, 0xf0, 0x6c, 0xbd, 0x13, 0xe8, 0xe5, 0xbd,
  0x76, 0xc1, 0x53, 0xbe, 0x2e, 0x6c, 0x4f, 0xbe, 0xe6, 0xfd, 0x1c, 0xbe,
  0xbe, 0x81, 0x18, 0xbe, 0x1b, 0x1d, 0x9b, 0x3d, 0x5c, 0xd1, 0xf1, 0xbb,
  0x8a, 0xef, 0x1c, 0x3e, 0x2b, 0xbe, 0x8f, 0xbd, 0xd6, 0x19, 0x0d, 0x3d,
  0x0a, 0xb7, 0xdb, 0x3d, 0x00, 0x9e, 0xc9, 0x3c, 0x59, 0xe3, 0x18, 0x3e,
  0xb6, 0x88, 0xd1, 0xbd, 0x43, 0x24, 0x4a, 0xbe, 0x0f, 0x52, 0x83, 0xbc,
  0x3d, 0x4f, 0xf5, 0xbd, 0x0a, 0x2e, 0x41, 0xbe, 0x58, 0xd5, 0x91, 0xbe,
  0xbc, 0x76, 0x81, 0xbd, 0x46, 0xed, 0xc5, 0xbd, 0x9f, 0x17, 0x7c, 0xbe,
  0xb4, 0x57, 0x38, 0x3e, 0xd4, 0xc8, 0x78, 0xbe, 0xb9, 0x27, 0xe3, 0x3c,
  0x09, 0x46, 0xcd, 0x3b, 0x7c, 0x46, 0x35, 0xbe, 0x6a, 0xd3, 0x3b, 0xbe,
  0x55, 0x39, 0x5a, 0xbe, 0x60, 0x1b, 0x23, 0xbe, 0x9b, 0x57, 0x0c, 0xbe,
  0xf2, 0x65, 0x4e, 0xbc, 0xe0, 0x6c, 0x62, 0x3c, 0xb7, 0x36, 0xf6, 0xbd,
  0xe4, 0x27, 0x13, 0xbe, 0xe9, 0x43, 0x0c, 0xbe, 0x3c, 0xe3, 0x5c, 0xbe,
  0x4a, 0xdd, 0x6d, 0xbe, 0x98, 0x75, 0x24, 0x3e, 0x61, 0xb2, 0x04, 0xbe,
  0x69, 0x22, 0x35, 0x3e, 0x3e, 0xb9, 0x3d, 0xbc, 0x5c, 0xa6, 0x3c, 0x3e,
  0x21, 0x6b, 0xda, 0xbb, 0xf5, 0xde, 0x93, 0x3c, 0xbf, 0xb1, 0xba, 0x39,
  0x9e, 0x34, 0x83, 0xbe, 0xde, 0xd8, 0x4a, 0xbe, 0x4d, 0x79, 0xd9, 0xbd,
  0x88, 0x80, 0x9a, 0x3d, 0x62, 0xff, 0xb1, 0x3e, 0x60, 0xc3, 0xa3, 0xbd,
  0x74, 0xb2, 0x8e, 0xbc, 0x32, 0x21, 0xc5, 0xbd, 0xa5, 0x82, 0x03, 0x3f,
  0xf6, 0xf3, 0x29, 0xbe, 0x8b, 0xa7, 0x3c, 0xbd, 0x3f, 0x02, 0xca, 0xbd,
  0xd3, 0x72, 0x24, 0xbe, 0x96, 0x59, 0xea, 0x3d, 0x71, 0x44, 0x82, 0xbe,
  0x07, 0xf4, 0x20, 0xbe, 0xd3, 0xaa, 0x58, 0xbd, 0x3e, 0x1a, 0x10, 0x3e,
  0xd9, 0x78, 0x05, 0xbe, 0x3d, 0x81, 0xc8, 0x3d, 0x22, 0xd4, 0x91, 0x3e,
  0xe4, 0x71, 0x8f, 0xbe, 0xb3, 0xa1, 0xcc, 0xbc, 0xea, 0x0e, 0x65, 0xbe,
  0x4f, 0x7a, 0x4a, 0x3f, 0xd5, 0x39, 0xab, 0x3d, 0x64, 0xa3, 0x38, 0x3f,
  0x78, 0x25, 0x70, 0x3b, 0xab, 0x2f, 0xdd, 0xbd, 0xf6, 0x9d, 0xfc, 0xbb,
  0x65, 0xbc, 0x4c, 0xbe, 0xaa, 0x8f, 0x97, 0x3d, 0x2e, 0xb2, 0xf3, 0xbd,
  0x77, 0x83, 0xc3, 0xbd, 0x27, 0xe8, 0xce, 0x3d, 0x2c, 0x98, 0x31, 0xbe,
  0x38, 0x39, 0x1e, 0x3e, 0xe3, 0x24, 0x97, 0xbe, 0x1b, 0xdb, 0xa0, 0xbc,
  0x51, 0x90, 0x85, 0xbe, 0xd1, 0x39, 0x35, 0x3f, 0xc5, 0xb6, 0x10, 0xbe,
  0xd4, 0xb1, 0x65, 0x3f, 0x84, 0x2f, 0x8a, 0xbe, 0x5a, 0xaa, 0x08, 0xbc,
  0xfc, 0x55, 0x39, 0x3e, 0x68, 0x35, 0xe8, 0xbd, 0x7b, 0x52, 0x2e, 0xbe,
  0xf9, 0x41, 0x3b, 0xbe, 0x67, 0xcf, 0x6b, 0xbc, 0xad, 0x3a, 0x21, 0x3d,
  0x44, 0x18, 0x54, 0xbe, 0xde, 0x28, 0x25, 0x3e, 0x85, 0x22, 0x9a, 0xbe,
  0x64, 0x66, 0x87, 0x3d, 0x9f, 0xe5, 0x47, 0x3c, 0x2b, 0xbe, 0x21, 0x3f,
  0x4f, 0xc5, 0x8a, 0xbe, 0x93, 0xf4, 0x2d, 0x3f, 0xe5, 0xee, 0x8f, 0xbe,
  0xb0, 0xa0, 0x1e, 0xbe, 0x1e, 0x6c, 0x55, 0xbe, 0xc0, 0x4e, 0x44, 0xbc,
  0x5d, 0x3c, 0xd1, 0x3d, 0x0e, 0x1b, 0x03, 0xbe, 0xbe, 0x25, 0x24, 0xbc,
  0x8e, 0x06, 0x65, 0xbe, 0x33, 0x1b, 0x18, 0x3d, 0x6e, 0x07, 0x98, 0x3e,
  0x21, 0x34, 0x7f, 0xbe, 0x79, 0x38, 0x5f, 0xbe, 0x53, 0x1e, 0x20, 0x3d,
  0xb0, 0xec, 0x22, 0x3f, 0xb2, 0xf0, 0xb7, 0xbd, 0x24, 0xf6, 0x1c, 0x3f,
  0x56, 0x5c, 0x69, 0x3d, 0xe7, 0x28, 0x0c, 0xbe, 0x71, 0xba, 0xe4, 0x3d,
  0x92, 0x12, 0x92, 0x3d, 0x22, 0xa6, 0x7d, 0xbe, 0xa6, 0x5d, 0x71, 0xbe,
  0x08, 0x11, 0x2c, 0x3e, 0x0e, 0xb3, 0xa5, 0xb8, 0xdb, 0x33, 0x85, 0xbd,
  0x6e, 0xbb, 0xc2, 0x3b, 0x75, 0x47, 0x3e, 0xbe, 0x10, 0x6c, 0xb1, 0x3d,
  0xb3, 0xc7, 0x3f, 0xbe, 0xfd, 0x77, 0x75, 0x3f, 0x3a, 0x75, 0x56, 0xbe,
  0x9d, 0x1f, 0xcb, 0x3e, 0x6d, 0x12, 0x62, 0xbe, 0x4e, 0xd9, 0xec, 0xbd,
  0xfa, 0xcf, 0x3f, 0xbe, 0x62, 0x06, 0x3c, 0x3b, 0x91, 0xf1, 0x98, 0xbe,
  0x3d, 0xcc, 0x4a, 0xbe, 0x0f, 0x79, 0x5e, 0x3c, 0xe3, 0x03, 0x03, 0xbe,
  0xe1, 0xb4, 0x43, 0xbd, 0xcb, 0x15, 0x7e, 0x3d, 0x01, 0x36, 0x26, 0xbe,
  0xa4, 0x6c, 0x28, 0xbe, 0xa9, 0xc8, 0x9f, 0xbe, 0xc0, 0x00, 0x2a, 0x3f,
  0xee, 0x59, 0x82, 0xbd, 0x08, 0x03, 0x61, 0x3f, 0xfb, 0xbb, 0x2b, 0xbd,
  0x83, 0xce, 0xfb, 0xbd, 0x49, 0xd6, 0x3b, 0x3d, 0xff, 0x97, 0xff, 0xbc,
  0x6c, 0x9b, 0x2a, 0xbe, 0xa8, 0x5d, 0x07, 0xbd, 0x5a, 0xe0, 0x40, 0x3d,
  0xb7, 0xc4, 0x81, 0x3d, 0x05, 0x27, 0x60, 0xbe, 0xc0, 0xab, 0x8b, 0x3d,
  0x55, 0x05, 0x96, 0x3b, 0x39, 0x09, 0x6c, 0xbd, 0xf4, 0x5e, 0x97, 0xbd,
  0xc0, 0x42, 0x16, 0x3d, 0xec, 0x2b, 0x1b, 0xbe, 0x3d, 0x23, 0x2c, 0x3d,
  0xcb, 0xa6, 0xa8, 0x3d, 0x7b, 0xd9, 0x94, 0xbe, 0x74, 0xd9, 0x2c, 0x3e,
  0x67, 0x67, 0xd0, 0xbd, 0xd5, 0x83, 0x0b, 0x3e, 0x5c, 0x68, 0x03, 0x3e,
  0x1a, 0x38, 0x03, 0xbe, 0x63, 0xb8, 0xa7, 0xbc, 0x10, 0xa4, 0x58, 0x3e,
  0x57, 0xc7, 0x8b, 0xbe, 0xd4, 0xe6, 0xc0, 0x3d, 0x1d, 0x3d, 0xc0, 0x3d,
  0x06, 0x14, 0xdf, 0xbc, 0x42, 0x5d, 0xb4, 0x3d, 0x0b, 0x25, 0xff, 0x3d,
  0xa2, 0x0a, 0x15, 0xbe, 0xa5, 0xa3, 0x0e, 0x3e, 0xa9, 0x9b, 0xa3, 0xbd,
  0x3a, 0xdf, 0xa7, 0xbd, 0x9b, 0xc1, 0x88, 0x3e, 0x0f, 0xc9, 0x87, 0x3d,
  0x86, 0xf7, 0x83, 0xbe, 0xac, 0xcb, 0x5d, 0x3d, 0x0a, 0xb1, 0xe1, 0xbd,
  0x73, 0xbe, 0x2b, 0x3e, 0x65, 0x05, 0x66, 0xbe, 0x2d, 0x63, 0x0e, 0x3c,
  0xc4, 0x78, 0x41, 0x3d, 0xd0, 0x32, 0xaf, 0x3d, 0x96, 0x99, 0x16, 0xbe,
  0x17, 0xed, 0x75, 0xbe, 0xc9, 0xf0, 0x55, 0xbe, 0x49, 0x5f, 0x34, 0x3b,
  0x00, 0x9e, 0x80, 0x3d, 0xbd, 0xa3, 0x30, 0x3c, 0x07, 0x68, 0xe2, 0xbc,
  0xd1, 0xef, 0x38, 0x3e, 0xc8, 0xcd, 0x7c, 0x3c, 0x45, 0x6a, 0x23, 0x3e,
  0x64, 0x64, 0xf4, 0x3d, 0x3a, 0x47, 0x1e, 0xbe, 0x0e, 0xe6, 0x7d, 0xbe,
  0x3c, 0xee, 0x15, 0xbe, 0x5e, 0xd8, 0xd5, 0xbd, 0xaa, 0x09, 0x79, 0xbe,
  0x87, 0x7f, 0x90, 0xbd, 0x65, 0x38, 0x1c, 0x3d, 0x44, 0x67, 0x2f, 0xba,
  0x3f, 0xa9, 0x5b, 0x3c, 0x87, 0x10, 0x0c, 0xbe, 0x5b, 0xce, 0xae, 0xbd,
  0xbb, 0xdb, 0x1a, 0x3e, 0x6f, 0xd6, 0x39, 0xbe, 0x1c, 0x3e, 0x24, 0xbe,
  0x0b, 0x7c, 0xc2, 0xbd, 0x6b, 0x51, 0xd8, 0xbc, 0x86, 0x71, 0x93, 0xbe,
  0x08, 0x1d, 0x68, 0xbe, 0x1f, 0x2f, 0xac, 0xbd, 0x9d, 0x00, 0x63, 0xbd,
  0xd7, 0x8c, 0x2e, 0x3c, 0x76, 0xad, 0x70, 0x3d, 0xfa, 0xd0, 0x40, 0xbe,
  0x09, 0x51, 0x20, 0x3e, 0xd9, 0xa0, 0xae, 0xbc, 0x87, 0x5b, 0xe0, 0x3d,
  0x0d, 0xbf, 0x82, 0x3d, 0x58, 0xf6, 0x45, 0x3e, 0xaa, 0x24, 0x1f, 0xbe,
  0x91, 0xaf, 0x88, 0xbe, 0x2a, 0x9d, 0x36, 0xbe, 0x6b, 0xc9, 0x73, 0x3d,
  0x63, 0x51, 0x7f, 0xbd, 0x38, 0xe9, 0x84, 0xbe, 0x43, 0x30, 0x09, 0x3e,
  0xa0, 0x82, 0x21, 0xbb, 0x18, 0x1c, 0x31, 0xbe, 0x99, 0xf6, 0x2d, 0x3b,
  0x05, 0x6d, 0x21, 0xbe, 0xa4, 0x9f, 0x93, 0x3d, 0x25, 0x4d, 0x13, 0xbe,
  0x19, 0xa8, 0x8d, 0x3d, 0x77, 0xd1, 0x34, 0xbe, 0xbd, 0xa3, 0x0f, 0x3e,
  0x25, 0x8a, 0x16, 0xbe, 0x15, 0x16, 0x51, 0xbe, 0x67, 0xa7, 0xbb, 0x3d,
  0x60, 0x12, 0x2a, 0xbb, 0x18, 0xa2, 0x39, 0xbd, 0xb0, 0x4b, 0x40, 0x3d,
  0x28, 0xa5, 0x3d, 0x3e, 0xc3, 0x43, 0xd3, 0x3d, 0xf4, 0xba, 0x88, 0xbe,
  0xb0, 0x5c, 0x50, 0x3e, 0x2f, 0x02, 0x06, 0xbe, 0x1c, 0xbc, 0x27, 0x3e,
  0x47, 0x44, 0xd2, 0xbd, 0xfa, 0xe1, 0x96, 0xbd, 0x97, 0x97, 0xe3, 0x3d,
  0x9a, 0xfd, 0x0a, 0xbe, 0x94, 0xe2, 0x92, 0xbb, 0x66, 0xd3, 0x42, 0xbe,
  0xcc, 0xcc, 0xd3, 0x3c, 0x8d, 0x7b, 0x43, 0x3e, 0x24, 0xa8, 0x9a, 0xbe,
  0xa5, 0x8f, 0xf0, 0x3d, 0x48, 0x65, 0xcb, 0x3d, 0x06, 0x81, 0xac, 0xbd,
  0xd2, 0x90, 0xed, 0x3c, 0x5e, 0x05, 0xe8, 0x3d, 0x9e, 0x03, 0x51, 0xbe,
  0x96, 0xa9, 0x61, 0xbe, 0x97, 0x11, 0x62, 0xbe, 0x0a, 0x10, 0x52, 0xbe,
  0xa5, 0x1d, 0xbc, 0x3c, 0x81, 0x3e, 0xcb, 0xbd, 0xd1, 0x86, 0x23, 0xbe,
  0x97, 0x85, 0x0a, 0xbe, 0x27, 0xed, 0xbe, 0xbd, 0x8e, 0x04, 0x39, 0xbe,
  0xd3, 0xbd, 0x94, 0xbe, 0x80, 0x9b, 0x0c, 0x3d, 0x45, 0x1f, 0x0b, 0xbe,
  0xea, 0x85, 0x86, 0xbd, 0xac, 0x9f, 0x0b, 0x3e, 0x4c, 0x81, 0x08, 0xbe,
  0x30, 0xcc, 0x0b, 0x3e, 0x53, 0xe0, 0xfd, 0xbd, 0xb7, 0xcd, 0xf8, 0xbd,
  0x5f, 0x63, 0x2d, 0x3c, 0x6b, 0xbb, 0x3e, 0x3e, 0x0a, 0x23, 0x2a, 0x3e,
  0x70, 0x01, 0xc1, 0x3d, 0xc3, 0x3b, 0xa7, 0x3c, 0xdb, 0x5c, 0xa6, 0xbd,
  0x17, 0x97, 0xe7, 0x3d, 0x29, 0xee, 0xc6, 0x3d, 0x08, 0xc8, 0xf7, 0xbd,
  0x58, 0x74, 0xa6, 0x3d, 0xd6, 0x09, 0xd2, 0x3d, 0x12, 0x7e, 0xf3, 0x3c,
  0x39, 0xed, 0x19, 0xbe, 0xa6, 0xa8, 0x20, 0xbd, 0xf6, 0x2d, 0xa7, 0x3d,
  0x57, 0x2c, 0x1b, 0xbe, 0x81, 0x53, 0xaf, 0x3c, 0x60, 0xf4, 0x56, 0xbe,
  0x26, 0xc5, 0x11, 0x3d, 0x17, 0x97, 0xb9, 0x3d, 0x62, 0x6a, 0x1c, 0xbe,
  0x6b, 0xeb, 0xe7, 0x3c, 0x6b, 0xad, 0x6d, 0xbd, 0x2a, 0xe2, 0x42, 0xbe,
  0x7d, 0xac, 0x8a, 0xbe, 0xce, 0xd7, 0xde, 0x3c, 0x19, 0x6e, 0x47, 0xbe,
  0x1e, 0xde, 0xe5, 0xbc, 0xb4, 0x76, 0xa7, 0x3d, 0xd1, 0x22, 0xbc, 0x3d,
  0xe5, 0x22, 0xde, 0x3d, 0xd9, 0x90, 0x25, 0xbd, 0x6a, 0xef, 0x00, 0xbe,
  0x9a, 0x2e, 0x78, 0xbc, 0xba, 0x9f, 0x57, 0xbe, 0x5f, 0xe1, 0x39, 0xbd,
  0x1e, 0x2a, 0xbb, 0x3b, 0x30, 0x8e, 0x66, 0xbe, 0x7f, 0x09, 0x0b, 0xbe,
  0x93, 0x16, 0x42, 0xbc, 0x3d, 0x9e, 0xc6, 0x3d, 0x15, 0xa1, 0x64, 0xbe,
  0xe4, 0x5c, 0x27, 0xbe, 0xe1, 0x1c, 0x57, 0xbc, 0x63, 0xaa, 0x15, 0x3d,
  0x44, 0x53, 0x87, 0x3d, 0xde, 0x7c, 0xfc, 0xbd, 0xf0, 0x56, 0x19, 0xbe,
  0xe3, 0x92, 0x74, 0x3d, 0xce, 0xb7, 0x06, 0xbe, 0x11, 0xdc, 0xbb, 0x3d,
  0x4b, 0x18, 0xeb, 0x3d, 0xe5, 0x13, 0x4f, 0xbd, 0x11, 0xf8, 0x41, 0xbd,
  0x77, 0xfb, 0xc4, 0x3d, 0x0f, 0xb1, 0x8c, 0xbd, 0x77, 0x43, 0x64, 0xbe,
  0x5f, 0xe8, 0x0c, 0xbe, 0x88, 0xbb, 0xf5, 0xbd, 0x6a, 0xaf, 0x0d, 0x3e,
  0x69, 0x56, 0x2f, 0x3e, 0xb9, 0x08, 0xf4, 0xbd, 0x61, 0xd0, 0xff, 0x3d,
  0x11, 0x73, 0xe7, 0xbd, 0x00, 0xe7, 0xca, 0xbc, 0x64, 0x5d, 0x73, 0x3d,
  0xc2, 0x61, 0x8e, 0x3d, 0x62, 0xd8, 0x0e, 0xbe, 0x16, 0xe7, 0x51, 0xbe,
  0xb8, 0x46, 0x8c, 0x3d, 0xfa, 0x84, 0xa1, 0x3d, 0xe7, 0x3c, 0xd3, 0xbd,
  0x62, 0xca, 0x88, 0x3d, 0xc4, 0x32, 0xfc, 0xbc, 0xac, 0x24, 0x01, 0xbe,
  0xbb, 0xba, 0x0e, 0x3e, 0xb3, 0x30, 0xc2, 0xbc, 0xb0, 0x8a, 0xd8, 0xbd,
  0x41, 0xb5, 0x1a, 0xbd, 0x76, 0x21, 0x3a, 0xbe, 0x0a, 0xdc, 0x57, 0xbe,
  0x3d, 0x60, 0x19, 0x3e, 0xf6, 0x8b, 0x50, 0xbe, 0x0e, 0x89, 0xd7, 0xbd,
  0xf3, 0x9d, 0xb9, 0xbd, 0x06, 0x9e, 0xa4, 0xbd, 0xa5, 0xbe, 0xa8, 0xbd,
  0xed, 0xc7, 0x1f, 0xbd, 0x73, 0x40, 0x92, 0xbe, 0x20, 0x23, 0x4c, 0x3d,
  0x6a, 0xff, 0x64, 0xbe, 0x5d, 0xf6, 0xa9, 0xbd, 0x32, 0xa5, 0x10, 0xbd,
  0x73, 0x9f, 0xb8, 0xbd, 0x3f, 0x5e, 0xa3, 0xbd, 0xa4, 0xac, 0x86, 0xbc,
  0x30, 0x0f, 0xb7, 0xbd, 0x71, 0x91, 0x98, 0xbe, 0xed, 0x00, 0x53, 0xbe,
  0x2e, 0x48, 0xa9, 0x3d, 0xcd, 0xf3, 0xc8, 0xbd, 0xfd, 0x93, 0x77, 0xbe,
  0xc2, 0xe8, 0x2c, 0xbd, 0xd8, 0x7e, 0x1b, 0x3d, 0x61, 0x48, 0xd1, 0xbe,
  0x1b, 0x69, 0x4b, 0xbd, 0xb7, 0xef, 0x7d, 0xbe, 0x2b, 0xa9, 0x06, 0xbe,
  0xad, 0x42, 0x32, 0xbd, 0x68, 0x2f, 0xf9, 0xbd, 0xe9, 0x65, 0xc2, 0xbd,
  0x49, 0x0e, 0x66, 0xbd, 0x46, 0xc2, 0x09, 0xbe, 0x16, 0x32, 0x53, 0xbd,
  0x20, 0x19, 0xa9, 0xbe, 0x7b, 0xab, 0x86, 0xbe, 0x8b, 0x2c, 0x6a, 0xbc,
  0x24, 0xd9, 0x76, 0xbe, 0x1b, 0x45, 0xd3, 0xbb, 0xe9, 0xfd, 0x35, 0xbe,
  0x0d, 0x38, 0x3e, 0xbe, 0xc5, 0x54, 0xae, 0xbd, 0x51, 0x99, 0x0c, 0xbe,
  0xa5, 0x20, 0x11, 0xbe, 0xf6, 0x80, 0x41, 0xbd, 0x6d, 0x22, 0x7b, 0xbc,
  0x80, 0x41, 0xae, 0xbe, 0x76, 0x54, 0xc6, 0xbd, 0xb9, 0xf2, 0xb4, 0xbd,
  0xac, 0xe9, 0xd0, 0xbe, 0x14, 0x50, 0x83, 0xbe, 0x3f, 0xf5, 0xcc, 0xbe,
  0x0d, 0x7b, 0x27, 0xbe, 0x59, 0xb1, 0x6d, 0xbd, 0x8e, 0x1b, 0x18, 0xbe,
  0x5e, 0x59, 0x1b, 0xbe, 0xb2, 0xc8, 0xcd, 0xbe, 0xa4, 0xac, 0x6b, 0xbe,
  0x6b, 0x11, 0xba, 0xbe, 0xbc, 0x8d, 0xc0, 0xbd, 0x73, 0xd0, 0x80, 0xbe,
  0x33, 0xf0, 0xf1, 0xbd, 0xa4, 0xb1, 0x7e, 0xbd, 0x1b, 0x57, 0x27, 0xbe,
  0x16, 0x01, 0xfa, 0xbe, 0xff, 0x60, 0xd2, 0xbe, 0xac, 0xe7, 0x02, 0x3e,
  0x48, 0x4b, 0xf2, 0xba, 0x48, 0xdd, 0xdf, 0xbc, 0x79, 0xf1, 0x61, 0x3f,
  0x4f, 0xa9, 0xee, 0xbe, 0xb3, 0x12, 0xcd, 0xbc, 0x63, 0x78, 0x4f, 0xbd,
  0xd7, 0xd4, 0x2f, 0xbd, 0x1d, 0x3a, 0xea, 0x3c, 0x9a, 0x4f, 0xfc, 0xbd,
  0x3d, 0xf4, 0xab, 0x3d, 0x31, 0xce, 0x35, 0xbe, 0x24, 0x55, 0xa7, 0xbd,
  0xeb, 0xfe, 0xb7, 0xbd, 0x38, 0x82, 0xc9, 0x3d, 0xfd, 0xbe, 0x83, 0x3e,
  0x1d, 0xdb, 0x61, 0x3e, 0x0d, 0xad, 0xda, 0x3e, 0x9f, 0xb7, 0x67, 0xbd,
  0x87, 0x06, 0xe9, 0x3e, 0x5e, 0x55, 0x90, 0x3e, 0x3d, 0xa4, 0x00, 0x3e,
  0x74, 0xe0, 0x0e, 0xbe, 0xa1, 0xf8, 0x05, 0x3d, 0x2a, 0x58, 0xf7, 0x3c,
  0xe8, 0x49, 0x99, 0x3a, 0xde, 0x4f, 0x73, 0x3d, 0x0c, 0xbe, 0x08, 0x3c,
  0xd6, 0xad, 0x90, 0x3e, 0xf5, 0xe2, 0x70, 0xbb, 0x04, 0xc1, 0x66, 0x3e,
  0xcf, 0x6e, 0x6d, 0x3c, 0x41, 0xd3, 0x2e, 0x3f, 0x1c, 0x00, 0x81, 0x3e,
  0xa6, 0x0e, 0xd5, 0x3d, 0x3d, 0xa2, 0x2e, 0x3f, 0x9e, 0x99, 0xa8, 0x3e,
  0xa0, 0x07, 0xd8, 0x3d, 0x21, 0x88, 0x5b, 0x3e, 0xa8, 0xd3, 0xd6, 0x3d,
  0x75, 0x56, 0x9b, 0x3e, 0x9b, 0x75, 0x2e, 0x3d, 0x2e, 0xdb, 0x81, 0x3f,
  0xfc, 0xc4, 0xe6, 0x3d, 0xea, 0x38, 0x24, 0xbe, 0x52, 0xc4, 0xb7, 0x3d,
  0x3e, 0xca, 0xd6, 0x3e, 0x26, 0x5c, 0xc9, 0x3e, 0xe6, 0x41, 0x3d, 0x3f,
  0x59, 0x7a, 0xd3, 0xbd, 0x61, 0x50, 0x71, 0xbe, 0xb3, 0x9c, 0xd1, 0xbb,
  0xb3, 0xd9, 0xe0, 0x3c, 0x0a, 0x4c, 0x2e, 0xbe, 0x1d, 0x8a, 0x61, 0xbd,
  0xcf, 0xb2, 0x04, 0x3e, 0xb6, 0x06, 0x28, 0xbe, 0x2e, 0x64, 0x10, 0x3e,
  0x74, 0x78, 0x53, 0xbe, 0xb6, 0x3b, 0x99, 0xbd, 0x04, 0x9e, 0xfa, 0x3c,
  0xc8, 0x39, 0x49, 0xbe, 0x18, 0xae, 0x07, 0x3e, 0x47, 0x5e, 0x39, 0xbe,
  0x8f, 0xb8, 0xbb, 0xbc, 0x48, 0x30, 0x7b, 0xbe, 0x03, 0x7b, 0x22, 0xbe,
  0x70, 0x09, 0x18, 0x3d, 0x10, 0x2d, 0xb4, 0x3c, 0x86, 0x8c, 0xc2, 0x3d,
  0xb4, 0x68, 0xb1, 0x3d, 0xca, 0x48, 0x0b, 0xbe, 0x09, 0xe1, 0x4e, 0xbe,
  0x51, 0x5a, 0x43, 0xbc, 0xe0, 0xd5, 0x13, 0xbd, 0x94, 0x2a, 0x03, 0x3e,
  0x99, 0x5b, 0x94, 0x3d, 0x45, 0x6e, 0x83, 0xbd, 0x6e, 0xd9, 0x9d, 0xbb,
  0x58, 0xda, 0xc5, 0x3c, 0x1e, 0x2b, 0x29, 0xbe, 0x38, 0x1d, 0x63, 0xbe,
  0x7c, 0x93, 0x19, 0x3e, 0x8c, 0x72, 0xaa, 0xbd, 0x37, 0xfe, 0x6f, 0xbd,
  0xf9, 0x17, 0x89, 0xbe, 0xe6, 0xe9, 0xf7, 0x3d, 0xe0, 0x9e, 0x00, 0x3e,
  0x9d, 0x21, 0x25, 0x3e, 0xcb, 0xe3, 0x37, 0x3c, 0xc0, 0xeb, 0x9c, 0xbd,
  0x67, 0x37, 0x81, 0x3d, 0x04, 0x2c, 0x80, 0x3d, 0x62, 0x1b, 0x5e, 0xbe,
  0x16, 0x7d, 0x28, 0xbd, 0x52, 0x89, 0xf9, 0xbd, 0x4d, 0x15, 0xfd, 0xbd,
  0x6f, 0x43, 0x42, 0xbe, 0x0e, 0xe6, 0x79, 0xbe, 0xdd, 0x8f, 0x22, 0x3e,
  0x46, 0xc0, 0x52, 0xbe, 0xa8, 0xd3, 0x02, 0x3d, 0xbe, 0x9a, 0x81, 0xbe,
  0xe4, 0x2f, 0x34, 0xbd, 0x93, 0xd7, 0x19, 0x3e, 0x0c, 0x0b, 0xe1, 0xbc,
  0x04, 0x65, 0x86, 0xbd, 0x2d, 0x92, 0x31, 0xbe, 0x48, 0xb4, 0xae, 0x3d,
  0x4c, 0x4e, 0x63, 0xbe, 0x1a, 0xb4, 0x01, 0xbe, 0x63, 0xb6, 0xbf, 0x3d,
  0x50, 0xbb, 0x1b, 0xbe, 0xa5, 0xe7, 0x67, 0xbe, 0x72, 0x5a, 0x5b, 0xbe,
  0x48, 0x68, 0x32, 0xbe, 0xfb, 0x53, 0x0e, 0xbe, 0x50, 0xda, 0x03, 0xbe,
  0x56, 0xfc, 0x9b, 0xbd, 0x89, 0x9f, 0xe0, 0x3b, 0x70, 0xf2, 0xac, 0xbd,
  0xed, 0xea, 0x22, 0x3e, 0x2f, 0x68, 0xe6, 0x3d, 0x03, 0x4b, 0x6a, 0xbe,
  0x02, 0x90, 0xa8, 0xbc, 0x5d, 0x85, 0xba, 0x3d, 0xda, 0xf9, 0xaf, 0x3d,
  0xa2, 0x6d, 0x39, 0xbb, 0xcb, 0xc3, 0xb6, 0xbd, 0x0c, 0x88, 0xff, 0xbd,
  0xb9, 0xc1, 0x1f, 0xbd, 0xd2, 0xf2, 0x14, 0xbe, 0x71, 0xb8, 0x38, 0xbd,
  0xc1, 0x90, 0x59, 0xbe, 0x8f, 0xe7, 0xd2, 0xbc, 0x8f, 0x4e, 0x08, 0x3d,
  0xea, 0xc1, 0x70, 0xbe, 0xdd, 0xfe, 0x69, 0xbe, 0x8f, 0x66, 0x16, 0xbe,
  0xf3, 0xcc, 0x26, 0xbe, 0x4c, 0x55, 0x26, 0xbe, 0xd1, 0x5b, 0x34, 0x3d,
  0xec, 0xdc, 0xeb, 0x3b, 0x5d, 0x5f, 0x4c, 0xbd, 0x1b, 0xf9, 0x30, 0x3c,
  0x5f, 0x88, 0xb1, 0x3c, 0x58, 0xa9, 0x6e, 0xbe, 0x5a, 0x57, 0x0a, 0xbc,
  0xf5, 0x4e, 0xc9, 0xbd, 0x23, 0x72, 0x40, 0x3d, 0x5a, 0xdb, 0x9d, 0xbc,
  0x0c, 0x50, 0x60, 0xbe, 0x1d, 0x96, 0xdf, 0x3d, 0xec, 0x8b, 0x02, 0x3c,
  0x28, 0x27, 0xbe, 0x3c, 0xe4, 0x78, 0xc3, 0xbd, 0xb4, 0x3f, 0x06, 0x3e,
  0x65, 0x17, 0x01, 0x3e, 0x4f, 0x84, 0x3b, 0x3d, 0x25, 0x70, 0xfc, 0x3d,
  0x54, 0x4e, 0x19, 0xbe, 0xcb, 0x8e, 0x83, 0x3d, 0x3a, 0x08, 0x51, 0xbd,
  0x7a, 0xf8, 0x18, 0x3d, 0xb7, 0xe5, 0x73, 0x3e, 0x4a, 0x1b, 0x9a, 0xbe,
  0x73, 0x55, 0x4d, 0x3e, 0x8e, 0x87, 0x89, 0xbe, 0xca, 0x62, 0x53, 0x3d,
  0xb6, 0x83, 0x16, 0xbe, 0xc7, 0x37, 0xba, 0x3f, 0x4f, 0x0c, 0xbb, 0xbc,
  0x94, 0x3f, 0x08, 0x3f, 0x7b, 0x6e, 0x1e, 0xbe, 0x33, 0x0d, 0x40, 0xbe,
  0x0e, 0xad, 0x1c, 0xbb, 0xf5, 0x28, 0x32, 0xbe, 0xf2, 0xb6, 0x81, 0xbd,
  0xd0, 0x6b, 0x68, 0xbe, 0x22, 0xd1, 0x60, 0xbd, 0xa7, 0x0a, 0x28, 0xbd,
  0xe6, 0x07, 0x46, 0xbe, 0x8b, 0xac, 0x76, 0xbd, 0xa5, 0x34, 0x0b, 0x3d,
  0xb4, 0x37, 0x1a, 0x3d, 0x0c, 0xe4, 0x44, 0x3e, 0x9f, 0x9f, 0xcd, 0x3f,
  0x0a, 0x28, 0xe5, 0xbd, 0x4a, 0x2e, 0xb0, 0x3f, 0xe8, 0x3e, 0x8b, 0xbe,
  0xaf, 0x6c, 0xd1, 0xbd, 0x93, 0x9f, 0xd9, 0xbd, 0xbf, 0x95, 0x32, 0x3e,
  0x3d, 0x9b, 0x86, 0x3d, 0x13, 0xbb, 0xaa, 0x3d, 0xe2, 0x35, 0x13, 0xbe,
  0x83, 0x44, 0xd1, 0xbd, 0x9f, 0xc6, 0x18, 0xbe, 0xcf, 0x40, 0xa1, 0x3e,
  0xd1, 0xce, 0xa9, 0xbd, 0x9b, 0xed, 0xa4, 0xbd, 0x0c, 0x7c, 0x83, 0xbe,
  0xa1, 0x88, 0xd6, 0x3f, 0xf7, 0xb5, 0x81, 0xbe, 0x77, 0x32, 0xc4, 0x3f,
  0xef, 0x3a, 0x4c, 0xbe, 0xdb, 0x2b, 0x4f, 0x3d, 0x48, 0x93, 0xb1, 0xbd,
  0x8b, 0xdd, 0x2a, 0xbd, 0x7b, 0x7d, 0x58, 0xbe, 0xf1, 0x08, 0xb0, 0xbe,
  0xfd, 0xab, 0x3c, 0x3e, 0xcb, 0x67, 0xf9, 0xbd, 0xc4, 0x99, 0x46, 0xbe,
  0x40, 0x41, 0x61, 0x3e, 0xc9, 0x86, 0x86, 0xbe, 0x51, 0xf1, 0x6e, 0xbe,
  0xa9, 0x95, 0x4d, 0xbe, 0x0f, 0x2c, 0xd3, 0x3f, 0xeb, 0x04, 0xfc, 0xbd,
  0x6d, 0x5d, 0xbc, 0x3f, 0x39, 0xf3, 0xad, 0xbe, 0xf3, 0xfb, 0x6b, 0xbe,
  0x74, 0x97, 0x25, 0x3e, 0x90, 0x90, 0x21, 0xbe, 0xcf, 0x7d, 0xdc, 0xbd,
  0x27, 0xa4, 0x4f, 0xbd, 0x6c, 0xd9, 0x14, 0x3e, 0x61, 0xd7, 0x15, 0x3d,
  0x3a, 0x9c, 0xa2, 0xbd, 0x71, 0xbe, 0x22, 0x3e, 0x1f, 0x4b, 0x5d, 0xbe,
  0x47, 0x5d, 0x52, 0xbd, 0xf1, 0x91, 0x29, 0x3c, 0x3e, 0xd8, 0xb4, 0x3f,
  0xcf, 0xc8, 0xbc, 0xbe, 0xf7, 0xb9, 0x47, 0x3f, 0x61, 0x77, 0x80, 0xbb,
  0x6f, 0xfb, 0x70, 0xbe, 0xa9, 0xf7, 0x63, 0xbe, 0x28, 0xc1, 0x94, 0xbd,
  0x41, 0xcc, 0x38, 0xbe, 0x90, 0x1c, 0x4d, 0xbe, 0x38, 0xe5, 0x65, 0xbe,
  0x25, 0x08, 0x14, 0x3d, 0x54, 0xd5, 0xd1, 0xbd, 0x4c, 0x4f, 0x1f, 0x3e,
  0xf5, 0xd5, 0x9e, 0xbc, 0xfe, 0xd9, 0x9e, 0xbe, 0xe1, 0xd7, 0xbe, 0xbd,
  0xa0, 0x58, 0xb7, 0x3f, 0x21, 0xbe, 0xaf, 0xbb, 0x2f, 0x3f, 0x7f, 0x3f,
  0x0e, 0x13, 0x99, 0xbe, 0xac, 0x80, 0xef, 0xbd, 0xbb, 0x93, 0xd1, 0x3b,
  0xcf, 0xdc, 0x91, 0xbd, 0x38, 0x90, 0xd9, 0xbc, 0x72, 0x9f, 0x85, 0xbd,
  0x1f, 0x19, 0xe5, 0x3d, 0x0a, 0x94, 0xa0, 0xbd, 0x31, 0x09, 0x3d, 0xbe,
  0xb7, 0xbd, 0x88, 0x3d, 0x6b, 0x11, 0x97, 0x3d, 0x63, 0x03, 0xdf, 0x3d,
  0xf7, 0xdc, 0x8d, 0xbd, 0x78, 0x57, 0x2e, 0x3f, 0xf2, 0x61, 0xc0, 0xbb,
  0xdd, 0x45, 0x9b, 0x3f, 0xe6, 0x74, 0xbf, 0xbd, 0x5b, 0xbb, 0xeb, 0xbd,
  0xec, 0x58, 0x5a, 0x3d, 0x67, 0x9e, 0xd3, 0x3b, 0xf9, 0xf6, 0xe4, 0xbb,
  0x1f, 0xbe, 0x47, 0xbb, 0xba, 0x4e, 0x0d, 0x3e, 0x7a, 0xa7, 0xc2, 0xbd,
  0x0e, 0x54, 0x92, 0xbe, 0x3c, 0xb4, 0x61, 0x3d, 0xfa, 0x0b, 0x17, 0x3e,
  0x7a, 0xa3, 0x1c, 0xbe, 0xd4, 0xda, 0x5a, 0xbc, 0x9f, 0xfa, 0xc2, 0x3d,
  0x3f, 0x52, 0xcb, 0x3c, 0x35, 0xf5, 0x35, 0xbe, 0x4e, 0x90, 0x11, 0xbe,
  0x83, 0x08, 0x6e, 0xbd, 0x2c, 0x24, 0x17, 0x3d, 0xee, 0x37, 0xea, 0xbb,
  0x41, 0x1a, 0xf2, 0x3d, 0x5d, 0xa8, 0xbf, 0x3d, 0xa8, 0x4e, 0x20, 0x3e,
  0x8c, 0x20, 0xd2, 0x3a, 0x10, 0x24, 0x7d, 0xbe, 0x67, 0x12, 0x1d, 0xbd,
  0xd7, 0x0a, 0xdb, 0xbc, 0x80, 0x7b, 0x77, 0x3d, 0x85, 0x39, 0x5f, 0xbe,
  0x4e, 0xba, 0x82, 0xbd, 0x0b, 0x06, 0x3b, 0xbe, 0x58, 0x01, 0x1e, 0x3e,
  0xe9, 0x37, 0xe3, 0x3d, 0x4a, 0xea, 0xae, 0xbb, 0x22, 0x09, 0x2f, 0x3d,
  0x40, 0xd7, 0x0c, 0xbe, 0xff, 0x35, 0xec, 0xbd, 0x17, 0x2b, 0x7f, 0xbe,
  0xf2, 0x3d, 0x39, 0xbd, 0x79, 0x15, 0x25, 0x3e, 0x15, 0xa7, 0x00, 0xbe,
  0x35, 0x5d, 0x1f, 0xbe, 0x34, 0xd1, 0x99, 0xbd, 0x00, 0x2c, 0x29, 0x3e,
  0x27, 0xe8, 0x5e, 0xbe, 0x69, 0xe6, 0xbb, 0x3c, 0x8e, 0xb5, 0x79, 0xbe,
  0xb5, 0xc5, 0x5e, 0xbd, 0x08, 0x2f, 0x8c, 0xbd, 0xbe, 0x5a, 0x94, 0xbd,
  0xa1, 0xe8, 0xac, 0xbd, 0xee, 0x90, 0xda, 0xbd, 0x1e, 0x57, 0x16, 0x3d,
  0xc1, 0xd9, 0x77, 0x3d, 0xa5, 0xe1, 0xe4, 0x3d, 0xe6, 0xb9, 0xcf, 0x3c,
  0x31, 0xab, 0x2d, 0xbd, 0x67, 0x1d, 0x61, 0xbe, 0x75, 0xcc, 0xdc, 0xbd,
  0xf2, 0xc4, 0xf8, 0xbd, 0x14, 0x9c, 0xd3, 0xbd, 0xc5, 0xa7, 0x41, 0x3e,
  0x35, 0x35, 0x2c, 0xbe, 0x62, 0x4f, 0x04, 0x3e, 0x83, 0x5b, 0x4d, 0xbe,
  0x68, 0x10, 0x09, 0xbd, 0x96, 0xa2, 0x8d, 0x3d, 0xf2, 0x8f, 0x05, 0x3e,
  0xc5, 0x46, 0xac, 0x3a, 0x40, 0xdb, 0x31, 0xbe, 0xbf, 0x6c, 0x40, 0xbe,
  0x9c, 0x49, 0xde, 0x3d, 0xb7, 0xd2, 0xf9, 0xba, 0x93, 0xa7, 0x11, 0xbe,
  0x53, 0xf1, 0x2c, 0x3d, 0x91, 0x67, 0x04, 0xbd, 0x26, 0x78, 0xd3, 0xbd,
  0xfe, 0xa3, 0x59, 0xbe, 0x56, 0x20, 0x3b, 0x3a, 0x1d, 0xb8, 0xca, 0x3d,
  0x3b, 0xbc, 0x1a, 0xbe, 0xc1, 0x1d, 0xcf, 0x3c, 0xe7, 0x2f, 0xc8, 0x3d,
  0x13, 0x84, 0xba, 0x3d, 0x29, 0x9d, 0x1e, 0xbe, 0xd6, 0xb8, 0x9e, 0xbd,
  0x8d, 0x3c, 0x11, 0xbe, 0x83, 0xb7, 0xb7, 0xbd, 0xc8, 0x6e, 0x9a, 0xbe,
  0x42, 0xc5, 0xa7, 0xbd, 0xf1, 0x67, 0x8e, 0x3d, 0x12, 0x5d, 0x5e, 0x3d,
  0x2c, 0xef, 0x40, 0xbc, 0x82, 0x3b, 0x5d, 0xbe, 0x92, 0x88, 0x76, 0x3c,
  0x68, 0x99, 0xf8, 0xbd, 0x7d, 0x79, 0x1a, 0x3b, 0x35, 0x41, 0x85, 0x3b,
  0x9d, 0x04, 0x33, 0x3e, 0xa1, 0x36, 0xa8, 0x3d, 0x05, 0xba, 0x2f, 0xbe,
  0xd5, 0xe6, 0xf1, 0x3d, 0x41, 0xd4, 0xbf, 0xbd, 0xb4, 0xd6, 0x01, 0x3e,
  0xae, 0x46, 0x1e, 0xbd, 0xee, 0x69, 0x7e, 0xbe, 0xff, 0xbd, 0x29, 0xbe,
  0x50, 0x8c, 0x1c, 0x3e, 0x48, 0x26, 0xa8, 0xbb, 0xb9, 0x48, 0x55, 0xbe,
  0x12, 0xaf, 0xf9, 0x3d, 0x4c, 0x5c, 0x2e, 0x3e, 0xa8, 0xff, 0xf9, 0xbd,
  0x42, 0x76, 0xf5, 0x3d, 0x31, 0xd1, 0x96, 0x3d, 0x3a, 0xd6, 0x4b, 0xbd,
  0x32, 0x8a, 0xa3, 0x3d, 0x1e, 0x6c, 0xa6, 0xbd, 0x3d, 0x6a, 0xee, 0x3d,
  0x58, 0x06, 0x0d, 0xbe, 0x38, 0xcf, 0xd8, 0xbd, 0x84, 0x74, 0x99, 0xbd,
  0x90, 0xb0, 0x36, 0xbb, 0xce, 0x2c, 0x0f, 0x3d, 0xc5, 0x20, 0x35, 0xbe,
  0x46, 0xed, 0x97, 0xbc, 0xfe, 0xe2, 0x85, 0xbe, 0x45, 0xd2, 0x27, 0xbe,
  0xc4, 0x7f, 0xd4, 0xbd, 0xe2, 0xf2, 0x76, 0xbd, 0xe9, 0x04, 0x99, 0xbd,
  0xc3, 0x33, 0xe8, 0xbc, 0x2f, 0xcd, 0x83, 0xbe, 0xe7, 0xf0, 0xe2, 0xbd,
  0x45, 0x37, 0x86, 0x3d, 0x08, 0xed, 0xf2, 0xbc, 0x1b, 0x30, 0x0a, 0xbe,
  0xc4, 0xd7, 0x2f, 0xbe, 0x2e, 0x8b, 0x19, 0x3d, 0x69, 0x79, 0x4a, 0x3b,
  0x04, 0x46, 0x53, 0xbe, 0x51, 0x03, 0x23, 0xbe, 0x0e, 0xb9, 0x14, 0xbe,
  0xf7, 0xcf, 0x29, 0xbc, 0x76, 0x0d, 0xac, 0x3d, 0x28, 0xae, 0xc1, 0xbc,
  0xc3, 0x88, 0x3b, 0xbe, 0x2f, 0x76, 0x65, 0xbd, 0x26, 0xde, 0xac, 0x3a,
  0xc9, 0x55, 0x93, 0x3d, 0x9a, 0xc8, 0x69, 0xbe, 0x63, 0xa3, 0x51, 0xbd,
  0xc2, 0xb9, 0x62, 0xbd, 0xa8, 0x26, 0xe9, 0xbc, 0xd7, 0xae, 0xd2, 0x3c,
  0xd9, 0x20, 0xc1, 0xbd, 0x2a, 0xe0, 0x51, 0xbe, 0x0f, 0xe8, 0xb5, 0x3b,
  0x23, 0x41, 0x98, 0x3d, 0x75, 0xda, 0xd6, 0x3d, 0xfb, 0xb6, 0x54, 0xbe,
  0xe4, 0xf8, 0x0e, 0x3e, 0x91, 0x7d, 0xab, 0x3d, 0x5c, 0xdd, 0x0d, 0x3e,
  0x9c, 0x13, 0xd5, 0xbc, 0xc8, 0x7e, 0x48, 0xbe, 0x19, 0x2d, 0x98, 0xbd,
  0x14, 0xfc, 0x0f, 0x3e, 0xb9, 0xcb, 0x82, 0xbe, 0x74, 0x0c, 0xe4, 0xba,
  0xf0, 0xe4, 0xab, 0xbd, 0xf3, 0x84, 0x2d, 0xbe, 0x3f, 0xc2, 0x39, 0xbe,
  0x07, 0x79, 0x45, 0xbe, 0xcd, 0x06, 0xb8, 0x3c, 0x8a, 0x83, 0xac, 0x3d,
  0x8c, 0xdc, 0xaf, 0xbd, 0x7a, 0xa6, 0x39, 0xbe, 0xca, 0xae, 0xff, 0xbd,
  0xe1, 0x48, 0x1e, 0x3d, 0xac, 0x55, 0x39, 0xbe, 0xd3, 0x8d, 0xf5, 0xbd,
  0x48, 0x7a, 0xb0, 0xbd, 0x16, 0xa6, 0x24, 0x3e, 0x88, 0xa2, 0x39, 0xbe,
  0x3a, 0xcd, 0x6d, 0xbe, 0x0f, 0xb9, 0x52, 0xbe, 0x46, 0x26, 0xfc, 0x3d,
  0x1e, 0x90, 0x70, 0xbd, 0x39, 0x9e, 0xe4, 0xbd, 0x79, 0x35, 0x06, 0xbd,
  0xa1, 0xb0, 0x5c, 0xbe, 0x77, 0x26, 0x53, 0xbe, 0x9e, 0x38, 0x37, 0xbe,
  0x87, 0xfe, 0x1f, 0xbd, 0xbe, 0x7b, 0xb6, 0xbd, 0xae, 0xf9, 0xbb, 0xbd,
  0x49, 0xac, 0x95, 0x3d, 0xfa, 0x1f, 0x91, 0xbd, 0x20, 0x03, 0x1a, 0x3e,
  0x6d, 0xa1, 0x85, 0xbe, 0x10, 0x1a, 0x07, 0x3e, 0x2e, 0x19, 0x83, 0xbe,
  0x7a, 0x46, 0x35, 0xbd, 0x6b, 0xcc, 0x68, 0xbe, 0x09, 0xed, 0x0a, 0x3d,
  0xe4, 0x61, 0x68, 0xbe, 0x05, 0xd5, 0xa2, 0x3d, 0x5a, 0x58, 0xd1, 0xbd,
  0x0a, 0xd1, 0xc5, 0xb9, 0x2b, 0x08, 0x96, 0x3d, 0xaa, 0x60, 0x19, 0xbe,
  0x98, 0xd5, 0x0c, 0xbe, 0x98, 0x8d, 0xe5, 0xbd, 0x8d, 0x53, 0x3b, 0x3d,
  0xb7, 0xf9, 0x4a, 0x3d, 0x75, 0xab, 0x97, 0x3c, 0xe2, 0x80, 0x4d, 0x3c,
  0x36, 0xd0, 0xe0, 0x3c, 0x7b, 0xce, 0xc1, 0x3d, 0xab, 0x9d, 0xd8, 0x3d,
  0x3b, 0x85, 0x3c, 0x3e, 0xc2, 0xd0, 0x17, 0x3c, 0xfb, 0x56, 0x1d, 0xbe,
  0x85, 0x55, 0x04, 0xbe, 0x22, 0xa4, 0x9a, 0xbd, 0xe3, 0xd0, 0x2a, 0x3e,
  0x7f, 0xe8, 0x40, 0xbd, 0x9a, 0x8e, 0xfd, 0xbd, 0x01, 0xaa, 0x8a, 0x3d,
  0x82, 0x2d, 0x39, 0x3e, 0x1f, 0x26, 0x32, 0x3e, 0x3d, 0x80, 0x08, 0x3d,
  0xf4, 0x2a, 0x40, 0xbe, 0xb5, 0x3e, 0x2a, 0x3b, 0xf6, 0x26, 0xa1, 0x3d,
  0xef, 0x70, 0xc0, 0xbd, 0xdb, 0xca, 0x20, 0x3e, 0xe4, 0x2e, 0xa7, 0xbd,
  0x60, 0xf5, 0xd6, 0x3d, 0xcb, 0x20, 0x00, 0xbe, 0xc5, 0x8c, 0x8e, 0x3d,
  0x49, 0x47, 0x48, 0xbe, 0x33, 0xc4, 0x37, 0xbe, 0x69, 0xbb, 0x02, 0x3e,
  0xe1, 0xd2, 0x10, 0xbe, 0x34, 0xd8, 0x8a, 0xbd, 0x31, 0x2d, 0xbb, 0xbd,
  0x72, 0xe3, 0x30, 0xbe, 0xde, 0xe2, 0xd3, 0xbd, 0x7a, 0xe3, 0xa5, 0xbd,
  0xd8, 0x7e, 0x1a, 0xbd, 0xc3, 0x24, 0x06, 0x3e, 0x18, 0x91, 0x4a, 0xbe,
  0xfe, 0x07, 0x3b, 0xbe, 0x9e, 0x55, 0x3c, 0xbd, 0xee, 0x8a, 0x60, 0xbe,
  0xde, 0x1e, 0x5c, 0x3d, 0x7e, 0x37, 0x37, 0xbd, 0x0d, 0x1c, 0x32, 0x3d,
  0x7e, 0xed, 0x3a, 0xbd, 0x71, 0x64, 0x04, 0xbe, 0x8b, 0x6b, 0x28, 0x3e,
  0xfb, 0xb3, 0x81, 0xbd, 0xad, 0x0b, 0x77, 0xbd, 0x20, 0x8b, 0x3b, 0xbc,
  0x22, 0xc2, 0x71, 0xbe, 0xef, 0x7a, 0x21, 0x3e, 0xbb, 0x73, 0xb4, 0xbb,
  0x60, 0x10, 0x66, 0xbd, 0x16, 0xe0, 0x22, 0x3b, 0xc8, 0x5f, 0x05, 0x3e,
  0x5a, 0xbd, 0x80, 0xbe, 0xaf, 0x69, 0x52, 0x3e, 0x2a, 0x87, 0xad, 0x3d,
  0x13, 0x48, 0xbe, 0xbd, 0xa8, 0x70, 0x64, 0xbe, 0xba, 0xeb, 0x81, 0xbe,
  0x74, 0x0a, 0x55, 0x3d, 0x30, 0xf1, 0x8c, 0x3d, 0xb6, 0x0b, 0x92, 0x3d,
  0x1e, 0x4d, 0x0c, 0xbd, 0xcb, 0x4b, 0xc8, 0xbd, 0x8b, 0x2d, 0x5b, 0xbe,
  0xa3, 0x85, 0xf0, 0xbc, 0x0d, 0xe0, 0x4c, 0xbe, 0x46, 0xaf, 0xae, 0xbc,
  0x42, 0xcb, 0xc1, 0x3d, 0x9b, 0xb1, 0x02, 0xbe, 0x7e, 0x64, 0xdb, 0xbd,
  0xec, 0x71, 0xda, 0xbd, 0x00, 0x62, 0x09, 0x3d, 0x61, 0xb6, 0x78, 0xbd,
  0xb8, 0x24, 0x13, 0x3e, 0x05, 0x22, 0x4b, 0x3e, 0xa0, 0xef, 0x12, 0xbe,
  0xee, 0x10, 0x07, 0x3e, 0x4e, 0xb6, 0xcf, 0x3d, 0x2c, 0x33, 0x96, 0xbd,
  0xe3, 0xd3, 0x02, 0x3d, 0x44, 0x8b, 0xc3, 0xbd, 0xe0, 0xa5, 0x58, 0xbe,
  0xa8, 0x52, 0xe3, 0xbd, 0x05, 0x56, 0x9b, 0xbd, 0x69, 0x3c, 0xeb, 0xbd,
  0x96, 0xf5, 0x30, 0x3e, 0xeb, 0xd0, 0xbc, 0x3d, 0x2d, 0xe9, 0xc2, 0x3d,
  0x79, 0x4e, 0x34, 0xbe, 0xf0, 0xd7, 0x9b, 0x3d, 0x97, 0x8f, 0xbf, 0x3d,
  0x9b, 0x04, 0x30, 0xbe, 0x84, 0xee, 0xb9, 0x3c, 0xb2, 0x18, 0x01, 0x3d,
  0x6b, 0x21, 0x17, 0x3e, 0x52, 0xd6, 0x1e, 0x3d, 0xd0, 0xf8, 0x35, 0xbe,
  0xce, 0xa9, 0x4a, 0x3e, 0xe8, 0x51, 0x3c, 0xbd, 0x38, 0x33, 0x12, 0x3e,
  0x83, 0xf1, 0x46, 0xbe, 0x60, 0x9b, 0x3c, 0xbe, 0xf1, 0xc4, 0xe7, 0x3d,
  0xce, 0x0b, 0xf8, 0xbb, 0xd0, 0x0d, 0xba, 0xbb, 0xa5, 0x70, 0x2d, 0xbe,
  0x3f, 0xdb, 0xfe, 0xbc, 0x8b, 0xf4, 0x5d, 0xbd, 0x2e, 0xdc, 0x69, 0xbe,
  0xcf, 0xa7, 0xfe, 0xbd, 0x62, 0x25, 0x1e, 0xbe, 0x7f, 0x98, 0x10, 0x3e,
  0x8e, 0x4d, 0xaf, 0xbd, 0x79, 0x39, 0x18, 0xbe, 0x9f, 0xa3, 0x7c, 0x3d,
  0x6d, 0x79, 0x42, 0xbe, 0x52, 0x1f, 0x26, 0x3d, 0x21, 0x8d, 0x09, 0x3e,
  0x66, 0x21, 0xa7, 0x3d, 0x0a, 0x19, 0x0d, 0x3d, 0x11, 0xd6, 0x7a, 0xbe,
  0x92, 0x28, 0xa3, 0x3d, 0x59, 0x5b, 0xb2, 0x3d, 0x72, 0x33, 0x2d, 0x3d,
  0xf1, 0x1b, 0xcc, 0x3d, 0x94, 0x37, 0x66, 0x3c, 0x9f, 0x6f, 0x4a, 0xbb,
  0x76, 0x03, 0xb0, 0xbd, 0x7f, 0x06, 0x85, 0xbe, 0xeb, 0xb0, 0x7f, 0xbb,
  0xbe, 0xa4, 0x2a, 0xbc, 0xca, 0xb5, 0x01, 0x3e, 0x94, 0x0c, 0x42, 0xbe,
  0x82, 0x1d, 0x4c, 0xbe, 0x70, 0xac, 0x4b, 0xbe, 0xbc, 0xf7, 0x51, 0xbe,
  0x95, 0xfd, 0x1c, 0x3e, 0x27, 0x85, 0x38, 0x3a, 0xac, 0x85, 0xa0, 0x3d,
  0x43, 0x8b, 0xcb, 0xbd, 0x7c, 0xde, 0x48, 0xbe, 0x44, 0xc8, 0x02, 0x3d,
  0xe6, 0xdd, 0x5c, 0xbe, 0x0e, 0x2b, 0x25, 0xbd, 0x30, 0xca, 0xfd, 0xbd,
  0x8a, 0xd6, 0x1b, 0x3e, 0x9e, 0xde, 0x1b, 0xbe, 0x10, 0x42, 0x64, 0xbd,
  0xbd, 0x32, 0x79, 0xbe, 0x96, 0xe1, 0x19, 0xbe, 0x80, 0x44, 0x38, 0xbe,
  0xeb, 0x21, 0x5d, 0x3e, 0xdd, 0xc5, 0x42, 0xbe, 0xf8, 0x76, 0x0c, 0xbe,
  0xdd, 0x06, 0x1b, 0xbe, 0xc1, 0x21, 0x0d, 0x3e, 0xb5, 0x14, 0x97, 0xbd,
  0x24, 0x3d, 0xb8, 0x3d, 0x02, 0x6c, 0xd2, 0x3d, 0x62, 0xe9, 0x30, 0x3e,
  0xad, 0xf3, 0x31, 0xbe, 0xa7, 0xc7, 0x05, 0x3c, 0x65, 0xbc, 0xcb, 0xbd,
  0xca, 0xf6, 0xf6, 0xbd, 0x8b, 0xb2, 0x83, 0xbe, 0x8c, 0xaa, 0x61, 0xbe,
  0xca, 0xad, 0xce, 0x3d, 0x62, 0x5a, 0xf2, 0xbd, 0x56, 0x2b, 0x0e, 0xbe,
  0xd2, 0x5d, 0x57, 0xbe, 0xda, 0xac, 0x8b, 0xbd, 0x23, 0x8e, 0x2a, 0xbe,
  0xbd, 0xeb, 0xa2, 0x3c, 0x57, 0x6d, 0x87, 0xbe, 0xc4, 0x9e, 0x94, 0xbd,
  0xf5, 0xa7, 0x93, 0xbd, 0xcc, 0x48, 0x81, 0xbb, 0x4c, 0x97, 0x1b, 0xbe,
  0xb7, 0x47, 0x28, 0x3e, 0x10, 0x07, 0xbe, 0x3d, 0x6e, 0x14, 0x44, 0x3d,
  0xdd, 0x1b, 0xc1, 0xbd, 0x1e, 0x04, 0x4d, 0xbe, 0x96, 0xf9, 0x8b, 0xbd,
  0x88, 0xa1, 0x15, 0xbd, 0x03, 0x57, 0x2a, 0xbe, 0xc6, 0x08, 0x88, 0xbd,
  0x36, 0x45, 0xa1, 0xbc, 0x39, 0x1b, 0x8a, 0xbe, 0xe1, 0x51, 0x58, 0xbe,
  0x0d, 0x71, 0x21, 0xbd, 0xba, 0x4b, 0xca, 0x3d, 0xe7, 0x15, 0x24, 0x3e,
  0xd5, 0x02, 0x3f, 0xbe, 0x3c, 0xbc, 0x72, 0x3d, 0x9c, 0x30, 0x04, 0x3e,
  0x8f, 0x30, 0x68, 0xbb, 0xdc, 0x73, 0x39, 0x3e, 0x96, 0x6a, 0xf5, 0x3d,
  0x5c, 0x24, 0x04, 0xbe, 0xa9, 0x40, 0xa4, 0xbd, 0xfd, 0x2d, 0xa9, 0xbd,
  0xeb, 0x38, 0x24, 0x3e, 0xcb, 0x4e, 0x2c, 0x3e, 0xf8, 0xd7, 0x93, 0xbe,
  0x55, 0x32, 0x7a, 0xbe, 0x40, 0x18, 0xe5, 0x3d, 0xc8, 0x7d, 0x68, 0xbe,
  0x2a, 0x8f, 0x48, 0xbe, 0x8b, 0xa7, 0xec, 0xbd, 0xe4, 0x7b, 0x42, 0xbe,
  0xb2, 0x6d, 0x37, 0xbd, 0x1f, 0x6e, 0xd7, 0x3d, 0xfe, 0x4a, 0x15, 0xbd,
  0x14, 0xc1, 0x32, 0xbe, 0x09, 0x97, 0x2a, 0xbe, 0x04, 0x59, 0xbf, 0xbd,
  0xf8, 0x28, 0xb3, 0xbd, 0x3e, 0xcb, 0xd2, 0x3d, 0xff, 0x73, 0x2c, 0x3b,
  0x2d, 0xad, 0xb6, 0x3d, 0x3e, 0xd4, 0x33, 0x3d, 0xfe, 0x04, 0x60, 0xbe,
  0x73, 0xfa, 0x5e, 0x3d, 0x7f, 0xbd, 0xca, 0xbd, 0x33, 0x3b, 0xb1, 0x3d,
  0x68, 0xb4, 0x5b, 0xbe, 0xa9, 0x75, 0x9f, 0xbd, 0xe4, 0xf3, 0xdc, 0xbd,
  0xb9, 0xc8, 0x07, 0xbe, 0xb0, 0x3a, 0x91, 0xbc, 0xfe, 0xc3, 0x31, 0x3e,
  0x39, 0xb6, 0x2c, 0x3e, 0x33, 0x7c, 0xd9, 0xbd, 0x38, 0x26, 0x10, 0x3e,
  0xff, 0x13, 0x4a, 0x3e, 0x87, 0xf2, 0x9b, 0x3d, 0xce, 0x8a, 0xee, 0x3d,
  0xbd, 0xc5, 0x1a, 0xbe, 0xd8, 0xfb, 0xdb, 0xbd, 0xa3, 0xe5, 0xbc, 0x3d,
  0xe6, 0x19, 0x1f, 0x3d, 0xef, 0xc1, 0xac, 0x3d, 0x36, 0x8c, 0xda, 0xbd,
  0x5f, 0x72, 0x3e, 0xbe, 0x8d, 0xa0, 0x52, 0xbe, 0x4c, 0xd2, 0xc9, 0x3c,
  0x34, 0x98, 0x41, 0x3e, 0xa9, 0x0a, 0xa4, 0xbd, 0x60, 0x8e, 0x30, 0xbd,
  0x42, 0x4d, 0xd6, 0x3d, 0x4e, 0xe0, 0xdc, 0x3d, 0xbf, 0xb5, 0x01, 0xbe,
  0xe2, 0x49, 0xd4, 0xbd, 0xeb, 0x89, 0xc3, 0x3d, 0x76, 0xb3, 0x70, 0xbe,
  0x8a, 0x21, 0x2a, 0xbd, 0xbf, 0xb9, 0x86, 0x3d, 0x0a, 0xfa, 0xd1, 0x3d,
  0x3a, 0x25, 0x2c, 0x3e, 0x6c, 0xcd, 0x93, 0xbd, 0x02, 0x5c, 0x9f, 0xbd,
  0x1a, 0x77, 0x1f, 0xbe, 0x7e, 0xf0, 0xa5, 0xbd, 0xc2, 0x6e, 0x5e, 0xbd,
  0xf1, 0xe3, 0x4b, 0x39, 0x1d, 0x9c, 0x5a, 0x3e, 0xce, 0xa4, 0x7a, 0xbe,
  0xb7, 0x8f, 0x89, 0x3c, 0xae, 0x3a, 0x91, 0xbe, 0xb3, 0xb7, 0xba, 0x3d,
  0x67, 0x70, 0x92, 0x3c, 0x26, 0xc8, 0x53, 0xbe, 0x58, 0xed, 0x31, 0xbd,
  0xfd, 0x87, 0x47, 0xbe, 0x84, 0x7e, 0xa4, 0xbd, 0x39, 0x3c, 0x4a, 0xbd,
  0x3d, 0x58, 0x31, 0x3e, 0xf6, 0xbc, 0x42, 0xbe, 0xe7, 0xb5, 0x3f, 0x3d,
  0x72, 0xd1, 0x93, 0xbc, 0x6f, 0x3d, 0x6f, 0xbe, 0xae, 0x58, 0xf4, 0x3c,
  0xfe, 0x20, 0xc9, 0xbd, 0x29, 0xc2, 0x28, 0xbb, 0x4b, 0x28, 0x21, 0xbd,
  0x97, 0x48, 0x94, 0xbd, 0xc6, 0xd6, 0x26, 0xbd, 0x9b, 0x9c, 0x14, 0x3e,
  0x7a, 0x95, 0x80, 0xbe, 0x28, 0xa5, 0x1a, 0xbc, 0xcb, 0xd0, 0x7a, 0x3d,
  0x8a, 0x6f, 0x97, 0xbd, 0x17, 0x44, 0x4a, 0xbe, 0x2f, 0xb3, 0x82, 0xbd,
  0x6f, 0xc3, 0xc8, 0x3d, 0x52, 0xce, 0x46, 0xbe, 0x2b, 0x66, 0x45, 0xbc,
  0xfb, 0x5b, 0x95, 0xbd, 0x5d, 0xc9, 0xd2, 0x3d, 0x86, 0xb1, 0x09, 0xbe,
  0x66, 0x80, 0x3b, 0xbe, 0x63, 0xc2, 0x78, 0xbd, 0xc2, 0x3b, 0x01, 0x3e,
  0x04, 0x8a, 0xce, 0x3d, 0xab, 0xaf, 0x07, 0xbe, 0x76, 0x20, 0xa0, 0x3d,
  0x82, 0xc8, 0x99, 0xbd, 0xf7, 0x34, 0xd7, 0xbd, 0x4c, 0x1d, 0x49, 0x3d,
  0x0b, 0xe0, 0x40, 0xbd, 0xbf, 0xe2, 0x7f, 0x3c, 0x83, 0xb5, 0x04, 0xbe,
  0x22, 0x69, 0x66, 0xbe, 0x22, 0xc9, 0x6c, 0xbe, 0x16, 0x54, 0x03, 0x3e,
  0xad, 0xce, 0x92, 0xbd, 0xbf, 0xb1, 0xc0, 0xbd, 0x2a, 0xa0, 0x56, 0x3d,
  0xbf, 0x7a, 0x05, 0xbc, 0xa5, 0xe2, 0x66, 0xbe, 0x52, 0x0b, 0xe4, 0xbd,
  0xb7, 0xaa, 0x1f, 0xbe, 0x12, 0x7e, 0xe8, 0x3c, 0xda, 0xc5, 0xfe, 0xbd,
  0xb9, 0x48, 0x70, 0x3c, 0xee, 0x68, 0x7a, 0x3c, 0x9a, 0x18, 0x06, 0x3e,
  0xb3, 0x68, 0x31, 0xbe, 0x93, 0xf7, 0x19, 0xbc, 0x26, 0x59, 0xb5, 0xbd,
  0xab, 0xca, 0x4e, 0xbe, 0x0d, 0xeb, 0xa0, 0x3c, 0x34, 0x04, 0x1b, 0x3c,
  0x75, 0x55, 0x3e, 0xbe, 0xe7, 0x61, 0x37, 0xbd, 0x47, 0x97, 0xfb, 0x3d,
  0x8a, 0xb7, 0xc8, 0xbd, 0x2c, 0x19, 0x4a, 0x3d, 0xb0, 0xe2, 0xfe, 0xbd,
  0xf8, 0xbd, 0x16, 0xbe, 0xe8, 0x03, 0xd2, 0x3d, 0x6d, 0x8a, 0x05, 0x3e,
  0x09, 0x58, 0x35, 0x3e, 0xcc, 0x09, 0xda, 0x3d, 0xfa, 0xaa, 0xe0, 0x3d,
  0xc1, 0x31, 0x97, 0x3b, 0x63, 0xbc, 0x01, 0x3e, 0xf4, 0x70, 0x68, 0xbe,
  0x02, 0x19, 0xe3, 0xbd, 0x4b, 0x21, 0x3f, 0xbe, 0x13, 0xaf, 0xe1, 0x3d,
  0x2e, 0x31, 0x12, 0x3d, 0xa2, 0xcd, 0xc5, 0x3d, 0x7e, 0xfd, 0x83, 0xbd,
  0xdf, 0x2d, 0x5d, 0xbe, 0x00, 0x63, 0x65, 0xbe, 0x7a, 0xfc, 0x8d, 0xbd,
  0x41, 0xce, 0xbb, 0x3d, 0xe6, 0x71, 0x79, 0xbe, 0x33, 0x31, 0x68, 0xbe,
  0x95, 0x7a, 0x00, 0xbd, 0x4d, 0xf9, 0x40, 0x3d, 0x39, 0x8d, 0x6c, 0xbd,
  0x01, 0x2f, 0xdf, 0xbc, 0x5a, 0xc1, 0xe6, 0x3d, 0x03, 0x6e, 0x1e, 0xbe,
  0x30, 0x0b, 0xd4, 0xbd, 0x57, 0xea, 0xf4, 0xbd, 0x20, 0x23, 0x7e, 0xbd,
  0x13, 0x31, 0xf5, 0x3d, 0xff, 0x53, 0x5a, 0x3c, 0xca, 0x91, 0x36, 0xbe,
  0xf3, 0xc1, 0x20, 0xbd, 0x4c, 0x50, 0x11, 0xbe, 0xab, 0x99, 0x62, 0x3e,
  0x82, 0x52, 0x11, 0xbd, 0x5e, 0xa9, 0x74, 0xbe, 0x93, 0x7f, 0x21, 0xbe,
  0x80, 0x7d, 0xfd, 0x39, 0x64, 0xad, 0x79, 0xbe, 0xf6, 0x4d, 0xdf, 0xbc,
  0x0b, 0xac, 0x97, 0xbd, 0x52, 0x19, 0x08, 0x3e, 0x69, 0x52, 0x43, 0xbe,
  0x29, 0x12, 0x1a, 0xbe, 0x67, 0x17, 0x3f, 0xbe, 0x95, 0x10, 0x4d, 0x3e,
  0x7e, 0x59, 0xc3, 0x3d, 0x6f, 0x6d, 0x02, 0xbd, 0xf2, 0xef, 0xc1, 0xbd,
  0xa8, 0x06, 0xbc, 0xbd, 0xba, 0xbb, 0x1e, 0xbe, 0x03, 0xdb, 0x5c, 0xbe,
  0x76, 0x13, 0xb3, 0xbd, 0xfb, 0x7a, 0x78, 0xbd, 0xf3, 0xb7, 0x5b, 0xbe,
  0xbe, 0xf0, 0xc0, 0xbd, 0x9c, 0x1c, 0x0d, 0xbe, 0x21, 0xa1, 0xb0, 0x3d,
  0xb7, 0xaf, 0xc4, 0x3d, 0x54, 0x02, 0x1f, 0xbe, 0xd3, 0x87, 0x8a, 0x3d,
  0xf5, 0xaa, 0x51, 0xbe, 0x3a, 0x3f, 0x76, 0x3d, 0x0c, 0x0a, 0xb3, 0xbd,
  0xeb, 0x7f, 0x71, 0xbe, 0x16, 0xc5, 0x0a, 0xba, 0xbf, 0x79, 0x4f, 0x3d,
  0x60, 0xfc, 0x74, 0xbe, 0x2e, 0x1d, 0x15, 0x3e, 0x4b, 0xb0, 0x16, 0x3e,
  0x4b, 0x93, 0x82, 0xbc, 0x2c, 0xb6, 0x8a, 0xbd, 0x5a, 0xef, 0x36, 0xbe,
  0x9c, 0xba, 0x4b, 0xbe, 0x99, 0xda, 0x28, 0xbc, 0x8d, 0x47, 0xab, 0xbc,
  0x98, 0xc8, 0xa7, 0x3c, 0x21, 0xd8, 0xb3, 0xbb, 0x99, 0x73, 0x9d, 0xbd,
  0x1e, 0x96, 0x48, 0xbd, 0x87, 0xf4, 0x49, 0xbd, 0x87, 0xeb, 0x8b, 0xbd,
  0xda, 0x2c, 0x4d, 0xbd, 0x88, 0x3b, 0xfe, 0xbd, 0x98, 0x0a, 0xe6, 0x3c,
  0xa4, 0x94, 0x3f, 0xbe, 0xac, 0xe1, 0x3f, 0xbe, 0xbd, 0xe4, 0x03, 0xbd,
  0x92, 0x8f, 0x1b, 0xbe, 0x3b, 0xa7, 0x49, 0x3d, 0x4b, 0xe3, 0x40, 0xbc,
  0x3c, 0xd4, 0xf7, 0xbd, 0x49, 0xb6, 0x63, 0x3d, 0xdc, 0xe2, 0x18, 0xbe,
  0xb6, 0xa3, 0xa0, 0x3d, 0x6b, 0xb0, 0x13, 0x3d, 0xa8, 0xb2, 0x37, 0x3d,
  0x2a, 0xaa, 0x4c, 0xbc, 0xcb, 0xd7, 0x36, 0xbe, 0x79, 0x2f, 0xb9, 0xbd,
  0xb5, 0x60, 0x10, 0x3e, 0x63, 0x79, 0x64, 0x3d, 0xfd, 0x7f, 0xc7, 0x3c,
  0x91, 0x6c, 0x34, 0xbe, 0x8e, 0x54, 0x18, 0x3d, 0x97, 0xfc, 0x35, 0xbd,
  0x8d, 0xbf, 0x87, 0x3d, 0x2a, 0xd3, 0xc5, 0x3d, 0x16, 0xb1, 0x4a, 0xbe,
  0xa5, 0xe0, 0x2a, 0xbe, 0x83, 0xe2, 0xe1, 0xbd, 0xf8, 0xff, 0x0e, 0xbc,
  0x9c, 0x7d, 0x04, 0xbe, 0x66, 0x4a, 0x20, 0x3e, 0x61, 0x22, 0xea, 0xbd,
  0x56, 0x5c, 0x8c, 0xbd, 0x2c, 0xa2, 0xc6, 0x3d, 0x33, 0x03, 0x11, 0xbe,
  0x6b, 0x9b, 0xa0, 0xbd, 0x22, 0x24, 0x3c, 0xbe, 0x3a, 0x7d, 0x2d, 0xbe,
  0xad, 0xe6, 0x68, 0xbe, 0xcc, 0x23, 0xee, 0xba, 0x77, 0x5e, 0x91, 0xbd,
  0x0c, 0xc7, 0xab, 0xbd, 0xda, 0x23, 0x15, 0xbc, 0xa3, 0x4d, 0x10, 0xbd,
  0x36, 0xcf, 0xc6, 0xbd, 0x09, 0xc9, 0x13, 0xbc, 0x03, 0xad, 0x75, 0xbe,
  0x82, 0xeb, 0x36, 0x3d, 0x5b, 0xb9, 0x34, 0xbd, 0xb2, 0x4a, 0xb9, 0xbd,
  0x7c, 0x79, 0x8b, 0xbe, 0xe9, 0xcf, 0x2f, 0xbe, 0x0a, 0xac, 0x60, 0xbe,
  0xe6, 0x6a, 0x4d, 0xbc, 0x58, 0x2e, 0x2d, 0xbe, 0xbe, 0x59, 0x13, 0xbe,
  0x91, 0xa2, 0xe4, 0xbd, 0xe5, 0xd3, 0x89, 0xbd, 0x94, 0x64, 0xe9, 0x3c,
  0x34, 0x6a, 0x1e, 0xbd, 0x6f, 0xd2, 0x88, 0x3c, 0xb1, 0x34, 0x91, 0xbe,
  0x0e, 0x38, 0x34, 0xbd, 0x2e, 0x3e, 0x1c, 0x3d, 0xc7, 0xbc, 0x4c, 0xbd,
  0x72, 0x87, 0x56, 0x3d, 0x9e, 0x78, 0x9c, 0x3d, 0xb3, 0x2f, 0x39, 0xbd,
  0x3d, 0xcd, 0x3b, 0xba, 0x76, 0x9f, 0x0d, 0xbe, 0x50, 0xb9, 0x46, 0xbe,
  0x18, 0x74, 0xbf, 0xbd, 0x51, 0xf3, 0x41, 0xbe, 0xb6, 0x39, 0x43, 0xbe,
  0x0e, 0x97, 0x03, 0x3e, 0xcd, 0x89, 0x61, 0xbd, 0x24, 0xe0, 0x95, 0xbd,
  0xad, 0x85, 0xdb, 0xbe, 0x42, 0xa4, 0xc5, 0xbe, 0x46, 0x32, 0x4b, 0xbe,
  0x00, 0x49, 0x0c, 0xbe, 0x31, 0x6e, 0x03, 0xbd, 0x51, 0x3c, 0xa9, 0xbd,
  0x6c, 0x43, 0xa4, 0xbd, 0x4e, 0xd5, 0x21, 0xbe, 0xbe, 0x49, 0x35, 0xbe,
  0x8c, 0xe2, 0x56, 0xbe, 0x86, 0x86, 0x75, 0xbe, 0xb5, 0xd6, 0xcb, 0x3b,
  0x15, 0x78, 0x40, 0xbe, 0x25, 0xd7, 0x1b, 0xbe, 0x91, 0xd3, 0xb7, 0xbd,
  0x22, 0xdc, 0x96, 0xbe, 0x56, 0x85, 0xe7, 0xbe, 0x26, 0xc7, 0x57, 0x3e,
  0x38, 0x39, 0x7f, 0x3d, 0xbb, 0x0f, 0x48, 0xbd, 0x39, 0x82, 0xf7, 0x3e,
  0xf6, 0x6d, 0x48, 0xbe, 0x35, 0x80, 0x30, 0x3e, 0x89, 0xc9, 0x28, 0xbd,
  0x61, 0x05, 0xb9, 0xbd, 0x23, 0xc9, 0x4b, 0x3e, 0x4b, 0xd7, 0xcc, 0xbd,
  0xaf, 0xa1, 0xa3, 0x3c, 0x6e, 0x10, 0x10, 0xbd, 0xe1, 0x26, 0x96, 0x3e,
  0xc2, 0x4e, 0xc6, 0xbc, 0x24, 0x7f, 0x07, 0xbe, 0xd1, 0xdc, 0x6e, 0x3b,
  0x4d, 0x45, 0xca, 0x3e, 0x03, 0x0f, 0xb3, 0x3e, 0x35, 0xdd, 0x5b, 0x3d,
  0x8e, 0x9b, 0xde, 0x3e, 0xac, 0x71, 0x0c, 0x3e, 0xfd, 0x08, 0xb9, 0xbc,
  0x5b, 0x0b, 0x93, 0x3c, 0xa4, 0xc1, 0x80, 0x3c, 0x62, 0xd1, 0x27, 0xbe,
  0x7f, 0x23, 0x57, 0x3d, 0xe7, 0x6e, 0xc7, 0x3e, 0xf6, 0xb9, 0xb8, 0xbc,
  0x11, 0xed, 0x80, 0x3d, 0x7b, 0x37, 0x2b, 0x3d, 0xde, 0x38, 0x9b, 0x3e,
  0x9b, 0x45, 0xc5, 0x3e, 0xcb, 0x8f, 0x1d, 0x3f, 0x2f, 0x3f, 0xb3, 0x3d,
  0x43, 0x94, 0x6f, 0xbc, 0xa9, 0xac, 0xb3, 0x3e, 0x0d, 0xcf, 0x90, 0x3e,
  0x49, 0x9a, 0xd8, 0x3d, 0xf2, 0xd7, 0xec, 0x3d, 0xd6, 0xa9, 0x5e, 0x3e,
  0x1b, 0xc2, 0x86, 0x3e, 0xb6, 0xdc, 0x21, 0x3e, 0xff, 0x1c, 0xf6, 0x3e,
  0x5f, 0x9f, 0x6d, 0x3e, 0x72, 0x0f, 0xaa, 0x3e, 0x00, 0xce, 0x5d, 0xbc,
  0x5e, 0x4f, 0x56, 0x3e, 0xfc, 0x93, 0x5a, 0x3e, 0xb9, 0xb6, 0xdd, 0x3e,
  0x46, 0xfe, 0xff, 0xff, 0x10, 0x00, 0x00, 0x00, 0x05, 0x00, 0x00, 0x00,
  0x14, 0x00, 0x00, 0x00, 0x2c, 0x00, 0x00, 0x00, 0x02, 0x00, 0x00, 0x00,
  0x10, 0x00, 0x00, 0x00, 0x70, 0x00, 0x00, 0x00, 0x17, 0x00, 0x00, 0x00,
  0x73, 0x65, 0x71, 0x75, 0x65, 0x6e, 0x74, 0x69, 0x61, 0x6c, 0x2f, 0x64,
  0x65, 0x6e, 0x73, 0x65, 0x2f, 0x4d, 0x61, 0x74, 0x4d, 0x75, 0x6c, 0x00,
  0x34, 0xfe, 0xff, 0xff, 0x2a, 0xff, 0xff, 0xff, 0x04, 0x00, 0x00, 0x00,
  0x08, 0x00, 0x00, 0x00, 0xff, 0xff, 0xff, 0xff, 0x70, 0x00, 0x00, 0x00,
  0x00, 0x00, 0x0e, 0x00, 0x18, 0x00, 0x08, 0x00, 0x07, 0x00, 0x0c, 0x00,
  0x10, 0x00, 0x14, 0x00, 0x0e, 0x00, 0x00, 0x00, 0x00, 0x00, 0x00, 0x02,
  0x10, 0x00, 0x00, 0x00, 0x04, 0x00, 0x00, 0x00, 0x10, 0x00, 0x00, 0x00,
  0x2c, 0x00, 0x00, 0x00, 0x01, 0x00, 0x00, 0x00, 0x02, 0x00, 0x00, 0x00,
  0x18, 0x00, 0x00, 0x00, 0x73, 0x65, 0x71, 0x75, 0x65, 0x6e, 0x74, 0x69,
  0x61, 0x6c, 0x2f, 0x66, 0x6c, 0x61, 0x74, 0x74, 0x65, 0x6e, 0x2f, 0x43,
  0x6f, 0x6e, 0x73, 0x74, 0x00, 0x00, 0x00, 0x00, 0x9c, 0xfe, 0xff, 0xff,
  0x92, 0xff, 0xff, 0xff, 0x04, 0x00, 0x00, 0x00, 0x10, 0x00, 0x00, 0x00,
  0x86, 0xb3, 0xe6, 0x3b, 0x04, 0x59, 0x20, 0xbf, 0xa5, 0x9a, 0xd7, 0xbf,
  0xe4, 0xda, 0x88, 0x3f, 0x0a, 0xff, 0xff, 0xff, 0x10, 0x00, 0x00, 0x00,
  0x03, 0x00, 0x00, 0x00, 0x10, 0x00, 0x00, 0x00, 0x3c, 0x00, 0x00, 0x00,
  0x01, 0x00, 0x00, 0x00, 0x04, 0x00, 0x00, 0x00, 0x29, 0x00, 0x00, 0x00,
  0x73, 0x65, 0x71, 0x75, 0x65, 0x6e, 0x74, 0x69, 0x61, 0x6c, 0x2f, 0x64,
  0x65, 0x6e, 0x73, 0x65, 0x5f, 0x31, 0x2f, 0x42, 0x69, 0x61, 0x73, 0x41,
  0x64, 0x64, 0x2f, 0x52, 0x65, 0x61, 0x64, 0x56, 0x61, 0x72, 0x69, 0x61,
  0x62, 0x6c, 0x65, 0x4f, 0x70, 0x00, 0x00, 0x00, 0x60, 0xff, 0xff, 0xff,
  0x00, 0x00, 0x06, 0x00, 0x08, 0x00, 0x04, 0x00, 0x06, 0x00, 0x00, 0x00,
  0x04, 0x00, 0x00, 0x00, 0x40, 0x00, 0x00, 0x00, 0x37, 0x79, 0x86, 0xbd,
  0x62, 0x9d, 0x27, 0x3f, 0xce, 0x16, 0xff, 0xbd, 0xe6, 0x0a, 0x14, 0x3f,
  0xcc, 0x10, 0x10, 0xbd, 0x84, 0xa9, 0x86, 0xbd, 0xa1, 0x08, 0x2d, 0xbf,
  0x82, 0x3f, 0xa5, 0xbd, 0x80, 0x89, 0x64, 0x3f, 0x6d, 0x52, 0x67, 0xbd,
  0x6d, 0xf9, 0xc6, 0xbd, 0x27, 0x8f, 0x90, 0xbd, 0x02, 0xcc, 0xdc, 0xbd,
  0x64, 0x49, 0xa7, 0xbd, 0x80, 0xc1, 0x72, 0xbd, 0x24, 0x12, 0xdb, 0xbe,
  0xae, 0xff, 0xff, 0xff, 0x10, 0x00, 0x00, 0x00, 0x02, 0x00, 0x00, 0x00,
  0x10, 0x00, 0x00, 0x00, 0x3c, 0x00, 0x00, 0x00, 0x01, 0x00, 0x00, 0x00,
  0x10, 0x00, 0x00, 0x00, 0x27, 0x00, 0x00, 0x00, 0x73, 0x65, 0x71, 0x75,
  0x65, 0x6e, 0x74, 0x69, 0x61, 0x6c, 0x2f, 0x64, 0x65, 0x6e, 0x73, 0x65,
  0x2f, 0x42, 0x69, 0x61, 0x73, 0x41, 0x64, 0x64, 0x2f, 0x52, 0x65, 0x61,
  0x64, 0x56, 0x61, 0x72, 0x69, 0x61, 0x62, 0x6c, 0x65, 0x4f, 0x70, 0x00,
  0x04, 0x00, 0x06, 0x00, 0x04, 0x00, 0x00, 0x00, 0x00, 0x00, 0x0e, 0x00,
  0x14, 0x00, 0x04, 0x00, 0x00, 0x00, 0x08, 0x00, 0x0c, 0x00, 0x10, 0x00,
  0x0e, 0x00, 0x00, 0x00, 0x10, 0x00, 0x00, 0x00, 0x01, 0x00, 0x00, 0x00,
  0x1c, 0x00, 0x00, 0x00, 0x2c, 0x00, 0x00, 0x00, 0x04, 0x00, 0x00, 0x00,
  0x01, 0x00, 0x00, 0x00, 0x40, 0x00, 0x00, 0x00, 0x03, 0x00, 0x00, 0x00,
  0x01, 0x00, 0x00, 0x00, 0x0c, 0x00, 0x00, 0x00, 0x63, 0x6f, 0x6e, 0x76,
  0x32, 0x64, 0x5f, 0x69, 0x6e, 0x70, 0x75, 0x74, 0x00, 0x00, 0x00, 0x00,
  0xfc, 0xff, 0xff, 0xff, 0x04, 0x00, 0x04, 0x00, 0x04, 0x00, 0x00, 0x00

 

};


unsigned int model_tflite_len = 12384;// Fill the int in `src/model.cc` here
